{
  "version": "1.0",
  "truncation": null,
  "padding": null,
  "added_tokens": [
    {
      "id": 0,
      "content": "<s>",
      "single_word": false,
      "lstrip": false,
      "rstrip": false,
      "normalized": false,
      "special": true
    },
    {
      "id": 1,
      "content": "</s>",
      "single_word": false,
      "lstrip": false,
      "rstrip": false,
      "normalized": false,
      "special": true
    },
    {
      "id": 2,
      "content": "<pad>",
      "single_word": false,
      "lstrip": false,
      "rstrip": false,
      "normalized": false,
      "special": true
    },
    {
      "id": 3,
      "content": "<unk>",
      "single_word": false,
      "lstrip": false,
      "rstrip": false,
      "normalized": false,
      "special": true
    },
    {
      "id": 4,
      "content": "<|start_of_turn|>",
      "single_word": false,
      "lstrip": false,
      "rstrip": false,
      "normalized": false,
      "special": true
    },
    {
      "id": 5,
      "content": "<|end_of_turn|>",
      "single_word": false,
      "lstrip": false,
      "rstrip": false,
      "normalized": false,
      "special": true
    },
    {
      "id": 6,
      "content": "<|start_system_prompt|>",
      "single_word": false,
      "lstrip": false,
      "rstrip": false,
      "normalized": false,
      "special": true
    },
    {
      "id": 7,
      "content": "<|end_system_prompt|>",
      "single_word": false,
      "lstrip": false,
      "rstrip": false,
      "normalized": false,
      "special": true
    },
    {
      "id": 8,
      "content": "<|fim_prefix|>",
      "single_word": false,
      "lstrip": false,
      "rstrip": false,
      "normalized": false,
      "special": true
    },
    {
      "id": 9,
      "content": "<|fim_middle|>",
      "single_word": false,
      "lstrip": false,
      "rstrip": false,
      "normalized": false,
      "special": true
    },
    {
      "id": 10,
      "content": "<|fim_suffix|>",
      "single_word": false,
      "lstrip": false,
      "rstrip": false,
      "normalized": false,
      "special": true
    }
  ],
  "normalizer": {
    "type": "NFKC"
  },
  "pre_tokenizer": {
    "type": "Sequence",
    "pretokenizers": [
      {
        "type": "Digits",
        "individual_digits": true
      },
      {
        "type": "ByteLevel",
        "add_prefix_space": false,
        "trim_offsets": true,
        "use_regex": true
      }
    ]
  },
  "post_processor": {
    "type": "ByteLevel",
    "add_prefix_space": true,
    "trim_offsets": true,
    "use_regex": true
  },
  "decoder": {
    "type": "ByteLevel",
    "add_prefix_space": true,
    "trim_offsets": true,
    "use_regex": true
  },
  "model": {
    "type": "BPE",
    "dropout": null,
    "unk_token": null,
    "continuing_subword_prefix": null,
    "end_of_word_suffix": null,
    "fuse_unk": false,
    "byte_fallback": false,
    "vocab": {
      "<s>": 0,
      "</s>": 1,
      "<pad>": 2,
      "<unk>": 3,
      "<|start_of_turn|>": 4,
      "<|end_of_turn|>": 5,
      "<|start_system_prompt|>": 6,
      "<|end_system_prompt|>": 7,
      "<|fim_prefix|>": 8,
      "<|fim_middle|>": 9,
      "<|fim_suffix|>": 10,
      "!": 11,
      "\"": 12,
      "#": 13,
      "$": 14,
      "%": 15,
      "&": 16,
      "'": 17,
      "(": 18,
      ")": 19,
      "*": 20,
      "+": 21,
      ",": 22,
      "-": 23,
      ".": 24,
      "/": 25,
      "0": 26,
      "1": 27,
      "2": 28,
      "3": 29,
      "4": 30,
      "5": 31,
      "6": 32,
      "7": 33,
      "8": 34,
      "9": 35,
      ":": 36,
      ";": 37,
      "<": 38,
      "=": 39,
      ">": 40,
      "?": 41,
      "@": 42,
      "A": 43,
      "B": 44,
      "C": 45,
      "D": 46,
      "E": 47,
      "F": 48,
      "G": 49,
      "H": 50,
      "I": 51,
      "J": 52,
      "K": 53,
      "L": 54,
      "M": 55,
      "N": 56,
      "O": 57,
      "P": 58,
      "Q": 59,
      "R": 60,
      "S": 61,
      "T": 62,
      "U": 63,
      "V": 64,
      "W": 65,
      "X": 66,
      "Y": 67,
      "Z": 68,
      "[": 69,
      "\\": 70,
      "]": 71,
      "^": 72,
      "_": 73,
      "`": 74,
      "a": 75,
      "b": 76,
      "c": 77,
      "d": 78,
      "e": 79,
      "f": 80,
      "g": 81,
      "h": 82,
      "i": 83,
      "j": 84,
      "k": 85,
      "l": 86,
      "m": 87,
      "n": 88,
      "o": 89,
      "p": 90,
      "q": 91,
      "r": 92,
      "s": 93,
      "t": 94,
      "u": 95,
      "v": 96,
      "w": 97,
      "x": 98,
      "y": 99,
      "z": 100,
      "{": 101,
      "|": 102,
      "}": 103,
      "~": 104,
      "¡": 105,
      "¢": 106,
      "£": 107,
      "¤": 108,
      "¥": 109,
      "¦": 110,
      "§": 111,
      "¨": 112,
      "©": 113,
      "ª": 114,
      "«": 115,
      "¬": 116,
      "®": 117,
      "¯": 118,
      "°": 119,
      "±": 120,
      "²": 121,
      "³": 122,
      "´": 123,
      "µ": 124,
      "¶": 125,
      "·": 126,
      "¸": 127,
      "¹": 128,
      "º": 129,
      "»": 130,
      "¼": 131,
      "½": 132,
      "¾": 133,
      "¿": 134,
      "À": 135,
      "Á": 136,
      "Â": 137,
      "Ã": 138,
      "Ä": 139,
      "Å": 140,
      "Æ": 141,
      "Ç": 142,
      "È": 143,
      "É": 144,
      "Ê": 145,
      "Ë": 146,
      "Ì": 147,
      "Í": 148,
      "Î": 149,
      "Ï": 150,
      "Ð": 151,
      "Ñ": 152,
      "Ò": 153,
      "Ó": 154,
      "Ô": 155,
      "Õ": 156,
      "Ö": 157,
      "×": 158,
      "Ø": 159,
      "Ù": 160,
      "Ú": 161,
      "Û": 162,
      "Ü": 163,
      "Ý": 164,
      "Þ": 165,
      "ß": 166,
      "à": 167,
      "á": 168,
      "â": 169,
      "ã": 170,
      "ä": 171,
      "å": 172,
      "æ": 173,
      "ç": 174,
      "è": 175,
      "é": 176,
      "ê": 177,
      "ë": 178,
      "ì": 179,
      "í": 180,
      "î": 181,
      "ï": 182,
      "ð": 183,
      "ñ": 184,
      "ò": 185,
      "ó": 186,
      "ô": 187,
      "õ": 188,
      "ö": 189,
      "÷": 190,
      "ø": 191,
      "ù": 192,
      "ú": 193,
      "û": 194,
      "ü": 195,
      "ý": 196,
      "þ": 197,
      "ÿ": 198,
      "Ā": 199,
      "ā": 200,
      "Ă": 201,
      "ă": 202,
      "Ą": 203,
      "ą": 204,
      "Ć": 205,
      "ć": 206,
      "Ĉ": 207,
      "ĉ": 208,
      "Ċ": 209,
      "ċ": 210,
      "Č": 211,
      "č": 212,
      "Ď": 213,
      "ď": 214,
      "Đ": 215,
      "đ": 216,
      "Ē": 217,
      "ē": 218,
      "Ĕ": 219,
      "ĕ": 220,
      "Ė": 221,
      "ė": 222,
      "Ę": 223,
      "ę": 224,
      "Ě": 225,
      "ě": 226,
      "Ĝ": 227,
      "ĝ": 228,
      "Ğ": 229,
      "ğ": 230,
      "Ġ": 231,
      "ġ": 232,
      "Ģ": 233,
      "ģ": 234,
      "Ĥ": 235,
      "ĥ": 236,
      "Ħ": 237,
      "ħ": 238,
      "Ĩ": 239,
      "ĩ": 240,
      "Ī": 241,
      "ī": 242,
      "Ĭ": 243,
      "ĭ": 244,
      "Į": 245,
      "į": 246,
      "İ": 247,
      "ı": 248,
      "Ĳ": 249,
      "ĳ": 250,
      "Ĵ": 251,
      "ĵ": 252,
      "Ķ": 253,
      "ķ": 254,
      "ĸ": 255,
      "Ĺ": 256,
      "ĺ": 257,
      "Ļ": 258,
      "ļ": 259,
      "Ľ": 260,
      "ľ": 261,
      "Ŀ": 262,
      "ŀ": 263,
      "Ł": 264,
      "ł": 265,
      "Ń": 266,
      "Ġt": 267,
      "Ġa": 268,
      "he": 269,
      "in": 270,
      "re": 271,
      "on": 272,
      "Ġthe": 273,
      "er": 274,
      "Ġo": 275,
      "at": 276,
      "Ġs": 277,
      "nd": 278,
      "or": 279,
      "en": 280,
      "Ġw": 281,
      "is": 282,
      "Ġc": 283,
      "es": 284,
      "it": 285,
      "ed": 286,
      "Ġof": 287,
      "Ġf": 288,
      "al": 289,
      "Ġb": 290,
      "an": 291,
      "Ġp": 292,
      "ar": 293,
      "ing": 294,
      "Ġin": 295,
      "Ġand": 296,
      "ou": 297,
      "Ġm": 298,
      "ion": 299,
      "ic": 300,
      "Ġto": 301,
      "Ġd": 302,
      "as": 303,
      "le": 304,
      "om": 305,
      "Ġh": 306,
      "ent": 307,
      "il": 308,
      "Ġth": 309,
      "Ġre": 310,
      "ro": 311,
      "Ġe": 312,
      "ct": 313,
      "st": 314,
      "Ġn": 315,
      "ve": 316,
      "Ġl": 317,
      "ĠS": 318,
      "ĠC": 319,
      "ĠA": 320,
      "ĠT": 321,
      "Ġbe": 322,
      "ation": 323,
      "ol": 324,
      "Ġis": 325,
      "id": 326,
      "ly": 327,
      "am": 328,
      "et": 329,
      "ur": 330,
      "Ġfor": 331,
      "Ġg": 332,
      "ce": 333,
      "ch": 334,
      "ĠI": 335,
      "ĠM": 336,
      "se": 337,
      "ot": 338,
      "ut": 339,
      "im": 340,
      "Ġon": 341,
      "ra": 342,
      "ig": 343,
      "ow": 344,
      "ay": 345,
      "ver": 346,
      "âĢ": 347,
      "el": 348,
      "Ġthat": 349,
      "ir": 350,
      "Ġu": 351,
      "ĠP": 352,
      "her": 353,
      "Ġst": 354,
      "ĠB": 355,
      "ith": 356,
      "ad": 357,
      "ter": 358,
      "Ġy": 359,
      "ul": 360,
      "ĠH": 361,
      "ill": 362,
      "Ġwith": 363,
      "Ġas": 364,
      "em": 365,
      "Ġpro": 366,
      "Ġan": 367,
      "Ġcon": 368,
      "Ġ(": 369,
      "ĠR": 370,
      "if": 371,
      "Ġwh": 372,
      "ĠD": 373,
      "ĠF": 374,
      "ers": 375,
      "Ġal": 376,
      "ĠW": 377,
      "ist": 378,
      "ge": 379,
      "ri": 380,
      "ate": 381,
      "Ġare": 382,
      "ĠThe": 383,
      "Ġit": 384,
      "nt": 385,
      "Ġat": 386,
      "od": 387,
      "Ġcom": 388,
      "Ġor": 389,
      "ity": 390,
      "op": 391,
      "ĠL": 392,
      "ment": 393,
      "us": 394,
      "ĠE": 395,
      "ess": 396,
      "Ġwas": 397,
      "ĠN": 398,
      "Ġby": 399,
      "Ġhe": 400,
      "rom": 401,
      "ab": 402,
      "ĠG": 403,
      "th": 404,
      "res": 405,
      "est": 406,
      "and": 407,
      "ac": 408,
      "Ġde": 409,
      "Ġ,": 410,
      "um": 411,
      "Ġyou": 412,
      "pp": 413,
      "ore": 414,
      "Ġex": 415,
      "Ġse": 416,
      "ĠJ": 417,
      "ere": 418,
      "os": 419,
      "Ġv": 420,
      "ld": 421,
      "ive": 422,
      "qu": 423,
      "oc": 424,
      "Ġsu": 425,
      "iv": 426,
      "ies": 427,
      "ew": 428,
      "ain": 429,
      "un": 430,
      "Ġha": 431,
      "ant": 432,
      "igh": 433,
      "Ġfrom": 434,
      "pe": 435,
      "ke": 436,
      "ort": 437,
      "ud": 438,
      "ear": 439,
      "ĠO": 440,
      "Ġch": 441,
      "art": 442,
      "'s": 443,
      "Ġr": 444,
      "ard": 445,
      "Ġ.": 446,
      "Ġ-": 447,
      "Ġwill": 448,
      "Ġhave": 449,
      "all": 450,
      "Ġthis": 451,
      "Ġnot": 452,
      "ial": 453,
      "âĢĻ": 454,
      "ure": 455,
      "ust": 456,
      "ag": 457,
      "Ġsh": 458,
      "ction": 459,
      "The": 460,
      "Ġle": 461,
      "og": 462,
      "ĠU": 463,
      "our": 464,
      "gh": 465,
      "ight": 466,
      "ast": 467,
      "ich": 468,
      "ical": 469,
      "Ġwor": 470,
      "rou": 471,
      "pt": 472,
      "ell": 473,
      "ated": 474,
      "pl": 475,
      "ber": 476,
      "ine": 477,
      "out": 478,
      "ire": 479,
      "ost": 480,
      "per": 481,
      "Ġab": 482,
      "Ġhas": 483,
      "are": 484,
      "ome": 485,
      "Ġcan": 486,
      "ff": 487,
      "Ġall": 488,
      "ther": 489,
      "ĠâĢ": 490,
      "Ġwe": 491,
      "te": 492,
      "ary": 493,
      "ĠIn": 494,
      "orm": 495,
      "ans": 496,
      "ia": 497,
      "ous": 498,
      "Ġ\"": 499,
      "ok": 500,
      "iz": 501,
      "Ġpl": 502,
      "Ġad": 503,
      "ip": 504,
      "ect": 505,
      "ak": 506,
      "Ġres": 507,
      "ĠK": 508,
      "ide": 509,
      "ĠSt": 510,
      "ould": 511,
      "age": 512,
      "Ġwhe": 513,
      "Ġhis": 514,
      "Ġtheir": 515,
      "ations": 516,
      "cc": 517,
      "ong": 518,
      "Ġcomp": 519,
      "ount": 520,
      "Ġcont": 521,
      "Ġinc": 522,
      "ame": 523,
      "Ġen": 524,
      "Ġk": 525,
      "ry": 526,
      "du": 527,
      "ĠCh": 528,
      "ice": 529,
      "Ġwho": 530,
      "Ġme": 531,
      "Ġwhich": 532,
      "ie": 533,
      "Ġman": 534,
      "ord": 535,
      "Ġim": 536,
      "Ġint": 537,
      "ult": 538,
      "ib": 539,
      "Ġne": 540,
      "Ġus": 541,
      "Ġyear": 542,
      "able": 543,
      "ition": 544,
      "Ġcl": 545,
      "Ġone": 546,
      "ĠTh": 547,
      "ru": 548,
      "form": 549,
      "ĠV": 550,
      "Ġj": 551,
      "Ġmore": 552,
      "ub": 553,
      "ap": 554,
      "Ġthey": 555,
      "act": 556,
      "ance": 557,
      "ind": 558,
      "vel": 559,
      "erv": 560,
      "ook": 561,
      "ass": 562,
      "ign": 563,
      "au": 564,
      "Ġdis": 565,
      "Ġher": 566,
      "ase": 567,
      "ack": 568,
      "Ġapp": 569,
      "ence": 570,
      "Ġdo": 571,
      "Ġun": 572,
      "one": 573,
      "ual": 574,
      "ory": 575,
      "ild": 576,
      "ach": 577,
      "Ġper": 578,
      "ood": 579,
      "Ġsa": 580,
      "ll": 581,
      "ark": 582,
      "so": 583,
      "mer": 584,
      "ace": 585,
      "ond": 586,
      "ime": 587,
      "ose": 588,
      "reat": 589,
      "Ġbut": 590,
      "Ġout": 591,
      "Ġwere": 592,
      "âĢĿ": 593,
      "av": 594,
      "very": 595,
      "ions": 596,
      "Ġrec": 597,
      "ors": 598,
      "Ġother": 599,
      "Ġev": 600,
      "ail": 601,
      "Ġso": 602,
      "Ġpe": 603,
      "ite": 604,
      "Ġabout": 605,
      "ree": 606,
      "Ġar": 607,
      "ents": 608,
      "ens": 609,
      "Ġsp": 610,
      "vers": 611,
      "Ġwork": 612,
      "Ġcomm": 613,
      "Ġpart": 614,
      "ue": 615,
      "Ġits": 616,
      "Ġbeen": 617,
      "ang": 618,
      "Ġte": 619,
      "nder": 620,
      "ake": 621,
      "ĠRe": 622,
      "Ġup": 623,
      "ress": 624,
      "Ġalso": 625,
      "wn": 626,
      "ian": 627,
      "ish": 628,
      "low": 629,
      "ĠY": 630,
      "lud": 631,
      "Ġpre": 632,
      "ound": 633,
      "ile": 634,
      "ph": 635,
      "Ġtra": 636,
      "lic": 637,
      "own": 638,
      "irst": 639,
      "ĠHe": 640,
      "ov": 641,
      "ces": 642,
      "Ġthan": 643,
      "Ġyour": 644,
      "ings": 645,
      "ople": 646,
      "ons": 647,
      "ove": 648,
      "port": 649,
      "ays": 650,
      "Ġthere": 651,
      "Ġag": 652,
      "ci": 653,
      "ne": 654,
      "oy": 655,
      "ates": 656,
      "ily": 657,
      "ational": 658,
      "Ġour": 659,
      "Ġnew": 660,
      "ied": 661,
      "ĠUn": 662,
      "Ġspe": 663,
      "Ġoff": 664,
      "Ġyears": 665,
      "ĠâĢľ": 666,
      "iss": 667,
      "ike": 668,
      "Ġqu": 669,
      ").": 670,
      "Ġover": 671,
      "ric": 672,
      "Ġacc": 673,
      "ram": 674,
      "Ġmay": 675,
      "Ġpeople": 676,
      "Ġbec": 677,
      "ob": 678,
      "Ġtime": 679,
      "Ġinclud": 680,
      "yst": 681,
      "ren": 682,
      "tern": 683,
      "Ġthem": 684,
      "Ġany": 685,
      "rough": 686,
      "ts": 687,
      "rit": 688,
      "Ġtw": 689,
      "Ġind": 690,
      "old": 691,
      "red": 692,
      "olog": 693,
      "Ġsaid": 694,
      "Ġprov": 695,
      "ife": 696,
      "ks": 697,
      "Ġkn": 698,
      "ath": 699,
      "Ġdes": 700,
      "ep": 701,
      "Ġfirst": 702,
      "hed": 703,
      "ater": 704,
      "arch": 705,
      "Ġwhen": 706,
      "Ġinto": 707,
      "Ġunder": 708,
      "ĠIt": 709,
      "fter": 710,
      "Ġem": 711,
      "Ġno": 712,
      "ments": 713,
      "Ġgo": 714,
      "Ġfam": 715,
      "orn": 716,
      "ally": 717,
      "Ġro": 718,
      "amp": 719,
      "Ġmy": 720,
      "ec": 721,
      "ough": 722,
      "oin": 723,
      "Ġhad": 724,
      "Ġ:": 725,
      "lect": 726,
      "erm": 727,
      "ystem": 728,
      "Ġtr": 729,
      "ific": 730,
      "end": 731,
      "Ġshe": 732,
      "Ġra": 733,
      "ool": 734,
      "aw": 735,
      "Ġrel": 736,
      "Ġsome": 737,
      "ĠCom": 738,
      "formation": 739,
      "ities": 740,
      "Ġsub": 741,
      "ject": 742,
      "Ġstud": 743,
      "ced": 744,
      "fere": 745,
      "ident": 746,
      "),": 747,
      "rib": 748,
      "Ġcons": 749,
      "Ġac": 750,
      "ss": 751,
      "Ġtwo": 752,
      "Ġam": 753,
      "Ġmany": 754,
      "ivers": 755,
      "Ġthese": 756,
      "Ġpres": 757,
      "ng": 758,
      "eth": 759,
      "ating": 760,
      "Ġthrough": 761,
      "les": 762,
      "uc": 763,
      "ative": 764,
      "Ġwhat": 765,
      "ted": 766,
      "ĠThis": 767,
      "Ġsuch": 768,
      "ious": 769,
      "Ġmem": 770,
      "Ġreg": 771,
      "ward": 772,
      "Ġwould": 773,
      "we": 774,
      "Ġlike": 775,
      "urn": 776,
      "Ġact": 777,
      ".,": 778,
      "Ġserv": 779,
      "oth": 780,
      "velop": 781,
      "||": 782,
      "Ġph": 783,
      "Ġgen": 784,
      "ft": 785,
      "ade": 786,
      "Ġsc": 787,
      "Ġmost": 788,
      "ause": 789,
      "Ġbl": 790,
      "ited": 791,
      "dition": 792,
      "Ġinv": 793,
      "ont": 794,
      "Ġass": 795,
      "und": 796,
      "Ġcol": 797,
      "gram": 798,
      "cial": 799,
      "ick": 800,
      "ys": 801,
      "ise": 802,
      "cess": 803,
      "hip": 804,
      "iew": 805,
      "ful": 806,
      "Ġbet": 807,
      "Ġinformation": 808,
      "Ġsystem": 809,
      "ics": 810,
      "day": 811,
      "Ġcount": 812,
      "Ġif": 813,
      "Ġfe": 814,
      "uring": 815,
      "Ġimp": 816,
      "Ġrem": 817,
      "als": 818,
      "Ġwhere": 819,
      "ased": 820,
      "Ġloc": 821,
      "gan": 822,
      "ink": 823,
      "ange": 824,
      "ty": 825,
      "ered": 826,
      "ĠPro": 827,
      "ollow": 828,
      "ible": 829,
      "Ġgra": 830,
      "land": 831,
      "ex": 832,
      "meric": 833,
      "In": 834,
      "Ġhow": 835,
      "sel": 836,
      "Ġfamily": 837,
      "ĠNew": 838,
      "Ġsupp": 839,
      "Ġafter": 840,
      "chool": 841,
      "Ġ--": 842,
      "Ġnum": 843,
      "erson": 844,
      "Ġonly": 845,
      "ĠAl": 846,
      "ning": 847,
      "Ġsur": 848,
      "ility": 849,
      "Ġeff": 850,
      "Ġrequ": 851,
      "Ġdif": 852,
      "ular": 853,
      "Ġbu": 854,
      "com": 855,
      "cy": 856,
      "oh": 857,
      "ĠAr": 858,
      "oci": 859,
      "round": 860,
      "pect": 861,
      "eral": 862,
      "ĠWe": 863,
      "Ġ&": 864,
      "ork": 865,
      "hen": 866,
      "oss": 867,
      "Ġdevelop": 868,
      "Ġob": 869,
      "Th": 870,
      "Ġrese": 871,
      "ĠAn": 872,
      "iversity": 873,
      "Ġform": 874,
      "ah": 875,
      ".\"": 876,
      "any": 877,
      "ures": 878,
      "Ġthen": 879,
      "Ġdec": 880,
      "Ġgreat": 881,
      "ert": 882,
      "Ġlong": 883,
      "Ġfollow": 884,
      "'t": 885,
      "ĠAmeric": 886,
      "ution": 887,
      "Ġent": 888,
      "Ġown": 889,
      "Ġwell": 890,
      "Ġpr": 891,
      "arri": 892,
      "Ġco": 893,
      "Ġneed": 894,
      "ildren": 895,
      "Ġsee": 896,
      "Ġed": 897,
      "Ġjust": 898,
      "fore": 899,
      "Ġtrans": 900,
      "Ġcommun": 901,
      "row": 902,
      "Ġknow": 903,
      "ĠDe": 904,
      "Ġmod": 905,
      "ues": 906,
      "ology": 907,
      "ather": 908,
      "ock": 909,
      "Ġright": 910,
      "ton": 911,
      "urch": 912,
      "Ġbook": 913,
      "ters": 914,
      "ives": 915,
      "ublic": 916,
      "Ġprogram": 917,
      "Ġsec": 918,
      "io": 919,
      "other": 920,
      "ĠâĢĵ": 921,
      "irect": 922,
      "Ġlife": 923,
      "Ġatt": 924,
      "ract": 925,
      "hes": 926,
      "iel": 927,
      "Ġuse": 928,
      "Ġprodu": 929,
      "Ġworld": 930,
      "ower": 931,
      "Ġset": 932,
      "its": 933,
      "Ġcould": 934,
      "arg": 935,
      "alth": 936,
      "man": 937,
      "Ġinter": 938,
      "Ġdisc": 939,
      "uch": 940,
      "ting": 941,
      "air": 942,
      "led": 943,
      "ĠSe": 944,
      "ement": 945,
      "ven": 946,
      "ices": 947,
      "Ġthose": 948,
      "Ġdet": 949,
      "Ġhim": 950,
      "Ġnow": 951,
      "ins": 952,
      "ĠAnd": 953,
      "Ġpol": 954,
      "ble": 955,
      "uth": 956,
      "ved": 957,
      "ran": 958,
      "Ġused": 959,
      "Ġ$": 960,
      "ars": 961,
      "ctions": 962,
      "ween": 963,
      "roup": 964,
      "Ġmade": 965,
      "Ġhigh": 966,
      "Ġprovid": 967,
      "Ġinst": 968,
      "pr": 969,
      "Ġvery": 970,
      "Ġfl": 971,
      "Ġevery": 972,
      "ĠFor": 973,
      "Ġeven": 974,
      "ict": 975,
      "Ġbeing": 976,
      "cept": 977,
      "Ġear": 978,
      "mit": 979,
      "pos": 980,
      "ten": 981,
      "ax": 982,
      "iness": 983,
      "xt": 984,
      "ĠWh": 985,
      "Ġbecause": 986,
      "tle": 987,
      "arm": 988,
      "ines": 989,
      "Ġlead": 990,
      "Ġfound": 991,
      "bers": 992,
      "ames": 993,
      "Ġbetween": 994,
      "Ġcall": 995,
      "ck": 996,
      "ale": 997,
      "the": 998,
      "Ġret": 999,
      "chn": 1000,
      "ists": 1001,
      "ĠShe": 1002,
      "Ġsign": 1003,
      "Ġboth": 1004,
      "Ġend": 1005,
      "ived": 1006,
      "Ġresult": 1007,
      "Ġhel": 1008,
      "ature": 1009,
      "ner": 1010,
      "ished": 1011,
      "Ġperson": 1012,
      "ĠUniversity": 1013,
      "Ġdiffere": 1014,
      "Ġback": 1015,
      "aking": 1016,
      "Ġget": 1017,
      "ouse": 1018,
      "ug": 1019,
      "ploy": 1020,
      "ages": 1021,
      "ants": 1022,
      "ohn": 1023,
      "oun": 1024,
      "ĠCl": 1025,
      "Ġdat": 1026,
      "Ġname": 1027,
      "cer": 1028,
      "Ġmark": 1029,
      "Ġsim": 1030,
      ",\"": 1031,
      "ince": 1032,
      "Ġcent": 1033,
      "Ġshould": 1034,
      "way": 1035,
      "ield": 1036,
      "Ġhelp": 1037,
      "inal": 1038,
      "Ġexper": 1039,
      "ness": 1040,
      "Ġeach": 1041,
      "ute": 1042,
      "ĠAd": 1043,
      "ix": 1044,
      "Ġest": 1045,
      "Ġprocess": 1046,
      "Ġsm": 1047,
      "Ġcomple": 1048,
      "ural": 1049,
      "ene": 1050,
      "ĠLe": 1051,
      "ĠCol": 1052,
      "Ġadd": 1053,
      "Ġmake": 1054,
      "Ġmon": 1055,
      "Ġdef": 1056,
      "ism": 1057,
      "Ġart": 1058,
      "ash": 1059,
      "ized": 1060,
      "ically": 1061,
      "Ġresearch": 1062,
      "Ġrep": 1063,
      "ĠCount": 1064,
      "Ġnumber": 1065,
      "usiness": 1066,
      "Ġappro": 1067,
      "Ġhist": 1068,
      "der": 1069,
      "ention": 1070,
      "son": 1071,
      "orth": 1072,
      "ron": 1073,
      "Ġsupport": 1074,
      "Ġway": 1075,
      "Ġincre": 1076,
      "Ġcre": 1077,
      "cent": 1078,
      "Ġfind": 1079,
      "ĠAs": 1080,
      "ital": 1081,
      "up": 1082,
      "Ġrece": 1083,
      "Ġins": 1084,
      "ired": 1085,
      "Ġcur": 1086,
      "rist": 1087,
      "ving": 1088,
      "ety": 1089,
      "ission": 1090,
      "Ġspec": 1091,
      "Ġke": 1092,
      "Ġduring": 1093,
      "Ġread": 1094,
      "Ġmed": 1095,
      "ier": 1096,
      "Ġdoes": 1097,
      "aj": 1098,
      "Ġpresent": 1099,
      "ĠRes": 1100,
      "ull": 1101,
      "Ġhere": 1102,
      "outh": 1103,
      "Ġrent": 1104,
      "Ġdist": 1105,
      "rent": 1106,
      "Ġagain": 1107,
      "ĠSh": 1108,
      "oint": 1109,
      "Ġhome": 1110,
      "uman": 1111,
      "view": 1112,
      "Ġ()": 1113,
      "Ġthree": 1114,
      "Ġser": 1115,
      "ĠJohn": 1116,
      "iving": 1117,
      "fess": 1118,
      "Ġorgan": 1119,
      "Ġcontin": 1120,
      "ever": 1121,
      "Ġsame": 1122,
      "ision": 1123,
      "rid": 1124,
      "Ġpartic": 1125,
      "Ġbro": 1126,
      "ĠCent": 1127,
      "Ġpat": 1128,
      "Ġinf": 1129,
      "Ġgood": 1130,
      "ross": 1131,
      "Ġchildren": 1132,
      "Ġmuch": 1133,
      "Ġlook": 1134,
      "Ġlast": 1135,
      "Ġvar": 1136,
      "Ġrecord": 1137,
      "Ġgroup": 1138,
      "Ġ'": 1139,
      "Ġexp": 1140,
      "Ġbo": 1141,
      "ĠIs": 1142,
      "ually": 1143,
      "augh": 1144,
      "az": 1145,
      "Ġcour": 1146,
      "Ġmust": 1147,
      "Ġdesign": 1148,
      "Ġdid": 1149,
      "de": 1150,
      "ets": 1151,
      "Ġbefore": 1152,
      "imes": 1153,
      "imate": 1154,
      "vern": 1155,
      "con": 1156,
      "Ġshow": 1157,
      "ruct": 1158,
      "nce": 1159,
      "ĠPh": 1160,
      "tend": 1161,
      "Ġwrit": 1162,
      "ley": 1163,
      "Ġext": 1164,
      "Ġav": 1165,
      "Ġoper": 1166,
      "riend": 1167,
      "ĠCounty": 1168,
      "illion": 1169,
      "Ġstr": 1170,
      "ave": 1171,
      ".âĢĿ": 1172,
      "ample": 1173,
      "Ġdirect": 1174,
      "eting": 1175,
      "ĠInd": 1176,
      "Ġadv": 1177,
      "Ġmin": 1178,
      "Ġincluding": 1179,
      "Ġeffect": 1180,
      "ĠCon": 1181,
      "ering": 1182,
      "Ġbel": 1183,
      "ined": 1184,
      "ery": 1185,
      "Ġold": 1186,
      "Ġschool": 1187,
      "arge": 1188,
      "enn": 1189,
      "Ġgu": 1190,
      "Ġop": 1191,
      "Ġcor": 1192,
      "This": 1193,
      "ivid": 1194,
      "Ġdifferent": 1195,
      "ral": 1196,
      "ient": 1197,
      "ank": 1198,
      "Ġpass": 1199,
      "Ġcare": 1200,
      "iver": 1201,
      "get": 1202,
      "ize": 1203,
      "Ġborn": 1204,
      "Ġstart": 1205,
      "ER": 1206,
      "Ġval": 1207,
      "cl": 1208,
      "ann": 1209,
      "Ġwhile": 1210,
      "Ġresp": 1211,
      "ves": 1212,
      "Ġimport": 1213,
      "self": 1214,
      "hem": 1215,
      "Ġallow": 1216,
      "Ġreport": 1217,
      "ands": 1218,
      "Ġstate": 1219,
      "Ġreal": 1220,
      "rol": 1221,
      "line": 1222,
      "uss": 1223,
      "Ġunt": 1224,
      "Ġmain": 1225,
      "gy": 1226,
      "Ġiss": 1227,
      "Ġref": 1228,
      "ified": 1229,
      "Ġfact": 1230,
      "ases": 1231,
      "Ġpri": 1232,
      "Ġplace": 1233,
      "ĠIf": 1234,
      "Ġemploy": 1235,
      "Ġbusiness": 1236,
      "Ġgl": 1237,
      "Ġgener": 1238,
      "Ġfun": 1239,
      "raph": 1240,
      "ĠThey": 1241,
      "Ġtechn": 1242,
      "--": 1243,
      "ense": 1244,
      "Ġmarri": 1245,
      "ĠBut": 1246,
      "ration": 1247,
      "ury": 1248,
      "ason": 1249,
      "ains": 1250,
      "ym": 1251,
      "iqu": 1252,
      "Ġdata": 1253,
      "Ġcommunity": 1254,
      "Ġpublic": 1255,
      "pend": 1256,
      "ĠChrist": 1257,
      "Ġtake": 1258,
      "Ġposs": 1259,
      "ĠYou": 1260,
      "Ġorig": 1261,
      "Ġvis": 1262,
      "Ġwithin": 1263,
      "ĠQ": 1264,
      "ik": 1265,
      "Ġlit": 1266,
      "Ġdon": 1267,
      "ator": 1268,
      "ĠCo": 1269,
      "ĠAmerican": 1270,
      "Ġ/": 1271,
      "cient": 1272,
      "Ġlet": 1273,
      "Ġday": 1274,
      "omes": 1275,
      "erest": 1276,
      "ote": 1277,
      "ency": 1278,
      "ple": 1279,
      "Ġfollowing": 1280,
      "Ġperform": 1281,
      "Ġbuild": 1282,
      "iam": 1283,
      "ior": 1284,
      "Ġthink": 1285,
      "ĠAll": 1286,
      "ĠGod": 1287,
      "Ġcell": 1288,
      "Ġinclude": 1289,
      "ris": 1290,
      "ajor": 1291,
      "ee": 1292,
      "ring": 1293,
      "Ġconf": 1294,
      "tt": 1295,
      "ization": 1296,
      "Ġpower": 1297,
      "Ġty": 1298,
      "ional": 1299,
      "Ġeduc": 1300,
      "Ġpop": 1301,
      "por": 1302,
      "Ġmat": 1303,
      "ina": 1304,
      "ining": 1305,
      "Ġexpl": 1306,
      "Ġstill": 1307,
      "lear": 1308,
      "ĠRo": 1309,
      "ĠEx": 1310,
      "Ġsecond": 1311,
      "Ġplay": 1312,
      "alk": 1313,
      "omen": 1314,
      "Ġelect": 1315,
      "Ġfin": 1316,
      "stand": 1317,
      "eb": 1318,
      "ared": 1319,
      "els": 1320,
      "Ġlist": 1321,
      "read": 1322,
      "Ġlaw": 1323,
      "urs": 1324,
      "Ġchang": 1325,
      "ww": 1326,
      "ubl": 1327,
      ",âĢĿ": 1328,
      "Ġage": 1329,
      "ĠSp": 1330,
      "ained": 1331,
      "ulation": 1332,
      "Ġdown": 1333,
      "gin": 1334,
      "Ġaround": 1335,
      "Ġcar": 1336,
      "Ġproper": 1337,
      "Ġfour": 1338,
      "Ġcome": 1339,
      "Ġeng": 1340,
      "stit": 1341,
      "ethod": 1342,
      "apt": 1343,
      "Ġhistory": 1344,
      "Ġchange": 1345,
      "Ġsom": 1346,
      "arent": 1347,
      "Ġsol": 1348,
      "mber": 1349,
      "of": 1350,
      "oved": 1351,
      "Ġann": 1352,
      "ividual": 1353,
      "Ġequ": 1354,
      "uthor": 1355,
      "Ġrest": 1356,
      "Ġterm": 1357,
      "Ġdied": 1358,
      "akes": 1359,
      "Ġnear": 1360,
      "Ġwant": 1361,
      "ĠMar": 1362,
      "âĢľ": 1363,
      "Ġplan": 1364,
      "Ġfund": 1365,
      "Ġele": 1366,
      "Ġthough": 1367,
      "ality": 1368,
      "ways": 1369,
      "to": 1370,
      "ĠComm": 1371,
      "Ġfriend": 1372,
      "Ġstudy": 1373,
      "ential": 1374,
      "Ġproject": 1375,
      "Ġhuman": 1376,
      "Ġconsid": 1377,
      "Ġhealth": 1378,
      "ille": 1379,
      "ĠBl": 1380,
      "yn": 1381,
      "ĠMr": 1382,
      "ĠUnited": 1383,
      "Ġarea": 1384,
      "ĠEng": 1385,
      "artment": 1386,
      "Ġactiv": 1387,
      "Ġinterest": 1388,
      "Ġfil": 1389,
      "Ġword": 1390,
      "ĠSc": 1391,
      "We": 1392,
      "It": 1393,
      "Ġ[": 1394,
      "ĠZ": 1395,
      "bs": 1396,
      "ek": 1397,
      "Ġmajor": 1398,
      "Ġmembers": 1399,
      "Ġcountry": 1400,
      "iven": 1401,
      "ĠHow": 1402,
      "ccess": 1403,
      "ĠCar": 1404,
      "osp": 1405,
      "cience": 1406,
      "Ġdeath": 1407,
      "Ġstat": 1408,
      "ĠOr": 1409,
      "Ġprofess": 1410,
      "lease": 1411,
      "less": 1412,
      "Ġsmall": 1413,
      "Ġexperi": 1414,
      "Ġsince": 1415,
      "Ġdel": 1416,
      "Ġindividual": 1417,
      "iron": 1418,
      "Ġimportant": 1419,
      "Ġusing": 1420,
      "Ġcurrent": 1421,
      "ĠNational": 1422,
      "Ġsay": 1423,
      "Ġident": 1424,
      "uro": 1425,
      "Ġmet": 1426,
      "Ġbelie": 1427,
      "Ġmanag": 1428,
      "Ġcap": 1429,
      "Ġlear": 1430,
      "ON": 1431,
      "Ġlocal": 1432,
      "une": 1433,
      "Wh": 1434,
      "Ġopp": 1435,
      "ĠPl": 1436,
      "Ġdem": 1437,
      "Ġclass": 1438,
      "ĠBe": 1439,
      "ograph": 1440,
      "Ġopen": 1441,
      "ently": 1442,
      "irc": 1443,
      "ailable": 1444,
      "ĠMay": 1445,
      "ĠThere": 1446,
      "ret": 1447,
      "ries": 1448,
      "Ġstand": 1449,
      "Ġfac": 1450,
      "Ġlevel": 1451,
      "Ġchar": 1452,
      "Ġservice": 1453,
      "ember": 1454,
      "Ġorder": 1455,
      "ify": 1456,
      "ination": 1457,
      "ability": 1458,
      "ĠJan": 1459,
      "ms": 1460,
      "duct": 1461,
      "eng": 1462,
      "Ġocc": 1463,
      "gg": 1464,
      "Ġwithout": 1465,
      "Ġaff": 1466,
      "by": 1467,
      "Ġtest": 1468,
      "ling": 1469,
      "Ġaddition": 1470,
      "ern": 1471,
      "Ġdev": 1472,
      "Ġshall": 1473,
      "ĠWill": 1474,
      "Ġwar": 1475,
      "ories": 1476,
      "ope": 1477,
      "Ġbas": 1478,
      "Ġprovide": 1479,
      "Ġapplic": 1480,
      "Ġmonth": 1481,
      "Ġprev": 1482,
      "Ġris": 1483,
      "ody": 1484,
      "Ġuntil": 1485,
      "hers": 1486,
      "Ġgrow": 1487,
      "âĢĶ": 1488,
      "ource": 1489,
      "Ġbra": 1490,
      "ocial": 1491,
      "ware": 1492,
      "AR": 1493,
      "crib": 1494,
      "Ġoffic": 1495,
      "ĠMan": 1496,
      "reen": 1497,
      "IN": 1498,
      "ĠAss": 1499,
      "ird": 1500,
      "ording": 1501,
      "Ġmus": 1502,
      "Ġhapp": 1503,
      "ĠTe": 1504,
      "min": 1505,
      "Ġ)": 1506,
      "ĠMed": 1507,
      "Ġquest": 1508,
      "ĠUS": 1509,
      "ĠState": 1510,
      "Ġpos": 1511,
      "Ġnon": 1512,
      "Ġavailable": 1513,
      "Ġlove": 1514,
      "here": 1515,
      "Ġpercent": 1516,
      "co": 1517,
      "Ġsk": 1518,
      "ences": 1519,
      "__": 1520,
      "ternational": 1521,
      "Ġsays": 1522,
      "Ġmember": 1523,
      "ĠCenter": 1524,
      "Ġmen": 1525,
      "Ġlarge": 1526,
      "conom": 1527,
      "Ġel": 1528,
      "Ġmil": 1529,
      "ĠChurch": 1530,
      "ĠCan": 1531,
      "Ġgovern": 1532,
      "ĠSchool": 1533,
      "resent": 1534,
      "Ġpost": 1535,
      "Ġfew": 1536,
      "veral": 1537,
      "ript": 1538,
      "Ġproble": 1539,
      "Ġaccess": 1540,
      "be": 1541,
      "ĠCal": 1542,
      "Ġtop": 1543,
      "inc": 1544,
      "ode": 1545,
      "ians": 1546,
      "ister": 1547,
      "Ġgr": 1548,
      "Ġbeh": 1549,
      "Ġprote": 1550,
      "Ġknown": 1551,
      "Ġcame": 1552,
      "Ġcalled": 1553,
      "ĠStates": 1554,
      "viron": 1555,
      "ES": 1556,
      "ĠYork": 1557,
      "Ġmight": 1558,
      "Ġdevelopment": 1559,
      "ĠAt": 1560,
      "Ġrun": 1561,
      "sh": 1562,
      "Ġanother": 1563,
      "Ġmethod": 1564,
      "Ġyoung": 1565,
      "ĠGe": 1566,
      "unt": 1567,
      "ĠEd": 1568,
      "Ġbre": 1569,
      "Ġmeans": 1570,
      "Ġhand": 1571,
      "Ġinvest": 1572,
      "Ġpar": 1573,
      "Ġbest": 1574,
      "Ġagainst": 1575,
      "Ġview": 1576,
      "Ġalways": 1577,
      "Ġpoint": 1578,
      "Ġmean": 1579,
      "Ġsl": 1580,
      "Ġdep": 1581,
      "OR": 1582,
      "ĠBo": 1583,
      "Ġson": 1584,
      "ised": 1585,
      "Ġpast": 1586,
      "Ġcontrol": 1587,
      "Ġnever": 1588,
      "abl": 1589,
      "Ġanal": 1590,
      "ĠOn": 1591,
      "aim": 1592,
      "yl": 1593,
      "me": 1594,
      "atic": 1595,
      "use": 1596,
      "rop": 1597,
      "earch": 1598,
      "ium": 1599,
      "med": 1600,
      "urther": 1601,
      "Ġimpro": 1602,
      "aster": 1603,
      "angu": 1604,
      "AN": 1605,
      "Ġturn": 1606,
      "arc": 1607,
      "ĠEl": 1608,
      "icle": 1609,
      "aterial": 1610,
      "ards": 1611,
      "Ġauthor": 1612,
      "Ġlot": 1613,
      "Ġproduct": 1614,
      "ogn": 1615,
      "Ġfield": 1616,
      "Ġalong": 1617,
      "Ġseveral": 1618,
      "bert": 1619,
      "ertain": 1620,
      "Ġgrand": 1621,
      "Ġprom": 1622,
      "Ġlim": 1623,
      "ribut": 1624,
      "Ġ;": 1625,
      "Ġsuccess": 1626,
      "ney": 1627,
      "Ġless": 1628,
      "Ġphot": 1629,
      "Ġeas": 1630,
      "iod": 1631,
      "idence": 1632,
      "ients": 1633,
      "ateg": 1634,
      "Ġ%": 1635,
      "ustom": 1636,
      "ĠMc": 1637,
      "Ġvol": 1638,
      "ott": 1639,
      "Ġcost": 1640,
      "Ġsit": 1641,
      "cing": 1642,
      "par": 1643,
      "Ġexample": 1644,
      "Ġaccount": 1645,
      "Ġwater": 1646,
      "Ġheld": 1647,
      "fer": 1648,
      "work": 1649,
      "ources": 1650,
      "olution": 1651,
      "Ġide": 1652,
      "ĠNorth": 1653,
      "vironment": 1654,
      "Ġi": 1655,
      "ference": 1656,
      "ĠCity": 1657,
      "agn": 1658,
      "ĠNo": 1659,
      "app": 1660,
      "org": 1661,
      "Ġunderstand": 1662,
      "over": 1663,
      "AT": 1664,
      "Ġconst": 1665,
      "Ġever": 1666,
      "ilt": 1667,
      "aces": 1668,
      "ĠFl": 1669,
      "lege": 1670,
      "ville": 1671,
      "uture": 1672,
      "Ġcompany": 1673,
      "Ġfore": 1674,
      "ourn": 1675,
      "Ġresults": 1676,
      "Ġdays": 1677,
      "Ġcity": 1678,
      "Ġamong": 1679,
      "ĠAm": 1680,
      "ane": 1681,
      "Ġtre": 1682,
      "Ġacross": 1683,
      "Ġcase": 1684,
      "Ġfree": 1685,
      "For": 1686,
      "Ġwife": 1687,
      "Ġrequire": 1688,
      "Ġreturn": 1689,
      "Ġtoday": 1690,
      "Ġtri": 1691,
      "Ġearly": 1692,
      "ental": 1693,
      "Ġsing": 1694,
      "ably": 1695,
      "ortun": 1696,
      "Ġdi": 1697,
      "ored": 1698,
      "Ġdaugh": 1699,
      "ĠDep": 1700,
      "Ġpubl": 1701,
      "ffic": 1702,
      "put": 1703,
      "Ġve": 1704,
      "let": 1705,
      "ead": 1706,
      "Ġche": 1707,
      "Ġgiven": 1708,
      "Ġnext": 1709,
      "Ġbased": 1710,
      "AS": 1711,
      "Ġspecial": 1712,
      "Ġhead": 1713,
      "Ġtreat": 1714,
      "Ġhouse": 1715,
      "abor": 1716,
      "Ġwomen": 1717,
      "ĠWor": 1718,
      "Ġleast": 1719,
      "aken": 1720,
      "Ġdeterm": 1721,
      "Ġnational": 1722,
      "ĠPres": 1723,
      "Ġlater": 1724,
      "Ġcharact": 1725,
      "oot": 1726,
      "Ġredu": 1727,
      "ĠPark": 1728,
      "Ġmult": 1729,
      "Ġcondition": 1730,
      "Ġrights": 1731,
      "//": 1732,
      "aut": 1733,
      "Ġindust": 1734,
      "Ġpossible": 1735,
      "eter": 1736,
      "ued": 1737,
      "Ġport": 1738,
      "Ġdri": 1739,
      "Ġmove": 1740,
      "Ġfull": 1741,
      "aus": 1742,
      "Ġleft": 1743,
      "Ġfive": 1744,
      "Ġleg": 1745,
      "Ġsearch": 1746,
      "Ġspace": 1747,
      "Ġeducation": 1748,
      "Ġparticular": 1749,
      "ington": 1750,
      "ĠBro": 1751,
      "Ġland": 1752,
      "Ġseem": 1753,
      "ĠThese": 1754,
      "ĠWar": 1755,
      "Ġtimes": 1756,
      "ither": 1757,
      "ĠHis": 1758,
      "Ġaway": 1759,
      "Ġcho": 1760,
      "Ġbi": 1761,
      "not": 1762,
      "Ġeconom": 1763,
      "ray": 1764,
      "alf": 1765,
      "Ġpract": 1766,
      "St": 1767,
      "Ġmaking": 1768,
      "Ġside": 1769,
      "ĠOct": 1770,
      "itor": 1771,
      "Ġclear": 1772,
      "ĠAug": 1773,
      "Ġtown": 1774,
      "Ġopt": 1775,
      "Ġ|": 1776,
      "Ġinvol": 1777,
      "ociety": 1778,
      "pro": 1779,
      "Ġmaterial": 1780,
      "Ġvari": 1781,
      "ĠTo": 1782,
      "Ġmeas": 1783,
      "ĠÂ": 1784,
      "Ġcrit": 1785,
      "osed": 1786,
      "omm": 1787,
      "ique": 1788,
      "Ġreceived": 1789,
      "ights": 1790,
      "rand": 1791,
      "Ġestabl": 1792,
      "ĠHar": 1793,
      "ething": 1794,
      "ole": 1795,
      "Ġfriends": 1796,
      "urg": 1797,
      "Ġfre": 1798,
      "EN": 1799,
      "Ġcommon": 1800,
      "ĠWilliam": 1801,
      "for": 1802,
      "Ġshort": 1803,
      "Ġhaving": 1804,
      "Ġfuture": 1805,
      "ler": 1806,
      "Ġpot": 1807,
      "Ġbig": 1808,
      "ification": 1809,
      "ibr": 1810,
      "Ġmarried": 1811,
      "rew": 1812,
      "ĠFran": 1813,
      "enef": 1814,
      "Ġservices": 1815,
      "uly": 1816,
      "ĠDr": 1817,
      "ĠAb": 1818,
      "Ġbecome": 1819,
      "ales": 1820,
      "ills": 1821,
      "As": 1822,
      "Ġcontent": 1823,
      "Ġhous": 1824,
      "Ġtoget": 1825,
      "Ġheart": 1826,
      "Ġtogether": 1827,
      "Ġlittle": 1828,
      "Ġprovided": 1829,
      "ides": 1830,
      "lection": 1831,
      "Ġgive": 1832,
      "ured": 1833,
      "itive": 1834,
      "Ġbooks": 1835,
      "ĠSouth": 1836,
      "Ġmillion": 1837,
      "Ġet": 1838,
      "Ġstudents": 1839,
      "Ġperiod": 1840,
      "Ġparent": 1841,
      "uck": 1842,
      "Ġcamp": 1843,
      "Ġexist": 1844,
      "band": 1845,
      "ĠTra": 1846,
      "ours": 1847,
      "Ġline": 1848,
      "Ġbrother": 1849,
      "Ġhomes": 1850,
      "Ġassoci": 1851,
      "aper": 1852,
      "rict": 1853,
      "ats": 1854,
      "ological": 1855,
      "Ġsite": 1856,
      "Ġevent": 1857,
      "Ġaut": 1858,
      "ĠGo": 1859,
      "ilar": 1860,
      "opy": 1861,
      "af": 1862,
      "Ġcomplete": 1863,
      "ipp": 1864,
      "orts": 1865,
      "Ġlangu": 1866,
      "ĠServ": 1867,
      "ĠTr": 1868,
      "iting": 1869,
      "He": 1870,
      "Ġdra": 1871,
      "idd": 1872,
      "ocu": 1873,
      "Ġaward": 1874,
      "ĠDav": 1875,
      "pecial": 1876,
      "oll": 1877,
      "aff": 1878,
      "pril": 1879,
      "amed": 1880,
      "Ġcustom": 1881,
      "int": 1882,
      "Ġrepresent": 1883,
      "Ġsocial": 1884,
      "Ġcult": 1885,
      "Ġdiscuss": 1886,
      "Ġtoo": 1887,
      "Ġrecords": 1888,
      "ĠEuro": 1889,
      "Ġhard": 1890,
      "right": 1891,
      "Ġothers": 1892,
      "Ġcommit": 1893,
      "Ġinit": 1894,
      "uary": 1895,
      "Ġpage": 1896,
      "sw": 1897,
      "Ġsomething": 1898,
      "Ġstory": 1899,
      "hern": 1900,
      "Ġpay": 1901,
      "Ġbetter": 1902,
      "ĠAmerica": 1903,
      "che": 1904,
      "ones": 1905,
      "Ġliving": 1906,
      "Ġteam": 1907,
      "Ġhig": 1908,
      "ged": 1909,
      "Ġcomb": 1910,
      "Ġareas": 1911,
      "Ġdescrib": 1912,
      "ilities": 1913,
      "Ġrisk": 1914,
      "Ġrequired": 1915,
      "ĠEn": 1916,
      "aining": 1917,
      "att": 1918,
      "ances": 1919,
      "Ġsection": 1920,
      "Ġtru": 1921,
      "Ġreview": 1922,
      "oney": 1923,
      "ows": 1924,
      "cript": 1925,
      "elf": 1926,
      "Ġthings": 1927,
      "atural": 1928,
      "Ġcomput": 1929,
      "ocus": 1930,
      "Ġcells": 1931,
      "Ġtem": 1932,
      "Ġabove": 1933,
      "Ch": 1934,
      ".)": 1935,
      "Ġmusic": 1936,
      "Ġes": 1937,
      "Ġchurch": 1938,
      "thing": 1939,
      "ai": 1940,
      "ĠMary": 1941,
      "Ġfeel": 1942,
      "Ġfurther": 1943,
      "Ġdom": 1944,
      "IS": 1945,
      "Ġrespons": 1946,
      "Ġfather": 1947,
      "ĠAf": 1948,
      "ples": 1949,
      "Ġput": 1950,
      "ĠJune": 1951,
      "Ġair": 1952,
      "ĠSte": 1953,
      "Ġdetail": 1954,
      "Ġnames": 1955,
      "Ġincrease": 1956,
      "ĠSept": 1957,
      "ush": 1958,
      "Ġincludes": 1959,
      "Ġnet": 1960,
      "Ġstruct": 1961,
      "Ġbecame": 1962,
      "atch": 1963,
      "Ġphys": 1964,
      "Ġable": 1965,
      "Ġsubmit": 1966,
      "Ġcourse": 1967,
      "Ġrelations": 1968,
      "reet": 1969,
      "ledge": 1970,
      "oad": 1971,
      "Ġbenef": 1972,
      "ĠGen": 1973,
      "Ġsystems": 1974,
      "oman": 1975,
      "aps": 1976,
      "minist": 1977,
      "my": 1978,
      "reg": 1979,
      "ĠBy": 1980,
      "ately": 1981,
      "olic": 1982,
      "nect": 1983,
      "Ġlight": 1984,
      "ĠMarch": 1985,
      "ication": 1986,
      "An": 1987,
      "Ġhus": 1988,
      "Ġweek": 1989,
      "ĠBar": 1990,
      "ising": 1991,
      "If": 1992,
      "ĠDepartment": 1993,
      "Ġrecogn": 1994,
      "inn": 1995,
      "Ġpropos": 1996,
      "rie": 1997,
      "ĠEurope": 1998,
      "Ġlarg": 1999,
      "Ġworking": 2000,
      "Ġappear": 2001,
      "ĠWhen": 2002,
      "Ġsum": 2003,
      "Ġrespect": 2004,
      "Ġposition": 2005,
      "Ġclaim": 2006,
      "rap": 2007,
      "ĠWorld": 2008,
      "Ġsurv": 2009,
      "Ġrad": 2010,
      "Ġexperience": 2011,
      "ox": 2012,
      "Ġchanges": 2013,
      "ĠSu": 2014,
      "Ġgovernment": 2015,
      "Ġfire": 2016,
      "AL": 2017,
      "Ġengine": 2018,
      "ream": 2019,
      "ony": 2020,
      "term": 2021,
      "Ġoften": 2022,
      "rodu": 2023,
      "Ġobject": 2024,
      "ĠSec": 2025,
      "ĠThat": 2026,
      "ĠMe": 2027,
      "Ġask": 2028,
      "face": 2029,
      "Ġchild": 2030,
      "Ġexpect": 2031,
      "Ġtyp": 2032,
      "Ġinde": 2033,
      "ators": 2034,
      "Ġtax": 2035,
      "lement": 2036,
      "Ġsignific": 2037,
      "ĠGu": 2038,
      "ively": 2039,
      "tended": 2040,
      "Ġwhy": 2041,
      "ĠCalif": 2042,
      "Ġbegin": 2043,
      "ape": 2044,
      "side": 2045,
      "Ġaddress": 2046,
      "Ġenvironment": 2047,
      "ĠApp": 2048,
      "Ġsex": 2049,
      "err": 2050,
      "Ġonce": 2051,
      "Ġill": 2052,
      "cil": 2053,
      "Ġsw": 2054,
      "Ġhold": 2055,
      "Ġcreat": 2056,
      "obal": 2057,
      "ĠSo": 2058,
      "Ġdeb": 2059,
      "Ġcirc": 2060,
      "Ġhusband": 2061,
      "ecut": 2062,
      "Ġant": 2063,
      "ĠAssoci": 2064,
      "ĠApril": 2065,
      "ĠJuly": 2066,
      "Ġprovides": 2067,
      "Ġfar": 2068,
      "ivil": 2069,
      "Ġwritten": 2070,
      "ĠPr": 2071,
      "oor": 2072,
      "ournal": 2073,
      "roll": 2074,
      "Ġreason": 2075,
      "ĠCor": 2076,
      "ĠCont": 2077,
      "ĠComp": 2078,
      "tee": 2079,
      "though": 2080,
      "ĠFeb": 2081,
      "ridge": 2082,
      "Ġreally": 2083,
      "Ġfr": 2084,
      "ĠWest": 2085,
      "Ġpur": 2086,
      "Ġens": 2087,
      "Ġ$,": 2088,
      "Ġvarious": 2089,
      "aul": 2090,
      "ned": 2091,
      "Ġmother": 2092,
      "ĠNe": 2093,
      "ĠInc": 2094,
      "Ġwr": 2095,
      "isc": 2096,
      "ership": 2097,
      "Ġjoin": 2098,
      "ĠEm": 2099,
      "Ġkeep": 2100,
      "chie": 2101,
      "Ġfocus": 2102,
      "Ġcontact": 2103,
      "ots": 2104,
      "Ġpain": 2105,
      "ĠAg": 2106,
      "ergy": 2107,
      "Ġconcer": 2108,
      "oph": 2109,
      "ĠX": 2110,
      "Ġdaughter": 2111,
      "Ġtaken": 2112,
      "ĠChar": 2113,
      "ĠâĢĺ": 2114,
      "Ġvac": 2115,
      "Ġpersonal": 2116,
      "Ġconduct": 2117,
      "Ġsaf": 2118,
      "ĠHist": 2119,
      "Ġkey": 2120,
      "ama": 2121,
      "Ġhon": 2122,
      "Ġgoing": 2123,
      "Ġpolit": 2124,
      "Ġmanagement": 2125,
      "Ġfamil": 2126,
      "ches": 2127,
      "rated": 2128,
      "ysis": 2129,
      "Ġdeg": 2130,
      "Ġmodel": 2131,
      "And": 2132,
      "Ġago": 2133,
      "illed": 2134,
      "ison": 2135,
      "ruction": 2136,
      "acy": 2137,
      "ids": 2138,
      "IC": 2139,
      "atures": 2140,
      "Ġdocu": 2141,
      "There": 2142,
      "Ġwhether": 2143,
      "verage": 2144,
      "Ġaccording": 2145,
      "Ġcountries": 2146,
      "Ġtraining": 2147,
      "Ġexam": 2148,
      "\".": 2149,
      "Ġpotential": 2150,
      "joy": 2151,
      "Ġformer": 2152,
      "Ġsubject": 2153,
      "iol": 2154,
      "ĠAct": 2155,
      "ford": 2156,
      "ps": 2157,
      "Ġscient": 2158,
      "Ġopportun": 2159,
      "Ġjob": 2160,
      "rate": 2161,
      "ĠResearch": 2162,
      "Ġfunction": 2163,
      "Ġbuilt": 2164,
      "Ġproperty": 2165,
      "No": 2166,
      "ĠHowever": 2167,
      "ibility": 2168,
      "aid": 2169,
      "Ġvisit": 2170,
      "atory": 2171,
      "ĠWhat": 2172,
      "ĠHer": 2173,
      "ham": 2174,
      "val": 2175,
      "ele": 2176,
      "elling": 2177,
      "Ġorigin": 2178,
      "ask": 2179,
      "Ġblood": 2180,
      "Ġissues": 2181,
      "ĠReg": 2182,
      "Ġentire": 2183,
      "Ġprim": 2184,
      "Ġobs": 2185,
      "Ġenc": 2186,
      "Ġmiss": 2187,
      "Ġmot": 2188,
      "ĠPresident": 2189,
      "Ġcou": 2190,
      "'re": 2191,
      "Ġhy": 2192,
      "Ġoriginal": 2193,
      "Ġcreated": 2194,
      "stitute": 2195,
      "Ġtradition": 2196,
      "Ġrange": 2197,
      "ĠTex": 2198,
      "atur": 2199,
      "Ġemb": 2200,
      "Ġstep": 2201,
      "Ġsimilar": 2202,
      "raft": 2203,
      "Ġlow": 2204,
      "ĠAnn": 2205,
      "ĠWith": 2206,
      "ger": 2207,
      "hel": 2208,
      "cember": 2209,
      "ober": 2210,
      "Ġpopulation": 2211,
      "Ġtravel": 2212,
      "adem": 2213,
      "IT": 2214,
      "Ġwent": 2215,
      "Ġrelationship": 2216,
      "now": 2217,
      "Ġrelig": 2218,
      "ĠGl": 2219,
      "Ġonline": 2220,
      "Ġwin": 2221,
      "Ġkind": 2222,
      "Ġgot": 2223,
      "Ġsix": 2224,
      "Ġmaint": 2225,
      "icro": 2226,
      "ornia": 2227,
      "asing": 2228,
      "Ġsignificant": 2229,
      "Ġflow": 2230,
      "Ġtot": 2231,
      "IG": 2232,
      "icated": 2233,
      "ĠHigh": 2234,
      "ĠâĢĶ": 2235,
      "Ġmonths": 2236,
      "Ġwebs": 2237,
      "Ġpublished": 2238,
      "Ġcr": 2239,
      "Ġwind": 2240,
      "cle": 2241,
      "Ġsingle": 2242,
      "ĠII": 2243,
      "Ġprograms": 2244,
      "bor": 2245,
      "Al": 2246,
      "Ġresearc": 2247,
      "Ġgradu": 2248,
      "Ġupon": 2249,
      "lu": 2250,
      "Ġfail": 2251,
      "ĠCollege": 2252,
      "Ġrental": 2253,
      "Ġnews": 2254,
      "Ġdiff": 2255,
      "Ġvot": 2256,
      "Ġparticip": 2257,
      "Ġpress": 2258,
      "ĠOne": 2259,
      "go": 2260,
      "Ġsuper": 2261,
      "Ġmass": 2262,
      "Ġclose": 2263,
      "ened": 2264,
      "ĠJames": 2265,
      "etic": 2266,
      "Ġlocated": 2267,
      "Re": 2268,
      "ief": 2269,
      "umb": 2270,
      "ĠStud": 2271,
      "Ġrequest": 2272,
      "Ġdise": 2273,
      "uf": 2274,
      "Ġenjoy": 2275,
      "Ġparents": 2276,
      "Ġstrong": 2277,
      "Ġcharacter": 2278,
      "uation": 2279,
      "Ġpark": 2280,
      "Ġgeneral": 2281,
      "rad": 2282,
      "ules": 2283,
      "ĠQu": 2284,
      "ĠAust": 2285,
      "Ġsent": 2286,
      "Ġtook": 2287,
      "ĠMich": 2288,
      "Ġcertain": 2289,
      "ĠPe": 2290,
      "ression": 2291,
      "Ġdue": 2292,
      "ĠIm": 2293,
      "Ġcompan": 2294,
      "ees": 2295,
      "://": 2296,
      "Ġbody": 2297,
      "ino": 2298,
      "ĠAugust": 2299,
      "ouncil": 2300,
      "selves": 2301,
      "Ġboard": 2302,
      "ires": 2303,
      "ma": 2304,
      "ĠCalifornia": 2305,
      "irth": 2306,
      "ĠSm": 2307,
      "ival": 2308,
      "lev": 2309,
      "Ġbuilding": 2310,
      "Ġdeveloped": 2311,
      "ovember": 2312,
      "ishing": 2313,
      "ĠEar": 2314,
      "ĠWash": 2315,
      "Ġquality": 2316,
      "orge": 2317,
      "most": 2318,
      "wh": 2319,
      "Ġimpact": 2320,
      "Ġpers": 2321,
      "Ġaccept": 2322,
      "Ġhouses": 2323,
      "ift": 2324,
      "vert": 2325,
      "aching": 2326,
      "Ġlive": 2327,
      "Ġwide": 2328,
      "Ġcaus": 2329,
      "Ġtable": 2330,
      "ĠSan": 2331,
      "Ġdam": 2332,
      "Ġyet": 2333,
      "Ġindustry": 2334,
      "Ġstudies": 2335,
      "Ġsugg": 2336,
      "Ġmoney": 2337,
      "Ġsuggest": 2338,
      "ttp": 2339,
      "Ġcannot": 2340,
      "ites": 2341,
      "Ġwords": 2342,
      "ĠHealth": 2343,
      "Ġdate": 2344,
      "Ġtry": 2345,
      "Ġmarket": 2346,
      "Ġworks": 2347,
      "hold": 2348,
      "ceed": 2349,
      "ready": 2350,
      "Ġ).": 2351,
      "Ġselect": 2352,
      "Ġconsider": 2353,
      "uel": 2354,
      "ĠPer": 2355,
      "ctor": 2356,
      "hib": 2357,
      "Ġbillion": 2358,
      "ada": 2359,
      "ges": 2360,
      "inary": 2361,
      "Ġ-.": 2362,
      "gen": 2363,
      "Ġofficial": 2364,
      "pond": 2365,
      "eal": 2366,
      "Ġlanguage": 2367,
      "urb": 2368,
      "ops": 2369,
      "Ġseen": 2370,
      "atives": 2371,
      "Ġthing": 2372,
      "oms": 2373,
      "Ġsense": 2374,
      "ĠMy": 2375,
      "AC": 2376,
      "Ġorganiz": 2377,
      "Ġknowledge": 2378,
      "empt": 2379,
      "overed": 2380,
      "Ġprior": 2381,
      "ĠSch": 2382,
      "urity": 2383,
      "Ġmeet": 2384,
      "Ġpolic": 2385,
      "Ġlooking": 2386,
      "Ġspecific": 2387,
      "Ġimprove": 2388,
      "Ġachie": 2389,
      "Ġenergy": 2390,
      "Ġlives": 2391,
      "Ġthought": 2392,
      "Ġz": 2393,
      "mb": 2394,
      "chan": 2395,
      "cell": 2396,
      "sc": 2397,
      "Ġmov": 2398,
      "ED": 2399,
      "Ġassist": 2400,
      "ĠThom": 2401,
      "ĠAfric": 2402,
      "Ġfa": 2403,
      "lex": 2404,
      "iber": 2405,
      "alls": 2406,
      "rug": 2407,
      "ĠPat": 2408,
      "Ġhalf": 2409,
      "Ġnatural": 2410,
      "Ġpriv": 2411,
      "year": 2412,
      "Ġmess": 2413,
      "Ġbegan": 2414,
      "Ġfarm": 2415,
      "ĠRep": 2416,
      "Ġdest": 2417,
      "Ġcompl": 2418,
      "Ġgrowth": 2419,
      "Ġeither": 2420,
      "Ġrole": 2421,
      "Ġcut": 2422,
      "Ġmeaning": 2423,
      "wards": 2424,
      "rel": 2425,
      "Ġcentury": 2426,
      "Ġprob": 2427,
      "Ġmarketing": 2428,
      "What": 2429,
      "ume": 2430,
      "utions": 2431,
      "Ġsoft": 2432,
      "'ve": 2433,
      "alt": 2434,
      "Ġsym": 2435,
      "Ġissue": 2436,
      "Ġserved": 2437,
      "ĠDirect": 2438,
      "ĠDecember": 2439,
      "ster": 2440,
      "icult": 2441,
      "Ġcases": 2442,
      "Ġvalue": 2443,
      "ĠDavid": 2444,
      "Ġbrain": 2445,
      "Ġtype": 2446,
      "ternal": 2447,
      "based": 2448,
      "Ġmeeting": 2449,
      "Ġcal": 2450,
      "aries": 2451,
      "play": 2452,
      "ze": 2453,
      "ĠMark": 2454,
      "Ġbring": 2455,
      "Ġarticle": 2456,
      "Ġquestion": 2457,
      "Ġaud": 2458,
      "Ġproblem": 2459,
      "Ġneeds": 2460,
      "Ġlikely": 2461,
      "Ġlay": 2462,
      "Ġnamed": 2463,
      "ospital": 2464,
      "Ġalready": 2465,
      "Ġclimate": 2466,
      "But": 2467,
      "ĠJanuary": 2468,
      "vent": 2469,
      "orial": 2470,
      "Ġhowever": 2471,
      "Ġtechnology": 2472,
      "Ġcancer": 2473,
      "irl": 2474,
      "Ġscience": 2475,
      "Ġtool": 2476,
      "dom": 2477,
      "ĠHol": 2478,
      "Ġdone": 2479,
      "ection": 2480,
      "ĠArt": 2481,
      "Ġtalk": 2482,
      "Ġnecess": 2483,
      "Ġlink": 2484,
      "ĠOctober": 2485,
      "ĠBrit": 2486,
      "duc": 2487,
      "On": 2488,
      "rs": 2489,
      "Ġmarriage": 2490,
      "ĠWashington": 2491,
      "Ġcoll": 2492,
      "ude": 2493,
      "ancial": 2494,
      "amily": 2495,
      "ĠAfter": 2496,
      "Ġbelieve": 2497,
      "attle": 2498,
      "Ġred": 2499,
      "ĠGerm": 2500,
      "Ġgroups": 2501,
      "()": 2502,
      "ule": 2503,
      "Ġmind": 2504,
      "To": 2505,
      "ĠPart": 2506,
      "book": 2507,
      "Ġpresident": 2508,
      "Ġperformance": 2509,
      "Ġindepend": 2510,
      "aring": 2511,
      "Ġwhose": 2512,
      "Ġoffer": 2513,
      "lin": 2514,
      "ĠAssociation": 2515,
      "ett": 2516,
      "Ġdoing": 2517,
      "vey": 2518,
      "ederal": 2519,
      "ibrary": 2520,
      "ĠSeptember": 2521,
      "ched": 2522,
      "Ġfood": 2523,
      "ĠHome": 2524,
      "Ġmoved": 2525,
      "Ġshare": 2526,
      "Ġbelow": 2527,
      "Ġbeaut": 2528,
      "ĠAc": 2529,
      "children": 2530,
      "US": 2531,
      "Ġansw": 2532,
      "Ġcreate": 2533,
      "itation": 2534,
      "teg": 2535,
      "gress": 2536,
      "iple": 2537,
      "ung": 2538,
      "ores": 2539,
      "Ġadded": 2540,
      "ided": 2541,
      "'m": 2542,
      "Ġseries": 2543,
      "uneral": 2544,
      "ĠNovember": 2545,
      "Ġchall": 2546,
      "ĠLa": 2547,
      "Ġled": 2548,
      "ara": 2549,
      "ĠBoard": 2550,
      "eleb": 2551,
      "Ġcompanies": 2552,
      "lish": 2553,
      "Ġactivities": 2554,
      "HE": 2555,
      "Ġla": 2556,
      "AM": 2557,
      "Ġpatients": 2558,
      "irit": 2559,
      "Ġfamilies": 2560,
      "ns": 2561,
      "Ġtreatment": 2562,
      "Ġsubst": 2563,
      "ese": 2564,
      "aced": 2565,
      "You": 2566,
      "iously": 2567,
      "Ġevents": 2568,
      "Ġtext": 2569,
      "Ġmakes": 2570,
      "Ġ$.": 2571,
      "ĠInstitute": 2572,
      "Ġunique": 2573,
      "Ġ().": 2574,
      "ĠCommun": 2575,
      "Ġdiv": 2576,
      "ĠTexas": 2577,
      "Ġrelated": 2578,
      "Ġarch": 2579,
      "Ġsource": 2580,
      "Ġenough": 2581,
      "Ġroad": 2582,
      "ĠKing": 2583,
      "iction": 2584,
      "ufact": 2585,
      "Ġlonger": 2586,
      "Ġhost": 2587,
      "ĠInternational": 2588,
      "Ġstates": 2589,
      "onst": 2590,
      "iation": 2591,
      "Ã©": 2592,
      "ulations": 2593,
      "ĠDes": 2594,
      "Ġself": 2595,
      "sy": 2596,
      "Ġresources": 2597,
      "Ġlate": 2598,
      "Ġhope": 2599,
      "Ġsold": 2600,
      "Ġpath": 2601,
      "ĠVal": 2602,
      "itary": 2603,
      "hood": 2604,
      "iff": 2605,
      "pecially": 2606,
      "Ġregard": 2607,
      "Ġsound": 2608,
      "Ġconsidered": 2609,
      "Ġresearchers": 2610,
      "anks": 2611,
      "irm": 2612,
      "fully": 2613,
      "nes": 2614,
      "ĠPar": 2615,
      "Ġlog": 2616,
      "yle": 2617,
      "estern": 2618,
      "Ġvers": 2619,
      "Ġrepl": 2620,
      "ĠJew": 2621,
      "rael": 2622,
      "Ġnature": 2623,
      "Ġinstit": 2624,
      "oe": 2625,
      "Ġhigher": 2626,
      "RE": 2627,
      "Ġensure": 2628,
      "Ġlearning": 2629,
      "pri": 2630,
      "ĠOff": 2631,
      "erved": 2632,
      "Ġmedia": 2633,
      "Ġhom": 2634,
      "Ġstarted": 2635,
      "istic": 2636,
      "Ġtotal": 2637,
      "ĠTw": 2638,
      "istry": 2639,
      "anced": 2640,
      "ruary": 2641,
      "ii": 2642,
      "Ġletter": 2643,
      "ĠProgram": 2644,
      "Ġcomes": 2645,
      "Ġaffect": 2646,
      "Ġdifficult": 2647,
      "ĠMem": 2648,
      "oon": 2649,
      "Ġcounty": 2650,
      "ervation": 2651,
      "Ġsize": 2652,
      "ĠVir": 2653,
      "Ġpred": 2654,
      "Ġpaper": 2655,
      "Ġstudent": 2656,
      "ald": 2657,
      "mercial": 2658,
      "ements": 2659,
      "ronic": 2660,
      "ications": 2661,
      "Ġattack": 2662,
      "lt": 2663,
      "Ġwond": 2664,
      "Ġamount": 2665,
      "Ġabs": 2666,
      "Ġmatter": 2667,
      "Ġconnect": 2668,
      "Ġtell": 2669,
      "ĠOb": 2670,
      "sequ": 2671,
      "Ġreceive": 2672,
      "Ġnorth": 2673,
      "ĠMus": 2674,
      "ĠMiss": 2675,
      "usion": 2676,
      "Ġwebsite": 2677,
      "ĠMin": 2678,
      "ĠMrs": 2679,
      "Ġshown": 2680,
      "Ġimm": 2681,
      "Ġaction": 2682,
      "Ġlo": 2683,
      "Ġproducts": 2684,
      "ĠScience": 2685,
      "Ġinteg": 2686,
      "ĠFound": 2687,
      "Ġprotect": 2688,
      "Ġthemselves": 2689,
      "Ġnetwork": 2690,
      "ĠOur": 2691,
      "ĠAnt": 2692,
      "Ġregion": 2693,
      "ID": 2694,
      "ĠMon": 2695,
      "Ġannoun": 2696,
      "Ġoccur": 2697,
      "ael": 2698,
      "ĠJe": 2699,
      "Ġdatab": 2700,
      "Ġbehav": 2701,
      "Ġinternational": 2702,
      "ĠStreet": 2703,
      "erve": 2704,
      "Ġadditional": 2705,
      "ĠDec": 2706,
      "Ġgrant": 2707,
      "ging": 2708,
      "Ġinvestig": 2709,
      "Ġconc": 2710,
      "ĠJes": 2711,
      "ommend": 2712,
      "oid": 2713,
      "amb": 2714,
      "field": 2715,
      "action": 2716,
      "ĠSociety": 2717,
      "Ġviol": 2718,
      "Ġess": 2719,
      "ĠPaul": 2720,
      "ump": 2721,
      "Ġproblems": 2722,
      "Ġconditions": 2723,
      "ĠPol": 2724,
      "Ġdisease": 2725,
      "Ġactually": 2726,
      "ĠRiver": 2727,
      "cies": 2728,
      "reme": 2729,
      "ecutive": 2730,
      "Ġanalysis": 2731,
      "ĠHouse": 2732,
      "Ġhours": 2733,
      "ĠRich": 2734,
      "rang": 2735,
      "mission": 2736,
      "iddle": 2737,
      "na": 2738,
      "ĠEduc": 2739,
      "iment": 2740,
      "aker": 2741,
      "ĠCour": 2742,
      "Ġintrodu": 2743,
      "aging": 2744,
      "Ġsure": 2745,
      "ĠRev": 2746,
      "Ġmedical": 2747,
      "Ġitself": 2748,
      "vention": 2749,
      "Ġfall": 2750,
      "Ġglobal": 2751,
      "ensive": 2752,
      "Ġsepar": 2753,
      "ĠEnglish": 2754,
      "Ġcontract": 2755,
      "gu": 2756,
      "Ġexc": 2757,
      "She": 2758,
      "medi": 2759,
      "Ġcause": 2760,
      "Ġcontribut": 2761,
      "Ġevidence": 2762,
      "Ġemail": 2763,
      "Ġvacation": 2764,
      "When": 2765,
      "ords": 2766,
      "LL": 2767,
      "ari": 2768,
      "Ġrate": 2769,
      "Ġbirth": 2770,
      "Ġcompet": 2771,
      "Ġhttp": 2772,
      "ades": 2773,
      "aint": 2774,
      "rect": 2775,
      "Ġrecommend": 2776,
      "erous": 2777,
      "Ġproduction": 2778,
      "Ġnumbers": 2779,
      "Ġap": 2780,
      "undred": 2781,
      "Ġcourt": 2782,
      "erc": 2783,
      "ĠSome": 2784,
      "ĠPhil": 2785,
      "ormal": 2786,
      "ĠGeorge": 2787,
      "Ġapproach": 2788,
      "Ġfav": 2789,
      "ĠIsrael": 2790,
      "like": 2791,
      "ball": 2792,
      "Ġeffective": 2793,
      "Ġcontinue": 2794,
      "rant": 2795,
      "Ġfinal": 2796,
      "Ġefforts": 2797,
      "ternet": 2798,
      "____": 2799,
      "Ġcopy": 2800,
      "Ġnation": 2801,
      "Ġpoin": 2802,
      "Ġful": 2803,
      "Ġworked": 2804,
      "Ġdocument": 2805,
      "isions": 2806,
      "Ġrev": 2807,
      "Ġindividuals": 2808,
      "Ġtit": 2809,
      "Ġpassed": 2810,
      "Ġloss": 2811,
      "Ġneeded": 2812,
      "ĠLaw": 2813,
      "Ġquestions": 2814,
      "rab": 2815,
      "Ġstandard": 2816,
      "Ġthird": 2817,
      "uff": 2818,
      "Ġdou": 2819,
      "Ġunderstanding": 2820,
      "Ġrather": 2821,
      "ana": 2822,
      "Ġespecially": 2823,
      "Ġadminist": 2824,
      "ĠKe": 2825,
      "Ġceleb": 2826,
      "dd": 2827,
      "rim": 2828,
      "ension": 2829,
      "ĠEast": 2830,
      "Ġmechan": 2831,
      "Ġmission": 2832,
      "bon": 2833,
      "Ġcomputer": 2834,
      "iful": 2835,
      "Ġlived": 2836,
      "Ġren": 2837,
      "Ġbur": 2838,
      "ĠBook": 2839,
      "Ġge": 2840,
      "ston": 2841,
      "Ġhistor": 2842,
      "ĠCouncil": 2843,
      "emet": 2844,
      "Ġincluded": 2845,
      "iet": 2846,
      "ĠChristian": 2847,
      "onse": 2848,
      "Ġcollect": 2849,
      "utes": 2850,
      "Ġapplication": 2851,
      "nds": 2852,
      "Ġanim": 2853,
      "Ġhol": 2854,
      "ata": 2855,
      "imately": 2856,
      "Ġsens": 2857,
      "Ġx": 2858,
      "Ġgas": 2859,
      "Ġassociated": 2860,
      "Ġchem": 2861,
      "Ġdig": 2862,
      "Ġcommand": 2863,
      "ĠIndian": 2864,
      "IV": 2865,
      "ĠPre": 2866,
      "mittee": 2867,
      "Ġcarri": 2868,
      "itiz": 2869,
      "ĠMore": 2870,
      "Ġgame": 2871,
      "Ġcomplex": 2872,
      "Ġmeasure": 2873,
      "ply": 2874,
      "Ġassess": 2875,
      "ae": 2876,
      "Ġeconomic": 2877,
      "ĠRec": 2878,
      "Ġterms": 2879,
      "uk": 2880,
      "Ġplease": 2881,
      "Ġspecies": 2882,
      "Ġprof": 2883,
      "Ġwee": 2884,
      "EC": 2885,
      "Ġfile": 2886,
      "Ġsouth": 2887,
      "ĠAng": 2888,
      "Ġestablished": 2889,
      "Ġtaking": 2890,
      "ĠRobert": 2891,
      "ening": 2892,
      "Ġrequirements": 2893,
      "sych": 2894,
      "Ġactivity": 2895,
      "atter": 2896,
      "Ġschools": 2897,
      "Ġten": 2898,
      "ĠHistory": 2899,
      "Ġemer": 2900,
      "Ġinitial": 2901,
      "Ġadj": 2902,
      "Ġver": 2903,
      "nding": 2904,
      "Ġestate": 2905,
      "see": 2906,
      "Ġlevels": 2907,
      "time": 2908,
      "Ġagre": 2909,
      "ables": 2910,
      "Ġbr": 2911,
      "âĢĵ": 2912,
      "ĠInt": 2913,
      "emetery": 2914,
      "ĠManag": 2915,
      "Ġri": 2916,
      "Ġthroughout": 2917,
      "ĠFamily": 2918,
      "icles": 2919,
      "ĠLou": 2920,
      "Ġheav": 2921,
      "Ġbreak": 2922,
      "ĠThomas": 2923,
      "Ġimplement": 2924,
      "Ġmiles": 2925,
      "Ġmanufact": 2926,
      "Ġrecent": 2927,
      "ips": 2928,
      "OM": 2929,
      "Ġpurch": 2930,
      "ĠFebruary": 2931,
      "âĢ¢": 2932,
      "izing": 2933,
      "oura": 2934,
      "Ġdr": 2935,
      "come": 2936,
      "Ġplant": 2937,
      "asc": 2938,
      "Ġground": 2939,
      "Ġblock": 2940,
      "Ġblack": 2941,
      "Ġregist": 2942,
      "Ġsoftware": 2943,
      "Ġcenter": 2944,
      "Ġremain": 2945,
      "wood": 2946,
      "How": 2947,
      "ĠFirst": 2948,
      "Ġactive": 2949,
      "Ġmodern": 2950,
      "hing": 2951,
      "www": 2952,
      "ography": 2953,
      "Ġsat": 2954,
      "ĠMor": 2955,
      "Ġindic": 2956,
      "Ġbroad": 2957,
      "Ġcivil": 2958,
      "Ġwriting": 2959,
      "ĠSystem": 2960,
      "Ġsubmitted": 2961,
      "Ġfrequ": 2962,
      "Ġfeatures": 2963,
      "Ġprin": 2964,
      "Ġut": 2965,
      "Ġshows": 2966,
      "Ġyouth": 2967,
      "ky": 2968,
      "Ġdevice": 2969,
      "Ġthous": 2970,
      "ĠDo": 2971,
      "ĠSw": 2972,
      "riday": 2973,
      "Ġdrug": 2974,
      "Ġ+": 2975,
      "Ġexcept": 2976,
      "ĠCarol": 2977,
      "aign": 2978,
      "Ġpo": 2979,
      "nces": 2980,
      "Ġhundred": 2981,
      "lying": 2982,
      "ĠNot": 2983,
      "Ġorganization": 2984,
      "aves": 2985,
      "pose": 2986,
      "Ġadult": 2987,
      "ship": 2988,
      "Ġvia": 2989,
      "Ġtrust": 2990,
      "Ġtrue": 2991,
      "Ġautom": 2992,
      "yond": 2993,
      "ET": 2994,
      "Ġteac": 2995,
      "Ġliter": 2996,
      "Ġfinancial": 2997,
      "lied": 2998,
      "-.": 2999,
      "Ġinflu": 3000,
      "ĠCons": 3001,
      "ST": 3002,
      "idents": 3003,
      "ĠSen": 3004,
      "rought": 3005,
      "Ġoffice": 3006,
      "Ġey": 3007,
      "fect": 3008,
      "Ġeth": 3009,
      "Ġsurface": 3010,
      "Ġdirector": 3011,
      "Ġmemory": 3012,
      "Ġface": 3013,
      "ĠRoad": 3014,
      "ivity": 3015,
      "Ġwww": 3016,
      "Ġacqu": 3017,
      "ached": 3018,
      "Ġannual": 3019,
      "Ġalmost": 3020,
      "Ġincreased": 3021,
      "ĠService": 3022,
      "Ġupd": 3023,
      "name": 3024,
      "ĠDist": 3025,
      "imum": 3026,
      "ancy": 3027,
      "Ġmaterials": 3028,
      "Ġwa": 3029,
      "Ġpie": 3030,
      "ĠFoundation": 3031,
      "Ġsil": 3032,
      "Ġpict": 3033,
      "aily": 3034,
      "elt": 3035,
      "ĠLake": 3036,
      "mon": 3037,
      "Ġcode": 3038,
      "Ġcle": 3039,
      "Ġproviding": 3040,
      "Ġneg": 3041,
      "ĠVirgin": 3042,
      "Ġstructure": 3043,
      "Ġdire": 3044,
      "Ġcred": 3045,
      "lier": 3046,
      "Ġ.%": 3047,
      "Ġcurrently": 3048,
      "Ġorganizations": 3049,
      "ĠAustral": 3050,
      "aturday": 3051,
      "ground": 3052,
      "ĠCommittee": 3053,
      "Ġoutside": 3054,
      "Ġwhole": 3055,
      "Ġremains": 3056,
      "Ġseems": 3057,
      "Ġconsum": 3058,
      "Ġfig": 3059,
      "Ġcross": 3060,
      "Ġdatabase": 3061,
      "eria": 3062,
      "Ġnight": 3063,
      "ensus": 3064,
      "Ġpeace": 3065,
      "Ġeval": 3066,
      "ĠDon": 3067,
      "off": 3068,
      "Ġopportunity": 3069,
      "bo": 3070,
      "Ġsister": 3071,
      "Ġord": 3072,
      "Ġvir": 3073,
      "Ġwon": 3074,
      "nic": 3075,
      "Ġdeal": 3076,
      "Ġidea": 3077,
      "OT": 3078,
      "Ġeffects": 3079,
      "ties": 3080,
      "Ġrecently": 3081,
      "ĠInter": 3082,
      "Ġbasis": 3083,
      "Ġcommercial": 3084,
      "Ġmach": 3085,
      "Ġcareer": 3086,
      "Ġstop": 3087,
      "Ġinvolved": 3088,
      "Ġfront": 3089,
      "ĠSund": 3090,
      "Ġstaff": 3091,
      "reek": 3092,
      "Ġwrite": 3093,
      "ĠFr": 3094,
      "Ġvote": 3095,
      "ĠJesus": 3096,
      "ĠCong": 3097,
      "Ġsomeone": 3098,
      "Ġquite": 3099,
      "Ġinn": 3100,
      "Ġdesigned": 3101,
      "ondon": 3102,
      "Ġobt": 3103,
      "ĠJose": 3104,
      "Ġdoesn": 3105,
      "Ġdisplay": 3106,
      "Ġreligious": 3107,
      "Ġste": 3108,
      "ribution": 3109,
      "Ġaltern": 3110,
      "Ġheard": 3111,
      "ĠAcc": 3112,
      "inks": 3113,
      "ĠGra": 3114,
      "ĠCompany": 3115,
      "aged": 3116,
      "itions": 3117,
      "Ġdepend": 3118,
      "ĠSer": 3119,
      "Ġfaith": 3120,
      "Ġfoot": 3121,
      "arily": 3122,
      "Ġpolitical": 3123,
      "rote": 3124,
      "Ġdidn": 3125,
      "Ġleading": 3126,
      "eration": 3127,
      "useum": 3128,
      "apan": 3129,
      "Ġcolor": 3130,
      "ĠJer": 3131,
      "Ġbase": 3132,
      "ming": 3133,
      "Ġuser": 3134,
      "pre": 3135,
      "Ġinstall": 3136,
      "Ġseven": 3137,
      "ION": 3138,
      "Ġmethods": 3139,
      "ĠDan": 3140,
      "ĠGeneral": 3141,
      "Ġprofession": 3142,
      "Ġcorpor": 3143,
      "Ġcy": 3144,
      "Ġnecessary": 3145,
      "back": 3146,
      "ĠChe": 3147,
      "Ġdegree": 3148,
      "Ġetc": 3149,
      "Ġtarg": 3150,
      "Ġdescribed": 3151,
      "Ġnearly": 3152,
      "lim": 3153,
      "ises": 3154,
      "Ġmagn": 3155,
      "Ġdetermine": 3156,
      "enced": 3157,
      "rick": 3158,
      "ĠFuneral": 3159,
      "OU": 3160,
      "Ġsuff": 3161,
      "outhern": 3162,
      "reng": 3163,
      "Ġforward": 3164,
      "ĠLord": 3165,
      "Ġking": 3166,
      "ideo": 3167,
      "ĠEducation": 3168,
      "Ġ=": 3169,
      "Ġfem": 3170,
      "haps": 3171,
      "ĠTechn": 3172,
      "ĠDis": 3173,
      "unch": 3174,
      "oke": 3175,
      "Ġlost": 3176,
      "li": 3177,
      "Ġtheory": 3178,
      "istics": 3179,
      "atal": 3180,
      "Ġmom": 3181,
      "ĠDay": 3182,
      "ING": 3183,
      "wide": 3184,
      "cription": 3185,
      "Ġreve": 3186,
      "Ġmount": 3187,
      "Ġreported": 3188,
      "Ġdomain": 3189,
      "ĠNews": 3190,
      "Ġcontinued": 3191,
      "Ġball": 3192,
      "rown": 3193,
      "Ġphone": 3194,
      "'ll": 3195,
      "ĠGovern": 3196,
      "Ġcoming": 3197,
      "Ġwonder": 3198,
      "Ġcapital": 3199,
      "Ġcateg": 3200,
      "Ġbank": 3201,
      "Ġinvention": 3202,
      "ĠAir": 3203,
      "Ġang": 3204,
      "Ġattempt": 3205,
      "Ġowner": 3206,
      "ĠSam": 3207,
      "king": 3208,
      "ought": 3209,
      "Ġstrateg": 3210,
      "izes": 3211,
      "ida": 3212,
      "Ġtemper": 3213,
      "rast": 3214,
      "Ġdeep": 3215,
      "ĠMat": 3216,
      "Ġaccom": 3217,
      "burg": 3218,
      "ĠFriday": 3219,
      "Pro": 3220,
      "Ġwoman": 3221,
      "Ġsimply": 3222,
      "Ġuses": 3223,
      "Ġusers": 3224,
      "phe": 3225,
      "ems": 3226,
      "Ġeight": 3227,
      "Ġjud": 3228,
      "Ġfeature": 3229,
      "Ġquick": 3230,
      "Ġmar": 3231,
      "Ġhor": 3232,
      "airs": 3233,
      "itch": 3234,
      "Ġresponse": 3235,
      "Ġelse": 3236,
      "ĠGroup": 3237,
      "Ġlimited": 3238,
      "ĠOh": 3239,
      "ĠâĢ¢": 3240,
      "Ġdetails": 3241,
      "ĠFrom": 3242,
      "Ġappropri": 3243,
      "Ġlargest": 3244,
      "oud": 3245,
      "iverse": 3246,
      "ĠBur": 3247,
      "All": 3248,
      "Ġcosts": 3249,
      "Ġphotos": 3250,
      "Ġconcept": 3251,
      "Ġincreasing": 3252,
      "ĠEarth": 3253,
      "Ġbar": 3254,
      "ĠPublic": 3255,
      "Ġflu": 3256,
      "Ġlearn": 3257,
      "vis": 3258,
      "onday": 3259,
      "Ġconsist": 3260,
      "Ġearth": 3261,
      "vere": 3262,
      "load": 3263,
      "Ġinj": 3264,
      "ĠSaturday": 3265,
      "Ar": 3266,
      "Ġstar": 3267,
      "ĠIsland": 3268,
      "ĠOffice": 3269,
      "Ġbeginning": 3270,
      "Ġstay": 3271,
      "Ġlisted": 3272,
      "Ġded": 3273,
      "omet": 3274,
      "ocr": 3275,
      "ĠCath": 3276,
      "Ġextra": 3277,
      "order": 3278,
      "ĠGreen": 3279,
      "Ġserve": 3280,
      "oul": 3281,
      "ĠSmith": 3282,
      "ĠMil": 3283,
      "Ġallows": 3284,
      "Ġmovement": 3285,
      "uit": 3286,
      "ĠRepublic": 3287,
      "ĠCourt": 3288,
      "ĠRed": 3289,
      "head": 3290,
      "NA": 3291,
      "ulty": 3292,
      "ĠVirginia": 3293,
      "Ġspent": 3294,
      "ĠPal": 3295,
      "Ġbeautiful": 3296,
      "gment": 3297,
      "Ġidentify": 3298,
      "apter": 3299,
      "Ġtrail": 3300,
      "\",": 3301,
      "Ġlower": 3302,
      "Ġways": 3303,
      "ĠLondon": 3304,
      "ico": 3305,
      "lam": 3306,
      "Ġsqu": 3307,
      "ĠSunday": 3308,
      "ĠHen": 3309,
      "semb": 3310,
      "At": 3311,
      "Ġanything": 3312,
      "ĠCommission": 3313,
      "Ġfunding": 3314,
      "Ġdefin": 3315,
      "Ġcand": 3316,
      "ĠJournal": 3317,
      "ying": 3318,
      "icine": 3319,
      "ĠCanada": 3320,
      "Ġsimple": 3321,
      "lick": 3322,
      "Ġseason": 3323,
      "Ġcoun": 3324,
      "ĠChina": 3325,
      "ĠHall": 3326,
      "ĠSim": 3327,
      "ago": 3328,
      ".;": 3329,
      "Ġcapt": 3330,
      "oice": 3331,
      "ĠAward": 3332,
      "Ġbeyond": 3333,
      "iance": 3334,
      "error": 3335,
      "Ġtraditional": 3336,
      "ĠJack": 3337,
      "van": 3338,
      "ellow": 3339,
      "Ġsoon": 3340,
      "Ġcompleted": 3341,
      "Ġcontinu": 3342,
      "Ġdead": 3343,
      "isters": 3344,
      "Ġmer": 3345,
      "Ġtypes": 3346,
      "Ġparts": 3347,
      "Ġmilitary": 3348,
      "Ġpopular": 3349,
      "Ġconne": 3350,
      "Ġexpected": 3351,
      "LE": 3352,
      "Ġ-,": 3353,
      "ses": 3354,
      "ili": 3355,
      "Ġstreng": 3356,
      "stitution": 3357,
      "hens": 3358,
      "ĠMass": 3359,
      "where": 3360,
      "Ġimage": 3361,
      "ĠJapan": 3362,
      "aving": 3363,
      "Ġapplications": 3364,
      "Ġsett": 3365,
      "Ġmag": 3366,
      "Ġpack": 3367,
      "Ġbrought": 3368,
      "venue": 3369,
      "Ġeveryone": 3370,
      "aur": 3371,
      "By": 3372,
      "ĠIS": 3373,
      "Ġsch": 3374,
      "ĠEngland": 3375,
      "Ġclick": 3376,
      "Ġhum": 3377,
      "respond": 3378,
      "rial": 3379,
      "Ġpolicy": 3380,
      "ously": 3381,
      "Ġpractice": 3382,
      "ĠWhile": 3383,
      "New": 3384,
      "Ġfilm": 3385,
      "ĠDem": 3386,
      "ĠSpr": 3387,
      "ĠWind": 3388,
      "ĠTrans": 3389,
      "ocks": 3390,
      "Ġer": 3391,
      "Ġdemonst": 3392,
      "Ġleaders": 3393,
      "ĠWeb": 3394,
      "Ġperformed": 3395,
      "Ġprimary": 3396,
      "Ġprofessional": 3397,
      "Ġeffic": 3398,
      "Ġgirl": 3399,
      "ica": 3400,
      "Ġsons": 3401,
      "ynam": 3402,
      "Ġwalk": 3403,
      "Ġestim": 3404,
      "Ġprivate": 3405,
      "Ġencoura": 3406,
      "De": 3407,
      "ĠGreat": 3408,
      "oming": 3409,
      "bit": 3410,
      "uesday": 3411,
      "Ġexpress": 3412,
      "Ġprevent": 3413,
      "olf": 3414,
      "ption": 3415,
      "Ġfra": 3416,
      "Ġusually": 3417,
      "Ġbehavior": 3418,
      "Ġdecision": 3419,
      "Ġstri": 3420,
      "ĠArch": 3421,
      "iring": 3422,
      "orthern": 3423,
      "So": 3424,
      "ĠMo": 3425,
      "example": 3426,
      "isl": 3427,
      "sec": 3428,
      "Ġability": 3429,
      "ira": 3430,
      "Ġbehind": 3431,
      "Ġprofessor": 3432,
      "ĠMart": 3433,
      "ĠPort": 3434,
      "Ġspirit": 3435,
      "Ġhimself": 3436,
      "ĠMount": 3437,
      "Ġ#": 3438,
      "Ġdamage": 3439,
      "Ġmessage": 3440,
      "Ġep": 3441,
      "ursday": 3442,
      "Ġlif": 3443,
      "aches": 3444,
      "Ġwrote": 3445,
      "ĠBi": 3446,
      "Ġquant": 3447,
      "ha": 3448,
      "ipment": 3449,
      "Ġachieve": 3450,
      "rest": 3451,
      "ulated": 3452,
      "gra": 3453,
      "Ġcitiz": 3454,
      "Ġcampaign": 3455,
      "oring": 3456,
      "ĠBer": 3457,
      "Ġparticularly": 3458,
      "ĠRet": 3459,
      "ĠProfess": 3460,
      "Ġwhite": 3461,
      "Ġallowed": 3462,
      "Ġclin": 3463,
      "ecause": 3464,
      "Ġcast": 3465,
      "Ġgrandchildren": 3466,
      "ĠAN": 3467,
      "ength": 3468,
      "vin": 3469,
      "Ġhot": 3470,
      "ĠDevelop": 3471,
      "ĠMichael": 3472,
      "Ġprojects": 3473,
      "Ġloved": 3474,
      "oma": 3475,
      "Ġdirectly": 3476,
      "ĠMod": 3477,
      "atform": 3478,
      "mark": 3479,
      "Ġlab": 3480,
      "Ġsafety": 3481,
      "ĠBlack": 3482,
      "Ġbasic": 3483,
      "Ġfeet": 3484,
      "Ġcover": 3485,
      "Ġrelative": 3486,
      "Ġden": 3487,
      "Ġmicro": 3488,
      "Ġlic": 3489,
      "Ġbal": 3490,
      "rench": 3491,
      "ĠNov": 3492,
      "Ġexpand": 3493,
      "eds": 3494,
      "uge": 3495,
      "anc": 3496,
      "que": 3497,
      "Ġculture": 3498,
      "ĠWed": 3499,
      "Ġgreater": 3500,
      "Ġproced": 3501,
      "light": 3502,
      "itude": 3503,
      "Ġsem": 3504,
      "ĠJoseph": 3505,
      "ĠPost": 3506,
      "Ġfavor": 3507,
      "sp": 3508,
      "Ġfollowed": 3509,
      "ĠFin": 3510,
      "ĠAdd": 3511,
      "Ġchalleng": 3512,
      "Ġmultiple": 3513,
      "urance": 3514,
      "rain": 3515,
      "AD": 3516,
      "ĠWil": 3517,
      "Ġeasy": 3518,
      "Ġ(-": 3519,
      "Ġspeak": 3520,
      "Ġemployees": 3521,
      "obile": 3522,
      "ĠFlor": 3523,
      "well": 3524,
      "Ġpresented": 3525,
      "ĠPress": 3526,
      "ĠMonday": 3527,
      "more": 3528,
      "ĠJust": 3529,
      "Ġprobably": 3530,
      "Ġneigh": 3531,
      "ĠCharles": 3532,
      "ws": 3533,
      "uild": 3534,
      "Ġlines": 3535,
      "Ġsociety": 3536,
      "Ġbad": 3537,
      "Ġ(),": 3538,
      "Ġcommunities": 3539,
      "Ġimmedi": 3540,
      "Ġreading": 3541,
      "OS": 3542,
      "ĠBritish": 3543,
      "Ġarri": 3544,
      "cast": 3545,
      "astic": 3546,
      "ience": 3547,
      "Ġwanted": 3548,
      "Ġcarry": 3549,
      "Ġexisting": 3550,
      "ĠEuropean": 3551,
      "Ph": 3552,
      "Un": 3553,
      "Ġdecl": 3554,
      "Ġunit": 3555,
      "ota": 3556,
      "Ġrefer": 3557,
      "Ġlarger": 3558,
      "Ġattend": 3559,
      "AP": 3560,
      "Ġproposed": 3561,
      "Ġpartn": 3562,
      "Ġdemand": 3563,
      "Ġtoward": 3564,
      "Ġnovel": 3565,
      "aught": 3566,
      "Ġexpos": 3567,
      "osing": 3568,
      "ĠMill": 3569,
      "ĠDirector": 3570,
      "ademic": 3571,
      "Ġaverage": 3572,
      "Ġtour": 3573,
      "ĠFrank": 3574,
      "Ġnothing": 3575,
      "Ġtree": 3576,
      "ech": 3577,
      "Ġcolle": 3578,
      "edom": 3579,
      "nesday": 3580,
      "Ġchanged": 3581,
      "Ġplaces": 3582,
      "Ġcomments": 3583,
      "Ġweb": 3584,
      "Ġtherefore": 3585,
      "Ġsummer": 3586,
      "abeth": 3587,
      "Ġple": 3588,
      "itable": 3589,
      "ĠVol": 3590,
      "ester": 3591,
      "Ġbond": 3592,
      "ĠIll": 3593,
      "cks": 3594,
      "Ġoperating": 3595,
      "wise": 3596,
      "Ġsy": 3597,
      "Ġbenefits": 3598,
      "text": 3599,
      "ĠCemetery": 3600,
      "Ġstories": 3601,
      "cis": 3602,
      "With": 3603,
      "Ġtakes": 3604,
      "Ġcheck": 3605,
      "ĠServices": 3606,
      "Ġ::": 3607,
      "ux": 3608,
      "ĠEv": 3609,
      "ĠPri": 3610,
      "Ġsexual": 3611,
      "vest": 3612,
      "Ġresponsible": 3613,
      "Ġprec": 3614,
      "sey": 3615,
      "omb": 3616,
      "ĠMany": 3617,
      "Ġcritical": 3618,
      "Ġmid": 3619,
      "Ġnar": 3620,
      "Ġleave": 3621,
      "Ġqual": 3622,
      "Ġrout": 3623,
      "Ġsecurity": 3624,
      "Ġsuccessful": 3625,
      "hemat": 3626,
      "ĠOF": 3627,
      "ĠUnion": 3628,
      "iding": 3629,
      "icip": 3630,
      "Ġreflect": 3631,
      "enty": 3632,
      "ciences": 3633,
      "Ġapprox": 3634,
      "win": 3635,
      "Ġvict": 3636,
      "Ġinside": 3637,
      "men": 3638,
      "uthors": 3639,
      "ki": 3640,
      "ĠBr": 3641,
      "Ġcomment": 3642,
      "bl": 3643,
      "Ġreports": 3644,
      "Ġphysical": 3645,
      "pper": 3646,
      "II": 3647,
      "ĠRuss": 3648,
      "ĠIN": 3649,
      "Ġpoints": 3650,
      "Ġregular": 3651,
      "Ġillust": 3652,
      "Ġdirection": 3653,
      "Ġchoose": 3654,
      "Ġgives": 3655,
      "Ġenter": 3656,
      "Ġdeveloping": 3657,
      "ĠNow": 3658,
      "house": 3659,
      "One": 3660,
      "Ġchann": 3661,
      "ĠOhio": 3662,
      "Ġresource": 3663,
      "Ġtold": 3664,
      "Sh": 3665,
      "ĠPM": 3666,
      "Ġmodels": 3667,
      "Ġcorrespond": 3668,
      "Ġvalues": 3669,
      "Ġinstru": 3670,
      "Ġarrang": 3671,
      "Ġcert": 3672,
      "Ġcompon": 3673,
      "Ġsus": 3674,
      "Ġter": 3675,
      "Ġpurpose": 3676,
      "ado": 3677,
      "hest": 3678,
      "ĠNet": 3679,
      "Ġasked": 3680,
      "ĠRichard": 3681,
      "Ġstore": 3682,
      "itz": 3683,
      "EL": 3684,
      ":||": 3685,
      "ĠMex": 3686,
      "Ġdepartment": 3687,
      "Ġlocation": 3688,
      "state": 3689,
      "Ġearlier": 3690,
      "Ġgoal": 3691,
      "Ġelection": 3692,
      "encies": 3693,
      "wor": 3694,
      "Ġthreat": 3695,
      "isf": 3696,
      "Ġsal": 3697,
      "Ġemployee": 3698,
      "ĠEngine": 3699,
      "add": 3700,
      "ĠTuesday": 3701,
      "Ġult": 3702,
      "Ġbound": 3703,
      "Ġparty": 3704,
      "unte": 3705,
      "ĠWhite": 3706,
      "inated": 3707,
      "ixed": 3708,
      "asons": 3709,
      "Ġmill": 3710,
      "iles": 3711,
      "Ġfight": 3712,
      "Ġhighly": 3713,
      "ĠCongress": 3714,
      "ĠTHE": 3715,
      "ĠMont": 3716,
      "Ġaware": 3717,
      "Ġstem": 3718,
      "ĠSal": 3719,
      "Ġappropriate": 3720,
      "Ġwild": 3721,
      "Ġideas": 3722,
      "ĠUs": 3723,
      "Ġcentral": 3724,
      "ĠEliz": 3725,
      "Ġwarm": 3726,
      "Ġnormal": 3727,
      "Ġeasily": 3728,
      "roy": 3729,
      "Ġaccur": 3730,
      "iers": 3731,
      "Ġmor": 3732,
      "igned": 3733,
      "Ġprot": 3734,
      "Ġexact": 3735,
      "Ġsurround": 3736,
      "ribute": 3737,
      "Ġcollection": 3738,
      "Ġadop": 3739,
      "Ġevolution": 3740,
      "Ġresident": 3741,
      "Ġbrothers": 3742,
      "Ġwood": 3743,
      "Ġpattern": 3744,
      "Ġtrack": 3745,
      "Ġfully": 3746,
      "ĠLouis": 3747,
      "leg": 3748,
      "Ġanswer": 3749,
      "standing": 3750,
      "ĠMedical": 3751,
      "Ġweeks": 3752,
      "ĠThursday": 3753,
      "ĠAre": 3754,
      "cest": 3755,
      "ĠCamp": 3756,
      "Ġessential": 3757,
      "ĠOf": 3758,
      "Ġplatform": 3759,
      "Ġcard": 3760,
      "ĠInformation": 3761,
      "Ġwhom": 3762,
      "Ġunc": 3763,
      "Ġbit": 3764,
      "Ġpages": 3765,
      "Ġpressure": 3766,
      "Ġperfect": 3767,
      "used": 3768,
      "Ġrot": 3769,
      "osis": 3770,
      "Ġsafe": 3771,
      "Ġrelease": 3772,
      "ĠObama": 3773,
      "Ab": 3774,
      "Ġvideo": 3775,
      "overy": 3776,
      "Ġscientific": 3777,
      "Ġpatient": 3778,
      "Ġsen": 3779,
      "Ġfactors": 3780,
      "Ġrentals": 3781,
      "Ġder": 3782,
      "Ġletters": 3783,
      "Ġmention": 3784,
      "Ġrace": 3785,
      "CC": 3786,
      "Ġcommunication": 3787,
      "Ġvariety": 3788,
      "Ġtrad": 3789,
      "ĠHill": 3790,
      "Ġund": 3791,
      "Ġforce": 3792,
      "Ġiniti": 3793,
      "My": 3794,
      "Ġnuc": 3795,
      "iter": 3796,
      "Ġdaily": 3797,
      "Ġsurvived": 3798,
      "pite": 3799,
      "ĠPenn": 3800,
      "Ex": 3801,
      "Ġjoined": 3802,
      "Ġforms": 3803,
      "ĠAM": 3804,
      "ĠBusiness": 3805,
      "ĠSy": 3806,
      "Ġlaws": 3807,
      "Ġbox": 3808,
      "Ġknew": 3809,
      "ĠTown": 3810,
      "Ġoffered": 3811,
      "Ġprep": 3812,
      "ĠHere": 3813,
      "Ġtou": 3814,
      "illing": 3815,
      "Ġfeed": 3816,
      "ĠSur": 3817,
      "Ġpurs": 3818,
      "ĠHuman": 3819,
      "Ġreduce": 3820,
      "Ġelements": 3821,
      ");": 3822,
      "Ġcorrect": 3823,
      "Ġwest": 3824,
      "change": 3825,
      "ĠJud": 3826,
      "kn": 3827,
      "apers": 3828,
      "Ġequipment": 3829,
      "ogy": 3830,
      "Ġenh": 3831,
      "oted": 3832,
      "Ġimpl": 3833,
      "Ġworth": 3834,
      "Ġprogress": 3835,
      "oday": 3836,
      "ĠFrancis": 3837,
      "IP": 3838,
      "ĠIndia": 3839,
      "Ġlack": 3840,
      "OL": 3841,
      "Ġformed": 3842,
      "isher": 3843,
      "Ġbud": 3844,
      "force": 3845,
      "Ġplans": 3846,
      "Ġdebt": 3847,
      "Ġproduce": 3848,
      "law": 3849,
      "ansas": 3850,
      "Ġtum": 3851,
      "ider": 3852,
      "ĠLibrary": 3853,
      "oo": 3854,
      "aly": 3855,
      "Ġcandid": 3856,
      "Ġexcell": 3857,
      "Ġskills": 3858,
      "Ġsubs": 3859,
      "ander": 3860,
      "!!": 3861,
      "Ġolder": 3862,
      "ĠOther": 3863,
      "Ġrespond": 3864,
      "Ġfair": 3865,
      "Ġweight": 3866,
      "ĠBay": 3867,
      "Ġimages": 3868,
      "inate": 3869,
      "lor": 3870,
      "EO": 3871,
      "ĠHospital": 3872,
      "rapy": 3873,
      "ona": 3874,
      "Ġgiving": 3875,
      "Ġstatus": 3876,
      "DA": 3877,
      "berg": 3878,
      "Ġsaw": 3879,
      "Ġattention": 3880,
      "Ġdefined": 3881,
      "Ġteaching": 3882,
      "Ġextreme": 3883,
      "Ġcollabor": 3884,
      "EM": 3885,
      "Ġmajority": 3886,
      "Ġeverything": 3887,
      "Ġschol": 3888,
      "ĠCatholic": 3889,
      "Ġindependent": 3890,
      "Ġfast": 3891,
      "Ġthus": 3892,
      "Ġ(.": 3893,
      "Ġremember": 3894,
      "rical": 3895,
      "Ġinsp": 3896,
      "ares": 3897,
      "phone": 3898,
      "Ġgold": 3899,
      "Ġnor": 3900,
      "Ġdoll": 3901,
      "ĠWednesday": 3902,
      "fort": 3903,
      "Ġlands": 3904,
      "ĠDel": 3905,
      "ĠRel": 3906,
      "Ġbeg": 3907,
      "with": 3908,
      "iques": 3909,
      "Ġtrying": 3910,
      "ĠFlorida": 3911,
      "ĠSpe": 3912,
      "ĠHenry": 3913,
      "ĠBel": 3914,
      "Ġgreen": 3915,
      "ĠCommunity": 3916,
      "zz": 3917,
      "Ġidentified": 3918,
      "ingu": 3919,
      "ulate": 3920,
      "retary": 3921,
      "itect": 3922,
      "umn": 3923,
      "ĠInternet": 3924,
      "mitted": 3925,
      "Ġprinc": 3926,
      "ĠYear": 3927,
      "cean": 3928,
      "Ġmaster": 3929,
      "ius": 3930,
      "essel": 3931,
      "Ġcompletely": 3932,
      "pan": 3933,
      "Ġbecomes": 3934,
      "ĠST": 3935,
      "ĠBank": 3936,
      "Ġannounced": 3937,
      "ĠManagement": 3938,
      "ĠUK": 3939,
      "ests": 3940,
      "ĠDiv": 3941,
      "ette": 3942,
      "oper": 3943,
      "Ġtools": 3944,
      "Ġnote": 3945,
      "Ġrele": 3946,
      "Ġgenerally": 3947,
      "Ġhear": 3948,
      "Ġdraw": 3949,
      "key": 3950,
      "Ġboy": 3951,
      "PA": 3952,
      "Ġstatement": 3953,
      "Ġhands": 3954,
      "ession": 3955,
      "ĠFrench": 3956,
      "ĠValley": 3957,
      "Ġwel": 3958,
      "Ġ||": 3959,
      "ĠEach": 3960,
      "Ġsaying": 3961,
      "aled": 3962,
      "icon": 3963,
      "Ġresidents": 3964,
      "Ġprefer": 3965,
      "Ġinnov": 3966,
      "ĠAmericans": 3967,
      "ĠThen": 3968,
      "ĠClub": 3969,
      "Ġinform": 3970,
      "Ġtal": 3971,
      "Ġgetting": 3972,
      "Ġmis": 3973,
      "Ġnumerous": 3974,
      "icago": 3975,
      "Ġtransfer": 3976,
      "Ġcompos": 3977,
      "den": 3978,
      "Ġinstead": 3979,
      "ĠJr": 3980,
      "Ġcontroll": 3981,
      "Ġproperties": 3982,
      "Ġpp": 3983,
      "Ġtrade": 3984,
      "Ġacres": 3985,
      "room": 3986,
      "Ġtarget": 3987,
      "Ġthousands": 3988,
      "atest": 3989,
      "ĠRent": 3990,
      "Ġ//": 3991,
      "lands": 3992,
      "anta": 3993,
      "Ġprevious": 3994,
      "ĠAncient": 3995,
      "Ġbridge": 3996,
      "uration": 3997,
      "That": 3998,
      "rian": 3999,
      "Ġpreced": 4000,
      "Ġexhib": 4001,
      "Ġtele": 4002,
      "Ġgeneration": 4003,
      "Cl": 4004,
      "Ġalone": 4005,
      "Ġcouple": 4006,
      "Ġcustomers": 4007,
      "eles": 4008,
      "ĠCarolina": 4009,
      "ĠHel": 4010,
      "Ġoffers": 4011,
      "Ġgave": 4012,
      "ĠDevelopment": 4013,
      "ĠDistrict": 4014,
      "Ġconstruction": 4015,
      "antic": 4016,
      "Ġestablish": 4017,
      "ĠPlan": 4018,
      "Ġmoving": 4019,
      "ĠMost": 4020,
      "issions": 4021,
      "Ġfear": 4022,
      "ĠAfrican": 4023,
      "ĠJewish": 4024,
      "nel": 4025,
      "abit": 4026,
      "oyal": 4027,
      "Ġapplied": 4028,
      "ĠElizabeth": 4029,
      "unction": 4030,
      "Ġpresence": 4031,
      "Ġconducted": 4032,
      "oses": 4033,
      "Ġreference": 4034,
      "orning": 4035,
      "Ġselected": 4036,
      "SC": 4037,
      "Ġthinking": 4038,
      "Ġship": 4039,
      "Ġfiles": 4040,
      "Ġoperation": 4041,
      "Ġexecutive": 4042,
      "ĠMain": 4043,
      "Ġleader": 4044,
      "Ġlabor": 4045,
      "ocal": 4046,
      "Ad": 4047,
      "Our": 4048,
      "Ġstyle": 4049,
      "ĠFore": 4050,
      "After": 4051,
      "Ġeast": 4052,
      "ils": 4053,
      "Ġsomet": 4054,
      "Ġinterview": 4055,
      "Ġaspect": 4056,
      "Ġgoes": 4057,
      "Ġfederal": 4058,
      "ĠHam": 4059,
      "pective": 4060,
      "Ġcarbon": 4061,
      "Ġvill": 4062,
      "Ġfunds": 4063,
      "ĠWood": 4064,
      "pped": 4065,
      "ĠMac": 4066,
      "Ġreach": 4067,
      "Ġdecades": 4068,
      "ĠSol": 4069,
      "Ġsequ": 4070,
      "Ġsolution": 4071,
      "atically": 4072,
      "Ġfinally": 4073,
      "Be": 4074,
      "ula": 4075,
      "Ġgrowing": 4076,
      "ĠBrown": 4077,
      "Ġreturned": 4078,
      "Ġfit": 4079,
      "Ġauthors": 4080,
      "ĠYour": 4081,
      "Ġsust": 4082,
      "Ġleadership": 4083,
      "ĠSun": 4084,
      "Ġhonor": 4085,
      "rig": 4086,
      "Ġperhaps": 4087,
      "Ġpsych": 4088,
      "oving": 4089,
      "Ġstation": 4090,
      "ĠProject": 4091,
      "iant": 4092,
      "ny": 4093,
      "From": 4094,
      "ĠCur": 4095,
      "Ġplanning": 4096,
      "Ġroom": 4097,
      "Ġband": 4098,
      "orpor": 4099,
      "Ġanyone": 4100,
      "ĠCompl": 4101,
      "Ġslow": 4102,
      "Com": 4103,
      "ros": 4104,
      "ĠMuseum": 4105,
      "Ġclean": 4106,
      "actions": 4107,
      "TM": 4108,
      "ĠBen": 4109,
      "Ġinternal": 4110,
      "ĠUp": 4111,
      "Ġcalc": 4112,
      "ĠAfrica": 4113,
      "Ġdigital": 4114,
      "Ġlimit": 4115,
      "RO": 4116,
      "BC": 4117,
      "Ġcore": 4118,
      "Ġdiscovered": 4119,
      "Ġdiagn": 4120,
      "Ġcapac": 4121,
      "Ġdrive": 4122,
      "ĠFIG": 4123,
      "ague": 4124,
      "Ġbuy": 4125,
      "Ġeducational": 4126,
      "road": 4127,
      "ĠNav": 4128,
      "ĠSub": 4129,
      "These": 4130,
      "Ġchoice": 4131,
      "ĠOut": 4132,
      "Ġstage": 4133,
      "'d": 4134,
      "Ġblog": 4135,
      "Ġcontinues": 4136,
      "Ġprocesses": 4137,
      "ault": 4138,
      "Ġfat": 4139,
      "BO": 4140,
      "Ġshared": 4141,
      "ĠWork": 4142,
      "SA": 4143,
      "RA": 4144,
      "place": 4145,
      "known": 4146,
      "Ġstru": 4147,
      "ĠPeter": 4148,
      "Ġcop": 4149,
      "Ġenvironmental": 4150,
      "ĠBra": 4151,
      "Ġrelev": 4152,
      "Ġcourses": 4153,
      "Ġspread": 4154,
      "Ġallowing": 4155,
      "Ġlength": 4156,
      "Ġengineering": 4157,
      "Ġones": 4158,
      "Ġ<": 4159,
      "ĠLife": 4160,
      "Ġjournal": 4161,
      "amer": 4162,
      "ĠArmy": 4163,
      "Ġvessel": 4164,
      "Ġunto": 4165,
      "Ġrequires": 4166,
      "ĠOwn": 4167,
      "Ġcharg": 4168,
      "Ġoccup": 4169,
      "rey": 4170,
      "Ġeffort": 4171,
      "ĠBill": 4172,
      "Ġalthough": 4173,
      "verse": 4174,
      "Ġowners": 4175,
      "last": 4176,
      "Ġsun": 4177,
      "umber": 4178,
      "Ġye": 4179,
      "raw": 4180,
      "ENT": 4181,
      "ey": 4182,
      "mosp": 4183,
      "fficient": 4184,
      "itors": 4185,
      "rence": 4186,
      "Ã¢": 4187,
      "Ġuseful": 4188,
      "ĠPet": 4189,
      "Ġplayers": 4190,
      "Ġchair": 4191,
      "Ġscientists": 4192,
      "Ġsurvey": 4193,
      "Ġminor": 4194,
      "Ġnoted": 4195,
      "ologies": 4196,
      "Ġethnic": 4197,
      "Ġancest": 4198,
      "Ġwatch": 4199,
      "Ġmoment": 4200,
      "arter": 4201,
      "Ġhappy": 4202,
      "olec": 4203,
      "ĠSar": 4204,
      "ĠGrand": 4205,
      "ĠAustralia": 4206,
      "Ġanaly": 4207,
      "Ġbenefit": 4208,
      "ĠChicago": 4209,
      "rief": 4210,
      "Ġcreating": 4211,
      "Ġ),": 4212,
      "Ġoperations": 4213,
      "Ġconsult": 4214,
      "Ġappears": 4215,
      "Ġcharacters": 4216,
      "Ġchemical": 4217,
      "Ġir": 4218,
      "porary": 4219,
      "Ġaim": 4220,
      "mas": 4221,
      "Ġsatisf": 4222,
      "Ġcitizens": 4223,
      "Ġminutes": 4224,
      "ĠRead": 4225,
      "Ġhighest": 4226,
      "lies": 4227,
      "Ġrunning": 4228,
      "Ġsea": 4229,
      "amber": 4230,
      "tic": 4231,
      "Ġpan": 4232,
      "Ġinteresting": 4233,
      "Ġforeign": 4234,
      "oes": 4235,
      "inct": 4236,
      "ented": 4237,
      "life": 4238,
      "imal": 4239,
      "rative": 4240,
      "ĠOp": 4241,
      "Ġsites": 4242,
      "ĠUN": 4243,
      "kins": 4244,
      "ĠRock": 4245,
      "They": 4246,
      "Ġvision": 4247,
      "ĠMemorial": 4248,
      "ĠMer": 4249,
      "Ġrise": 4250,
      "Ġcoast": 4251,
      "west": 4252,
      "Ġoil": 4253,
      "Ġbattle": 4254,
      "Ġreb": 4255,
      "Ġrules": 4256,
      "Ġplanet": 4257,
      "IL": 4258,
      "Ġwonderful": 4259,
      "Ġdetect": 4260,
      "iday": 4261,
      "Ġ*": 4262,
      "Ġmax": 4263,
      "Ġowned": 4264,
      "ranch": 4265,
      "gl": 4266,
      "Ġadapt": 4267,
      "Ġinterests": 4268,
      "Ġconfig": 4269,
      "Ġsell": 4270,
      "Ġpoor": 4271,
      "asure": 4272,
      "ĠAlex": 4273,
      "iable": 4274,
      "Ġradio": 4275,
      "ibly": 4276,
      "ructure": 4277,
      "ĠSince": 4278,
      "part": 4279,
      "ially": 4280,
      "Ġcontains": 4281,
      "care": 4282,
      "ĠLet": 4283,
      "Ġinterested": 4284,
      "Ġrare": 4285,
      "ĠBible": 4286,
      "Ġworkers": 4287,
      "Ġstarting": 4288,
      "Ġapproximately": 4289,
      "Ġsituation": 4290,
      "Ġrelationships": 4291,
      "Ġcompris": 4292,
      "ĠGold": 4293,
      "ube": 4294,
      "Ġplants": 4295,
      "igan": 4296,
      "ĠFund": 4297,
      "arden": 4298,
      "Ġextend": 4299,
      "Ġpen": 4300,
      "ĠColumb": 4301,
      "Ġtitle": 4302,
      "ĠScott": 4303,
      "CH": 4304,
      "Ġplaced": 4305,
      "arian": 4306,
      "Ġfaculty": 4307,
      "UR": 4308,
      "ero": 4309,
      "Ġcharge": 4310,
      "aling": 4311,
      "Ġquickly": 4312,
      "ste": 4313,
      "la": 4314,
      "orage": 4315,
      "Ġdoub": 4316,
      "Ġadvant": 4317,
      "can": 4318,
      "Ġtransl": 4319,
      "Ġdiscussion": 4320,
      "clus": 4321,
      "grand": 4322,
      "rehens": 4323,
      "Ġspect": 4324,
      "ĠCare": 4325,
      "ĠAdminist": 4326,
      "Ġsteps": 4327,
      "Res": 4328,
      "Ġraised": 4329,
      "Ġmechanism": 4330,
      "edia": 4331,
      "Ġisn": 4332,
      "Ġelectric": 4333,
      "ĠNY": 4334,
      "itt": 4335,
      "ken": 4336,
      "Ġcollege": 4337,
      "ounds": 4338,
      "Ġcaused": 4339,
      "reci": 4340,
      "ĠSee": 4341,
      "Ġsales": 4342,
      "Ġexerc": 4343,
      "ylvan": 4344,
      "Ġmap": 4345,
      "ĠReview": 4346,
      "ciples": 4347,
      "Ġfemale": 4348,
      "ĠStat": 4349,
      "Ġwall": 4350,
      "rees": 4351,
      "Ġnative": 4352,
      "Ġoutput": 4353,
      "ams": 4354,
      "Ġsend": 4355,
      "Ġresist": 4356,
      "Ġkilled": 4357,
      "Ġlayer": 4358,
      "Ġadjust": 4359,
      "Ġsurpr": 4360,
      "inese": 4361,
      "Ġconnection": 4362,
      "ĠGerman": 4363,
      "Ġcontext": 4364,
      "eared": 4365,
      "ĠClass": 4366,
      "Ġbill": 4367,
      "ĠCentral": 4368,
      "Ġhar": 4369,
      "pid": 4370,
      "ĠNor": 4371,
      "sembly": 4372,
      "ircraft": 4373,
      "Ġstars": 4374,
      "cipl": 4375,
      "Ġpositive": 4376,
      "Ġapproved": 4377,
      "cape": 4378,
      "ping": 4379,
      "ĠBre": 4380,
      "Ġvolunte": 4381,
      "MS": 4382,
      "ĠMet": 4383,
      "ĠUSA": 4384,
      "ÃŃ": 4385,
      "Ġdevices": 4386,
      "Ġlegal": 4387,
      "Ġmaintain": 4388,
      "Faces": 4389,
      "Ġfields": 4390,
      "Ġadvert": 4391,
      "Ġveter": 4392,
      "Ġast": 4393,
      "Ġclos": 4394,
      "ament": 4395,
      "Ġtechniques": 4396,
      "Ġlik": 4397,
      "Con": 4398,
      "ĠAlso": 4399,
      "Ġrates": 4400,
      "Ġmanner": 4401,
      "Ġbott": 4402,
      "Ġcontain": 4403,
      "Ġdark": 4404,
      "iency": 4405,
      "Ġsle": 4406,
      "Ġargu": 4407,
      "aters": 4408,
      "ĠAncientFaces": 4409,
      "Ġspeed": 4410,
      "Ġproduced": 4411,
      "Ġuniversity": 4412,
      "ĠWestern": 4413,
      "Ġversion": 4414,
      "ĠGermany": 4415,
      "Ġlegisl": 4416,
      "Is": 4417,
      "ped": 4418,
      "istan": 4419,
      "Ġpowerful": 4420,
      "Ġsometimes": 4421,
      "Ġforces": 4422,
      "Ġacademic": 4423,
      "enge": 4424,
      "Ġtraffic": 4425,
      "ĠSocial": 4426,
      "azine": 4427,
      "abilities": 4428,
      "Ġclinical": 4429,
      ".|": 4430,
      "Ġserver": 4431,
      "Ġcalls": 4432,
      "While": 4433,
      "Ġotherwise": 4434,
      "Ġlocations": 4435,
      "Ġcompared": 4436,
      "Ġprem": 4437,
      "ĠMag": 4438,
      "active": 4439,
      "ellings": 4440,
      "Ġtruth": 4441,
      "Ġpick": 4442,
      "ĠRob": 4443,
      "Ġofficials": 4444,
      "ĠSum": 4445,
      "Ġrepe": 4446,
      "PS": 4447,
      "ĠReport": 4448,
      "Ġgain": 4449,
      "Ġrich": 4450,
      "iled": 4451,
      "Ġoverall": 4452,
      "Ġoppos": 4453,
      "Se": 4454,
      "Ġphase": 4455,
      "Americ": 4456,
      "met": 4457,
      "Ġbird": 4458,
      "Ġkept": 4459,
      "ellig": 4460,
      "ĠJohnson": 4461,
      "ĠClin": 4462,
      "Ġmiddle": 4463,
      "ylvania": 4464,
      "ita": 4465,
      "rates": 4466,
      "Ġhospital": 4467,
      "Ġimag": 4468,
      "mar": 4469,
      "Ġmulti": 4470,
      "Ġfreedom": 4471,
      "Ġclosed": 4472,
      "ogle": 4473,
      "ifically": 4474,
      "Ġgames": 4475,
      "Ġshowed": 4476,
      "Ġdynam": 4477,
      "cont": 4478,
      "Ġcold": 4479,
      "Ġcorn": 4480,
      "Ġdang": 4481,
      "Ġattract": 4482,
      "Ġrecip": 4483,
      "Ġgal": 4484,
      "ĠDuring": 4485,
      "ĠBapt": 4486,
      "ocol": 4487,
      "Ġnuclear": 4488,
      "Ġsources": 4489,
      "Ġtemperature": 4490,
      "uty": 4491,
      "ĠFire": 4492,
      "ĠInst": 4493,
      "Ġpicture": 4494,
      "ĠFR": 4495,
      "Ġvoice": 4496,
      "iny": 4497,
      "Ġchanging": 4498,
      "Ġattended": 4499,
      "Ġfunctions": 4500,
      "inger": 4501,
      "ĠUnder": 4502,
      "ĠKn": 4503,
      "Ġenjoyed": 4504,
      "Ġregarding": 4505,
      "bur": 4506,
      "Ġload": 4507,
      "tion": 4508,
      "ĠCO": 4509,
      "Ġopportunities": 4510,
      "Ġportion": 4511,
      "ĠProfessor": 4512,
      "ĠAtl": 4513,
      "Ġdifference": 4514,
      "ricult": 4515,
      "ĠHIV": 4516,
      "Ġhyd": 4517,
      "Ġembod": 4518,
      "Ġunivers": 4519,
      "eg": 4520,
      "ĠGovernment": 4521,
      "Ġhop": 4522,
      "gency": 4523,
      "cious": 4524,
      "ishes": 4525,
      "Ġprotection": 4526,
      "ĠFre": 4527,
      "Ġchief": 4528,
      "Ġdetermined": 4529,
      "Ġconstant": 4530,
      "ĠFort": 4531,
      "resh": 4532,
      "Ġelement": 4533,
      "ĠWell": 4534,
      "ĠGr": 4535,
      "ĠElect": 4536,
      "ĠOld": 4537,
      "ĠFederal": 4538,
      "ĠAlthough": 4539,
      "Ġox": 4540,
      "ena": 4541,
      "Ġpaid": 4542,
      "Ġsurg": 4543,
      "ographic": 4544,
      "Ġpromot": 4545,
      "Ġmotor": 4546,
      "eed": 4547,
      "Ġscreen": 4548,
      "ployment": 4549,
      "ĠFrance": 4550,
      "Ġlearned": 4551,
      "ĠGood": 4552,
      "works": 4553,
      "ooking": 4554,
      "Ġsisters": 4555,
      "Ġshop": 4556,
      "Ġdedicated": 4557,
      "Ġstock": 4558,
      "Ġâ": 4559,
      "Ġcorporate": 4560,
      "och": 4561,
      "Ġchance": 4562,
      "ferences": 4563,
      "Mr": 4564,
      "Ġassum": 4565,
      "Ġsong": 4566,
      "Ġpersons": 4567,
      "Ġfirm": 4568,
      "Ġpray": 4569,
      "ĠMal": 4570,
      "Ġadults": 4571,
      "Ġcond": 4572,
      "Ġarticles": 4573,
      "ĠMcC": 4574,
      "ĠAv": 4575,
      "Ġelectronic": 4576,
      "ĠTheir": 4577,
      "Ġnut": 4578,
      "ĠJeff": 4579,
      "unci": 4580,
      "Ġmachine": 4581,
      "Ġremoved": 4582,
      "):": 4583,
      "Ġcra": 4584,
      "ception": 4585,
      "Ġsubstant": 4586,
      "ij": 4587,
      "going": 4588,
      "Ġclearly": 4589,
      "ĠBet": 4590,
      "Ġevalu": 4591,
      "Ġpiece": 4592,
      "ĠIra": 4593,
      "Ġrule": 4594,
      "ĠMad": 4595,
      "ĠTechnology": 4596,
      "ĠPeople": 4597,
      "odes": 4598,
      "Ġdistrict": 4599,
      "IM": 4600,
      "osen": 4601,
      "ĠEll": 4602,
      "Ġ>": 4603,
      "Ġroll": 4604,
      "ĠGeorg": 4605,
      "Ġswe": 4606,
      "Ġrelevant": 4607,
      "Ġmut": 4608,
      "Ġguid": 4609,
      "Ġscen": 4610,
      "Ġanti": 4611,
      "ĠGene": 4612,
      "Ġgraduate": 4613,
      "More": 4614,
      "ĠJul": 4615,
      "Ġcultural": 4616,
      "Ġpreviously": 4617,
      "ĠLee": 4618,
      "CA": 4619,
      "ĠMartin": 4620,
      "Ġoffering": 4621,
      "ady": 4622,
      "Dr": 4623,
      "ĠOver": 4624,
      "Ġatmosp": 4625,
      "ĠWay": 4626,
      "sell": 4627,
      "Ġnan": 4628,
      "Ġgay": 4629,
      "Ġhappened": 4630,
      "Ġwrong": 4631,
      "Ġcommission": 4632,
      "Ġhappen": 4633,
      "ĠDemocr": 4634,
      "Ġspring": 4635,
      "ĠQue": 4636,
      "Ġmorning": 4637,
      "Ġcapacity": 4638,
      "ĠCivil": 4639,
      "IA": 4640,
      "John": 4641,
      "ĠMexico": 4642,
      "-,": 4643,
      "Ġserious": 4644,
      "ria": 4645,
      "ademy": 4646,
      "Ġcoverage": 4647,
      "ĠChinese": 4648,
      "Ġspeech": 4649,
      "rieved": 4650,
      "Ġcircum": 4651,
      "erry": 4652,
      "Ġstrength": 4653,
      "Ġdie": 4654,
      "atin": 4655,
      "phas": 4656,
      "Ġfif": 4657,
      "Ġfram": 4658,
      "Ġclient": 4659,
      "Ġfollows": 4660,
      "spe": 4661,
      "Ġkids": 4662,
      "sylvania": 4663,
      "osh": 4664,
      "mond": 4665,
      "lo": 4666,
      "ĠLong": 4667,
      "set": 4668,
      "itness": 4669,
      "Ġappreci": 4670,
      "Ġfamous": 4671,
      "ĠId": 4672,
      "ĠMicro": 4673,
      "ĠTy": 4674,
      "Ġdistribut": 4675,
      "Ġfailure": 4676,
      "Ġveh": 4677,
      "Ġaf": 4678,
      "Ġcontributions": 4679,
      "Ġcommittee": 4680,
      "gn": 4681,
      "Ġfuel": 4682,
      "Ġcities": 4683,
      "Ġconsequ": 4684,
      "omy": 4685,
      "ĠSpace": 4686,
      "Ġinstitution": 4687,
      "Ġpron": 4688,
      "udd": 4689,
      "Ġtiss": 4690,
      "ĠIr": 4691,
      "Ġobjects": 4692,
      "rupt": 4693,
      "level": 4694,
      "Ġmyself": 4695,
      "DF": 4696,
      "Ġbreast": 4697,
      "Ġexpert": 4698,
      "ĠCreek": 4699,
      "ĠWal": 4700,
      "ĠPan": 4701,
      "Ġconvers": 4702,
      "ĠMethod": 4703,
      "ĠMars": 4704,
      "fit": 4705,
      "Ġpros": 4706,
      "artments": 4707,
      "ĠPhys": 4708,
      "ĠBecause": 4709,
      "Ġanimals": 4710,
      "ĠVis": 4711,
      "Ġwid": 4712,
      "Ġdecided": 4713,
      "ucky": 4714,
      "ĠSand": 4715,
      "Ġstress": 4716,
      "Ġoptions": 4717,
      "ĠSuper": 4718,
      "Ġglass": 4719,
      "oston": 4720,
      "Ġrecognition": 4721,
      "Last": 4722,
      "Ġproceed": 4723,
      "hips": 4724,
      "Ġfindings": 4725,
      "acific": 4726,
      "inois": 4727,
      "ĠWin": 4728,
      "Ġsupported": 4729,
      "Ġcarried": 4730,
      "Ġdeliver": 4731,
      "Ġsignal": 4732,
      "Ġcru": 4733,
      "Ġsin": 4734,
      "Ġfigure": 4735,
      "Ġinfluence": 4736,
      ".'": 4737,
      "oration": 4738,
      "Ġawarded": 4739,
      "Ġaccompl": 4740,
      "Ġconstruct": 4741,
      "ka": 4742,
      "lig": 4743,
      "iling": 4744,
      "Ġrecognized": 4745,
      "IR": 4746,
      "Ġeventually": 4747,
      "cher": 4748,
      "Ġec": 4749,
      "ĠDi": 4750,
      "ĠOwner": 4751,
      "rehensive": 4752,
      "Ġreasons": 4753,
      "Ġrock": 4754,
      "ruit": 4755,
      "Ġmur": 4756,
      "ĠTom": 4757,
      "cend": 4758,
      "Ġdram": 4759,
      "Ġpow": 4760,
      "ĠEven": 4761,
      "Ġpet": 4762,
      "amental": 4763,
      "Ġdim": 4764,
      "Ġstra": 4765,
      "abet": 4766,
      "Ġstream": 4767,
      "ĠCorpor": 4768,
      "ashion": 4769,
      "ĠWindows": 4770,
      "Ġchannel": 4771,
      "ĠAND": 4772,
      "poses": 4773,
      "Ġfell": 4774,
      "ker": 4775,
      "anned": 4776,
      "ainant": 4777,
      "Ġarchitect": 4778,
      "ĠRights": 4779,
      "icate": 4780,
      "Ġfinding": 4781,
      "Ġagency": 4782,
      "Ġconference": 4783,
      "Ġsquare": 4784,
      "Ġincome": 4785,
      "Ġrat": 4786,
      "Ġexperienced": 4787,
      "ĠPennsylvania": 4788,
      "ĠRad": 4789,
      "itter": 4790,
      "Ġplayed": 4791,
      "Ġopin": 4792,
      "Ġturned": 4793,
      "ĠIraq": 4794,
      "Ġmonitor": 4795,
      "Ġprice": 4796,
      "ulative": 4797,
      "ht": 4798,
      "Ġincorpor": 4799,
      "Ġstandards": 4800,
      "Ġmale": 4801,
      "ĠBaptist": 4802,
      "ĠDef": 4803,
      "ĠColor": 4804,
      "Ġaircraft": 4805,
      "Ġeconomy": 4806,
      "Ġvirt": 4807,
      "Ġserving": 4808,
      "Ġbus": 4809,
      "Ġavoid": 4810,
      "Ġkm": 4811,
      "ls": 4812,
      "Ġtho": 4813,
      "ĠArts": 4814,
      "ĠSupp": 4815,
      "Ġdaughters": 4816,
      "Ġimportance": 4817,
      "amin": 4818,
      "Ġtrou": 4819,
      "Ġnationality": 4820,
      "Ġsn": 4821,
      "Ġbed": 4822,
      "Ġparam": 4823,
      "UT": 4824,
      "Ġapply": 4825,
      "Ġappeal": 4826,
      "Ġsac": 4827,
      "Ġforest": 4828,
      "otic": 4829,
      "Ġcombined": 4830,
      "iah": 4831,
      "Ġcool": 4832,
      "Ġmaintained": 4833,
      "ĠLeg": 4834,
      "Cont": 4835,
      "mail": 4836,
      "Ġstrate": 4837,
      "urt": 4838,
      "ancing": 4839,
      "pass": 4840,
      "Ġstrategy": 4841,
      "Ġfine": 4842,
      "ĠJac": 4843,
      "Ġhuge": 4844,
      "Ġcustomer": 4845,
      "akers": 4846,
      "uries": 4847,
      "astern": 4848,
      "Ġsolutions": 4849,
      "Ġdog": 4850,
      "Ġintroduced": 4851,
      "itage": 4852,
      "Ġbackground": 4853,
      "Ġtrees": 4854,
      "equ": 4855,
      "Ġtowards": 4856,
      "Ġcommitment": 4857,
      "Ġbelief": 4858,
      "Ġphil": 4859,
      "ĠConference": 4860,
      "Ġgoals": 4861,
      "ĠIslam": 4862,
      "Ġitems": 4863,
      "ĠMusic": 4864,
      "no": 4865,
      "ĠMinn": 4866,
      "Ġbudget": 4867,
      "ya": 4868,
      "Ġsetting": 4869,
      "Ġign": 4870,
      "ointed": 4871,
      "stract": 4872,
      "Ġcauses": 4873,
      "ĠMedicine": 4874,
      "iat": 4875,
      "Ġmobile": 4876,
      "Ġconflic": 4877,
      "Ġharm": 4878,
      "Ġfacilities": 4879,
      "ias": 4880,
      "Ġneighbor": 4881,
      "LA": 4882,
      "ĠIre": 4883,
      "Ġagreement": 4884,
      "Ġunf": 4885,
      "asion": 4886,
      "ĠTimes": 4887,
      "inating": 4888,
      "ĠHaw": 4889,
      "iments": 4890,
      "ĠIllinois": 4891,
      "Ġscholars": 4892,
      "Ġburn": 4893,
      "ĠLand": 4894,
      "Ġadvanced": 4895,
      "Ġancient": 4896,
      "Ġsenior": 4897,
      "Don": 4898,
      "Ġdestroy": 4899,
      "Ġscale": 4900,
      "related": 4901,
      "ctors": 4902,
      "Ġutil": 4903,
      "Ġtests": 4904,
      "Ġlinks": 4905,
      "Ġtesting": 4906,
      "ifying": 4907,
      "Ġextended": 4908,
      "Ġlibrary": 4909,
      "Ġexcellent": 4910,
      "ĠMel": 4911,
      "orrow": 4912,
      "Ġpret": 4913,
      "ouri": 4914,
      "ext": 4915,
      "Ġunits": 4916,
      "ĠPolic": 4917,
      "Ġcompar": 4918,
      "des": 4919,
      "ĠCap": 4920,
      "CE": 4921,
      "owa": 4922,
      "that": 4923,
      "Ġsets": 4924,
      "Ġbusinesses": 4925,
      "Ġcreation": 4926,
      "Acc": 4927,
      "ĠTenn": 4928,
      "Ġthank": 4929,
      "osoph": 4930,
      "ĠAny": 4931,
      "Ġresponsibility": 4932,
      "ĠAccording": 4933,
      "Ġdistribution": 4934,
      "Ġsides": 4935,
      "Ġremained": 4936,
      "ĠDesign": 4937,
      "Ġwilling": 4938,
      "ĠJim": 4939,
      "Ġobv": 4940,
      "ĠHistor": 4941,
      "ĠCD": 4942,
      "Ġinstitutions": 4943,
      "Ġregions": 4944,
      "Ġgun": 4945,
      "Ġdecisions": 4946,
      "Ġreleased": 4947,
      "UN": 4948,
      "ĠNAS": 4949,
      "Ġstorage": 4950,
      "Ġconnected": 4951,
      "ĠOffic": 4952,
      "Ġtro": 4953,
      "ĠAcademy": 4954,
      "Ġround": 4955,
      "uled": 4956,
      "Ġopened": 4957,
      "ĠProv": 4958,
      "Ġconclud": 4959,
      "Ġpreceded": 4960,
      "Ġpul": 4961,
      "ĠMarg": 4962,
      "ĠSecretary": 4963,
      "ĠBig": 4964,
      "Now": 4965,
      "ĠDaniel": 4966,
      "Ġexactly": 4967,
      "Ġformation": 4968,
      "ĠKent": 4969,
      "ĠTV": 4970,
      "ĠWater": 4971,
      "Ġextensive": 4972,
      "Ġ--.": 4973,
      "Ġnom": 4974,
      "Ġpurposes": 4975,
      "Ġviews": 4976,
      "bre": 4977,
      "ansion": 4978,
      "Ġidentity": 4979,
      "pat": 4980,
      "ĠWomen": 4981,
      "Ġtransport": 4982,
      "Ġimmediately": 4983,
      "ĠJo": 4984,
      "ĠStar": 4985,
      "Ġstrugg": 4986,
      "uilding": 4987,
      "Ġprocessing": 4988,
      "Ġshape": 4989,
      "odies": 4990,
      "Ġcomfort": 4991,
      "ev": 4992,
      "ĠSil": 4993,
      "ĠEvery": 4994,
      "rastructure": 4995,
      "rating": 4996,
      "Ġpoly": 4997,
      "eless": 4998,
      "Ġadministration": 4999,
      "Ġmyst": 5000,
      "Ġweap": 5001,
      "Ġvalid": 5002,
      "Ġwinter": 5003,
      "Ġreplace": 5004,
      "ĠSciences": 5005,
      "Ġproposal": 5006,
      "ios": 5007,
      "greg": 5008,
      "Ġsevere": 5009,
      "ogen": 5010,
      "Ġtransform": 5011,
      "alled": 5012,
      "Ġrapid": 5013,
      "ĠStand": 5014,
      "mology": 5015,
      "Ġchallenges": 5016,
      "Ġreceiving": 5017,
      "ĠInf": 5018,
      "ras": 5019,
      "Ġcoord": 5020,
      "Ġnotes": 5021,
      "ittle": 5022,
      "olute": 5023,
      "soft": 5024,
      "Ġintended": 5025,
      "ensity": 5026,
      "Ġriver": 5027,
      "iveness": 5028,
      "ĠTwo": 5029,
      "Ġcredit": 5030,
      "Ġstorm": 5031,
      "Ġcategory": 5032,
      "rations": 5033,
      "apel": 5034,
      "Ġunless": 5035,
      "Ġregistered": 5036,
      "Ġgets": 5037,
      "Ġdouble": 5038,
      "ĠChildren": 5039,
      "Ġscript": 5040,
      "iar": 5041,
      "Ġhousehold": 5042,
      "ĠTre": 5043,
      "bi": 5044,
      "Ġyourself": 5045,
      "enses": 5046,
      "Ġassessment": 5047,
      "ĠTor": 5048,
      "ĠChair": 5049,
      "Ġbecoming": 5050,
      "Ĥ¬": 5051,
      "Ġexperiences": 5052,
      "Ġtruly": 5053,
      "Ġweather": 5054,
      "ĠMichigan": 5055,
      "Ġagree": 5056,
      "Ġsoul": 5057,
      "ĠFred": 5058,
      "board": 5059,
      "Ġcriteria": 5060,
      "ĠForm": 5061,
      "body": 5062,
      "ĠLead": 5063,
      "Ġrand": 5064,
      "Ġprepar": 5065,
      "Ġconv": 5066,
      "duate": 5067,
      "Ġselection": 5068,
      "ĠSpecial": 5069,
      "Ġseparate": 5070,
      "ocation": 5071,
      "Ġinvestment": 5072,
      "ĠBoston": 5073,
      "ĠWall": 5074,
      "Ġexplore": 5075,
      "aret": 5076,
      "Ġdocuments": 5077,
      "Ġlanguages": 5078,
      "ĠThus": 5079,
      "estival": 5080,
      "Ġcrew": 5081,
      "ua": 5082,
      "Ġdefend": 5083,
      "ĠEngineering": 5084,
      "Ġtechnical": 5085,
      "Ġeyes": 5086,
      "ĠSection": 5087,
      "Ġemot": 5088,
      "roud": 5089,
      "unk": 5090,
      "Ġjobs": 5091,
      "ĠJones": 5092,
      "oto": 5093,
      "Ġconcent": 5094,
      "Ġaw": 5095,
      "Ġsitu": 5096,
      "ĠOl": 5097,
      "tenance": 5098,
      "Ġlie": 5099,
      "Ġconvention": 5100,
      "ĠOper": 5101,
      "ĠVict": 5102,
      "ĠDivision": 5103,
      "Ġmathemat": 5104,
      "ĠDou": 5105,
      "azing": 5106,
      "Ġadvance": 5107,
      "CT": 5108,
      "Ġtouch": 5109,
      "ĠEr": 5110,
      "Ġfiled": 5111,
      "Ġhundreds": 5112,
      "Ġopening": 5113,
      "edy": 5114,
      "za": 5115,
      "Ġclients": 5116,
      "Ġcensus": 5117,
      "Ġtim": 5118,
      "Some": 5119,
      "Ġlatest": 5120,
      "Ġbottom": 5121,
      "rison": 5122,
      "Ġhelping": 5123,
      "hy": 5124,
      "PR": 5125,
      "Ġfacility": 5126,
      "ĠAtt": 5127,
      "Ġforth": 5128,
      "Ġrandom": 5129,
      "Ġfoundation": 5130,
      "ĠFree": 5131,
      "Ġreaders": 5132,
      "upp": 5133,
      "which": 5134,
      "Ġabuse": 5135,
      "ola": 5136,
      "Ġcomprehensive": 5137,
      "Ġliterature": 5138,
      "ĠChristmas": 5139,
      "Ġtaught": 5140,
      "ĠWhy": 5141,
      "Ġdecre": 5142,
      "ĠRoman": 5143,
      "ĠFe": 5144,
      "Ġax": 5145,
      "Ġcombination": 5146,
      "ĠPacific": 5147,
      "Ġcampus": 5148,
      "Ġrail": 5149,
      "Ġexpression": 5150,
      "Here": 5151,
      "Ġsolid": 5152,
      "Ġbalance": 5153,
      "OW": 5154,
      "Ġconservation": 5155,
      "Ġcounter": 5156,
      "Ġspons": 5157,
      "Ġliber": 5158,
      "Ġsample": 5159,
      "ĠGoogle": 5160,
      "Ġmetal": 5161,
      "adian": 5162,
      "nergy": 5163,
      "Ġobserved": 5164,
      "Ġbelieved": 5165,
      "Ġholiday": 5166,
      "Ġhelped": 5167,
      "Ġappeared": 5168,
      "ĠRespond": 5169,
      "ĠLos": 5170,
      "erg": 5171,
      "Ġobserv": 5172,
      "ĠMiddle": 5173,
      "Ġmolec": 5174,
      "bed": 5175,
      "Ġemphas": 5176,
      "Ġmanufacture": 5177,
      "Ġplaying": 5178,
      "ĠDen": 5179,
      "Ġsort": 5180,
      "ĠOrgan": 5181,
      "gest": 5182,
      "Ġincreases": 5183,
      "Ġedition": 5184,
      "ione": 5185,
      "Ġhistorical": 5186,
      "water": 5187,
      "Ġdifferences": 5188,
      "Ġgenerated": 5189,
      "ĠCA": 5190,
      "ipal": 5191,
      "ĠIts": 5192,
      "Ġestimated": 5193,
      "Ġguide": 5194,
      "Ġclaims": 5195,
      "Ġpric": 5196,
      "ĠHon": 5197,
      "Ġgenetic": 5198,
      "Ġeditor": 5199,
      "Â®": 5200,
      "gypt": 5201,
      "olved": 5202,
      "Ġteacher": 5203,
      "Ġstated": 5204,
      "Post": 5205,
      "Ġexecut": 5206,
      "onic": 5207,
      "ogue": 5208,
      "Ġvictim": 5209,
      "Ġcloud": 5210,
      "Ġobtained": 5211,
      "ĠOk": 5212,
      "Ġinsurance": 5213,
      "Ġgreatest": 5214,
      "Ġturb": 5215,
      "ĠLabor": 5216,
      "Ġemployer": 5217,
      "Ġhit": 5218,
      "ĠKansas": 5219,
      "ĠRecords": 5220,
      "ressed": 5221,
      "Ġunderst": 5222,
      "Ġstrategies": 5223,
      "Ġcomponents": 5224,
      "Ġartist": 5225,
      "Ġhyp": 5226,
      "Ġethnicity": 5227,
      "Ġpurchase": 5228,
      "Ġpassion": 5229,
      "Ġprop": 5230,
      "gar": 5231,
      "Ġblue": 5232,
      "Ġsmaller": 5233,
      "ĠEnvironment": 5234,
      "ĠRetrieved": 5235,
      "ffect": 5236,
      "________": 5237,
      "ĠYoung": 5238,
      "Ġequal": 5239,
      "anging": 5240,
      "ĠDar": 5241,
      "Ġaccepted": 5242,
      "Ġserves": 5243,
      "Ġpretty": 5244,
      "ĠTim": 5245,
      "ĠPlease": 5246,
      "Ġemployed": 5247,
      "Ġtherapy": 5248,
      "Ġthou": 5249,
      "Ġhour": 5250,
      "Ġfocused": 5251,
      "Ġimproved": 5252,
      "Ġdro": 5253,
      "Ġnotice": 5254,
      "ĠSouthern": 5255,
      "mary": 5256,
      "arant": 5257,
      "Ġamend": 5258,
      "ĠSus": 5259,
      "mp": 5260,
      "Ġnorthern": 5261,
      "Ġoptim": 5262,
      "Ġstructures": 5263,
      "do": 5264,
      "Ġretired": 5265,
      "ĠWilliams": 5266,
      "Ġarg": 5267,
      "ien": 5268,
      "icit": 5269,
      "ĠEconom": 5270,
      "aska": 5271,
      "TS": 5272,
      "Ġinput": 5273,
      "Ġvolume": 5274,
      "Ġreduced": 5275,
      "Ġice": 5276,
      "orney": 5277,
      "orders": 5278,
      "Ġprimarily": 5279,
      "ĠJackson": 5280,
      "ĠMuslim": 5281,
      "Ġflight": 5282,
      "Ã¡": 5283,
      "Ġminimum": 5284,
      "know": 5285,
      "Ġmatch": 5286,
      "Ġfundamental": 5287,
      "yer": 5288,
      "Ġbul": 5289,
      "Ġaffected": 5290,
      "ĠGal": 5291,
      "Ġmort": 5292,
      "ĠGeorgia": 5293,
      "Ġfelt": 5294,
      "anda": 5295,
      "Ġmassive": 5296,
      "ura": 5297,
      "ivery": 5298,
      "Ġfish": 5299,
      "Ġcry": 5300,
      "Ġsigns": 5301,
      "Ġclicking": 5302,
      "Ġtwenty": 5303,
      "ano": 5304,
      "Ġelim": 5305,
      "Ġnine": 5306,
      "Ġgalax": 5307,
      "EE": 5308,
      "Ed": 5309,
      "ĠBeach": 5310,
      "Ġactual": 5311,
      "ini": 5312,
      "Ġpolice": 5313,
      "Ġfol": 5314,
      "Ġgraph": 5315,
      "Ġsubsequ": 5316,
      "ulf": 5317,
      "ding": 5318,
      "ĠMa": 5319,
      "ĠComplainant": 5320,
      "Ġissued": 5321,
      "etts": 5322,
      "ĠLear": 5323,
      "Ġemp": 5324,
      "Ġsyn": 5325,
      "ĠFace": 5326,
      "ront": 5327,
      "Ġdiscl": 5328,
      "down": 5329,
      "ĠPolicy": 5330,
      "CS": 5331,
      "Ġmeant": 5332,
      "ĠSl": 5333,
      "Ġedge": 5334,
      "Gen": 5335,
      "ports": 5336,
      "ĠStudies": 5337,
      "Ġreality": 5338,
      "Ġalternative": 5339,
      "Ġmeasures": 5340,
      "ĠAndrew": 5341,
      "Ġeye": 5342,
      "Ġgrew": 5343,
      "Ġtend": 5344,
      "anish": 5345,
      "OP": 5346,
      "Ġsouthern": 5347,
      "Ġpolicies": 5348,
      "bol": 5349,
      "DS": 5350,
      "ĠMA": 5351,
      "alle": 5352,
      "Ġactions": 5353,
      "opyright": 5354,
      "Ġmentioned": 5355,
      "Ġfavorite": 5356,
      "Ġreligion": 5357,
      "icians": 5358,
      "col": 5359,
      "ĠFrancisco": 5360,
      "Ġchallenge": 5361,
      "Ġdisapp": 5362,
      "Ġkid": 5363,
      "BS": 5364,
      "Ġfluid": 5365,
      "Ġauthority": 5366,
      "Ġsave": 5367,
      "Ġviolence": 5368,
      "Ġofficer": 5369,
      "Ġdream": 5370,
      "ĠCharl": 5371,
      "Ġcontem": 5372,
      "Ġcat": 5373,
      "Ġimmig": 5374,
      "Ġrecorded": 5375,
      "Ġdownload": 5376,
      "Ġcovered": 5377,
      "ĠBob": 5378,
      "Ġconcerns": 5379,
      "eline": 5380,
      "Ġleads": 5381,
      "ĠIowa": 5382,
      "war": 5383,
      "ĠStep": 5384,
      "va": 5385,
      "ĠDet": 5386,
      "Ġdepos": 5387,
      "rans": 5388,
      "ĠHy": 5389,
      "ĠSpring": 5390,
      "oles": 5391,
      "Ġlin": 5392,
      "Ġtrib": 5393,
      "Ġdisp": 5394,
      "uke": 5395,
      "father": 5396,
      "overty": 5397,
      "eck": 5398,
      "ĠDNA": 5399,
      "inations": 5400,
      "wo": 5401,
      "Ġforum": 5402,
      "Ġready": 5403,
      "ora": 5404,
      "Ġconver": 5405,
      "Ġur": 5406,
      "Ġdrugs": 5407,
      "Ġgift": 5408,
      "Ġseeking": 5409,
      "Ġcontaining": 5410,
      "rator": 5411,
      "ifts": 5412,
      "ĠArab": 5413,
      "Ġseek": 5414,
      "Ġpartner": 5415,
      "Ġwealth": 5416,
      "rich": 5417,
      "rive": 5418,
      "uable": 5419,
      "ario": 5420,
      "ĠScot": 5421,
      "RI": 5422,
      "OC": 5423,
      "ĠExecutive": 5424,
      "enth": 5425,
      "orter": 5426,
      "Ġsustain": 5427,
      "estic": 5428,
      "ĠEdward": 5429,
      "âĢĿ.": 5430,
      "Ġspending": 5431,
      "Ġdetailed": 5432,
      "ĠAut": 5433,
      "ĠEgypt": 5434,
      "Ġprison": 5435,
      "ĠSecond": 5436,
      "ĠTop": 5437,
      "achus": 5438,
      "Ġreform": 5439,
      "from": 5440,
      "ĠTrust": 5441,
      "Ġ]": 5442,
      "acing": 5443,
      "ĠCy": 5444,
      "Ġthanks": 5445,
      "rows": 5446,
      "tymology": 5447,
      "Ġbuildings": 5448,
      "Sc": 5449,
      "Ġindustrial": 5450,
      "iana": 5451,
      "Ġprocedures": 5452,
      "Ġregional": 5453,
      "Ġfrequency": 5454,
      "uther": 5455,
      "Ġresulting": 5456,
      "Ġcris": 5457,
      "ipped": 5458,
      "Ġevaluation": 5459,
      "Ġcommitted": 5460,
      "Ġsympt": 5461,
      "Ġbrief": 5462,
      "ĠSk": 5463,
      "Ġsuggests": 5464,
      "Ġran": 5465,
      "ĠEdit": 5466,
      "Ġgod": 5467,
      "Ġmail": 5468,
      "Ġelectrical": 5469,
      "arp": 5470,
      "Ġcircumst": 5471,
      "Ġmanager": 5472,
      "ĠForce": 5473,
      "Ġelig": 5474,
      "Ġdoctor": 5475,
      "ih": 5476,
      "ĠKore": 5477,
      "Ġbelong": 5478,
      "Ġspecifically": 5479,
      "Ġprofessionals": 5480,
      "Ġsomew": 5481,
      "Ġ?": 5482,
      "ĠRespondent": 5483,
      "Ġperman": 5484,
      "Ġmanufacturing": 5485,
      "Ġfounded": 5486,
      "Ġarmy": 5487,
      "Ġborder": 5488,
      "Ġtrain": 5489,
      "Ġcere": 5490,
      "Ġformat": 5491,
      "Ġvoting": 5492,
      "Ġalt": 5493,
      "Ġheat": 5494,
      "Ġraise": 5495,
      "Ġwish": 5496,
      "atever": 5497,
      "ouston": 5498,
      "Ġsections": 5499,
      "Ġpoll": 5500,
      "Ġpractices": 5501,
      "ĠPubl": 5502,
      "Ġpredict": 5503,
      "pret": 5504,
      "ĠAvenue": 5505,
      "Ġfort": 5506,
      "ĠKenn": 5507,
      "Ġemployment": 5508,
      "Ġmig": 5509,
      "Ġdecade": 5510,
      "Ġdegrees": 5511,
      "urban": 5512,
      "Ġaspects": 5513,
      "ounder": 5514,
      "Ġleaves": 5515,
      "Ġsale": 5516,
      "ĠChief": 5517,
      "Ġdiscover": 5518,
      "Ġinfrastructure": 5519,
      "Ġgone": 5520,
      "inent": 5521,
      "ĠDom": 5522,
      "rag": 5523,
      "Ġremark": 5524,
      "ĠAri": 5525,
      "ĠFair": 5526,
      "inity": 5527,
      "ĠMur": 5528,
      "ĠSecurity": 5529,
      "American": 5530,
      "Ġthy": 5531,
      "Ġinvolve": 5532,
      "Ġaged": 5533,
      "Ġ():": 5534,
      "teen": 5535,
      "ĠLew": 5536,
      "ĠPower": 5537,
      "Ġfuneral": 5538,
      "Ġ,,": 5539,
      "achusetts": 5540,
      "Ġmissing": 5541,
      "Ġadvice": 5542,
      "TH": 5543,
      "inson": 5544,
      "Ġexposure": 5545,
      "enture": 5546,
      "Ġpresentation": 5547,
      "Ġanimal": 5548,
      "Ġcorresponding": 5549,
      "emark": 5550,
      "ĠToday": 5551,
      "xual": 5552,
      "icted": 5553,
      "ĠAlb": 5554,
      "Ġadvoc": 5555,
      "Ġupper": 5556,
      "ĠWild": 5557,
      "Ġretire": 5558,
      "According": 5559,
      "ĠCancer": 5560,
      "Ġbrand": 5561,
      "ĠCast": 5562,
      "Ġautomatically": 5563,
      "Ġprepared": 5564,
      "abled": 5565,
      "Ġbegins": 5566,
      "Ġenem": 5567,
      "ĠHear": 5568,
      "Ġstreet": 5569,
      "ĠTest": 5570,
      "atre": 5571,
      "Ġexplain": 5572,
      "Ġslight": 5573,
      "Ġnations": 5574,
      "Ġsupply": 5575,
      "Ġpm": 5576,
      "ĠVer": 5577,
      "Ġparticipants": 5578,
      "athan": 5579,
      "Ġpaint": 5580,
      "Ġrelatively": 5581,
      "Ġtelephone": 5582,
      "abil": 5583,
      "ĠGar": 5584,
      "Ġarm": 5585,
      "ĠIreland": 5586,
      "Ġtrial": 5587,
      "Ġdiscrim": 5588,
      "ĠTem": 5589,
      "coming": 5590,
      "ĠSarah": 5591,
      "Ġjustice": 5592,
      "ĠBrook": 5593,
      "Ġrestaur": 5594,
      "Ġstone": 5595,
      "ĠEth": 5596,
      "Ġassistance": 5597,
      "ĠÎ": 5598,
      "Ġhousing": 5599,
      "Ġtried": 5600,
      "Ġsam": 5601,
      "ĠRE": 5602,
      "aped": 5603,
      "Ġspot": 5604,
      "ags": 5605,
      "Ġfilled": 5606,
      "achel": 5607,
      "ĠLind": 5608,
      "Ġdial": 5609,
      "Le": 5610,
      "Ġsched": 5611,
      "Ġfactor": 5612,
      "ĠID": 5613,
      "Ġadvantage": 5614,
      "ĠColorado": 5615,
      "ĠAngeles": 5616,
      "Ġreached": 5617,
      "but": 5618,
      "Ġsurgery": 5619,
      "heast": 5620,
      "Ġkill": 5621,
      "Ġdollars": 5622,
      "ĠRay": 5623,
      "ĠEnergy": 5624,
      "Ġforg": 5625,
      "ivered": 5626,
      "Ġintellig": 5627,
      "Ġaccord": 5628,
      "Ġapparent": 5629,
      "Ġskin": 5630,
      "Ġteachers": 5631,
      "ĠTur": 5632,
      "iating": 5633,
      "Ġsettle": 5634,
      "ureau": 5635,
      "stein": 5636,
      "ĠBoy": 5637,
      "ĠMissouri": 5638,
      "ĠAuthor": 5639,
      "Ġsupports": 5640,
      "ician": 5641,
      "erves": 5642,
      "Ġthr": 5643,
      "Ġsecret": 5644,
      "Des": 5645,
      "Ġchosen": 5646,
      "ĠRom": 5647,
      "Ġexercise": 5648,
      "Ġfashion": 5649,
      "icks": 5650,
      "ĠColumbia": 5651,
      "lastname": 5652,
      "Ġquantum": 5653,
      "Ġexamples": 5654,
      "ishop": 5655,
      "ala": 5656,
      "May": 5657,
      "Ġdistance": 5658,
      "emb": 5659,
      "Ġclasses": 5660,
      "unciation": 5661,
      "Ġsufficient": 5662,
      "omic": 5663,
      "ĠAsia": 5664,
      "Ġspeculative": 5665,
      "ĠIT": 5666,
      "ĠBas": 5667,
      "Ġproof": 5668,
      "Ġstrategic": 5669,
      "ĠÃ": 5670,
      "ĠWhe": 5671,
      "ibilities": 5672,
      "About": 5673,
      "ĠUt": 5674,
      "Ġupdated": 5675,
      "Ġwriter": 5676,
      "rum": 5677,
      "Ġbless": 5678,
      "Ġwelcome": 5679,
      ".||": 5680,
      "oster": 5681,
      "Ġlaunch": 5682,
      "erate": 5683,
      "lyn": 5684,
      "Ġregistration": 5685,
      "born": 5686,
      "ifications": 5687,
      "tra": 5688,
      "Ġsports": 5689,
      "See": 5690,
      "Ġabsolute": 5691,
      "free": 5692,
      "Ġuniverse": 5693,
      "ĠSearch": 5694,
      "stra": 5695,
      "ĠAdv": 5696,
      "âĤ¬": 5697,
      "Ġlooked": 5698,
      "list": 5699,
      "Ġcontinuing": 5700,
      "iversary": 5701,
      "aven": 5702,
      "rem": 5703,
      "parent": 5704,
      "roph": 5705,
      "obe": 5706,
      "Ġterror": 5707,
      "press": 5708,
      "ĠHoly": 5709,
      "ĠTime": 5710,
      "ĠReal": 5711,
      "Ġuns": 5712,
      "Ġgraduated": 5713,
      "Ġextremely": 5714,
      "Ġflood": 5715,
      "Ġphotograph": 5716,
      "Ġpapers": 5717,
      "Ġsupporting": 5718,
      "ĠCEO": 5719,
      "ĠIII": 5720,
      "ĠMiller": 5721,
      "Ġlicense": 5722,
      "Ġburied": 5723,
      "AB": 5724,
      "Ġextent": 5725,
      "ĠEnd": 5726,
      "Ġsignificantly": 5727,
      "uing": 5728,
      "Ġspok": 5729,
      "ĠMassachusetts": 5730,
      "Ġinterface": 5731,
      "Ġnegative": 5732,
      "ATION": 5733,
      "bury": 5734,
      "Ġinstance": 5735,
      "tha": 5736,
      "Ġtalking": 5737,
      "Ġwasn": 5738,
      "Ġproud": 5739,
      "Other": 5740,
      "Ġschem": 5741,
      "Ġhunt": 5742,
      "ourney": 5743,
      "irty": 5744,
      "ĠHot": 5745,
      "Ġnephe": 5746,
      "Ġmaintenance": 5747,
      "azz": 5748,
      "ĠSpanish": 5749,
      "Ġstraight": 5750,
      "ĠJane": 5751,
      "ĠAud": 5752,
      "Ġtissue": 5753,
      "isition": 5754,
      "ĠLo": 5755,
      "ĠNASA": 5756,
      "Ġcatal": 5757,
      "eters": 5758,
      "App": 5759,
      "ĠSher": 5760,
      "Ġagencies": 5761,
      "Ġprinciples": 5762,
      "Ġperspective": 5763,
      "Ġemergency": 5764,
      "Ġaid": 5765,
      "Ġmere": 5766,
      "Ġleaving": 5767,
      "Not": 5768,
      "itle": 5769,
      "Ġwitness": 5770,
      "Ġchapter": 5771,
      "ĠBoth": 5772,
      "Ġatmosphere": 5773,
      "Ġoption": 5774,
      "Ġdriving": 5775,
      "Ġerror": 5776,
      "LC": 5777,
      "Ġsurrounding": 5778,
      "ections": 5779,
      "Ġdespite": 5780,
      "Ġshowing": 5781,
      "Ġdiscovery": 5782,
      "Ġblocks": 5783,
      "ĠRoyal": 5784,
      "eries": 5785,
      "oral": 5786,
      "Ġexistence": 5787,
      "inking": 5788,
      "Ġoccurred": 5789,
      "urches": 5790,
      "Ġble": 5791,
      "Ġtask": 5792,
      "Ġnarrow": 5793,
      "Ġlake": 5794,
      "ĠAdministration": 5795,
      "Ġflex": 5796,
      "Ġfeeling": 5797,
      "ĠGlobal": 5798,
      "Ġhorse": 5799,
      "----": 5800,
      "Ġdu": 5801,
      "Ġworldwide": 5802,
      "Ġsector": 5803,
      "ĠEst": 5804,
      "ĠIns": 5805,
      "ĠBush": 5806,
      "ERS": 5807,
      ")|": 5808,
      "Ġartists": 5809,
      "Im": 5810,
      "Ġrom": 5811,
      "Am": 5812,
      "Ġgranted": 5813,
      "Ġvast": 5814,
      "ework": 5815,
      "Ġ$,.": 5816,
      "inner": 5817,
      "ivors": 5818,
      "agues": 5819,
      "stone": 5820,
      "ĠJews": 5821,
      "Ġrob": 5822,
      "Ġdiscussed": 5823,
      "Ġhero": 5824,
      "aylor": 5825,
      "Ġvisual": 5826,
      "Ġhealthy": 5827,
      "ifies": 5828,
      "amm": 5829,
      "ĠTO": 5830,
      "ĠGall": 5831,
      "Ġheavy": 5832,
      "ĠIndiana": 5833,
      "Ind": 5834,
      "ĠFather": 5835,
      "Ġoriginally": 5836,
      "ĠGro": 5837,
      ".-": 5838,
      "Ġdiss": 5839,
      "Ġmostly": 5840,
      "ĠConf": 5841,
      "ĠFacebook": 5842,
      "Ġcertainly": 5843,
      "Ġentered": 5844,
      "Ġregulations": 5845,
      "isation": 5846,
      "ĠStr": 5847,
      "arn": 5848,
      "Pl": 5849,
      "ĠAff": 5850,
      "luding": 5851,
      "Ġcycle": 5852,
      "ĠDavis": 5853,
      "Ġreader": 5854,
      "Ġdelivered": 5855,
      "ĠCross": 5856,
      "resents": 5857,
      "Ġtypically": 5858,
      "ĠLim": 5859,
      "Ġgrants": 5860,
      "Ġpartnership": 5861,
      "ried": 5862,
      "Ġsurn": 5863,
      "Ġtreated": 5864,
      "Ġmeetings": 5865,
      "Ġlaun": 5866,
      "Ġexpansion": 5867,
      "aste": 5868,
      "ulating": 5869,
      "rome": 5870,
      "Ġawards": 5871,
      "Ġfresh": 5872,
      "oria": 5873,
      "Ġdrop": 5874,
      "Ġofficers": 5875,
      "Ġdoubt": 5876,
      "tical": 5877,
      "igure": 5878,
      "Ġgrade": 5879,
      "Ġruns": 5880,
      "Ġefficient": 5881,
      "Ġwherein": 5882,
      "Ġ:-": 5883,
      "aughter": 5884,
      "ĠFurther": 5885,
      "Ġdesire": 5886,
      "Ġbanks": 5887,
      "racy": 5888,
      "uster": 5889,
      "iti": 5890,
      "ĠAD": 5891,
      "under": 5892,
      "ĠNetwork": 5893,
      "bra": 5894,
      "ĠWho": 5895,
      "Ġrank": 5896,
      "Ġ(,": 5897,
      "osa": 5898,
      "Ġdivid": 5899,
      "|||": 5900,
      "Ġtrip": 5901,
      "ĠVan": 5902,
      "Ġmist": 5903,
      "?\"": 5904,
      "Ġflowers": 5905,
      "heim": 5906,
      "ingly": 5907,
      "Ġfixed": 5908,
      "Ġlooks": 5909,
      "Ġdoor": 5910,
      "Ġsigned": 5911,
      "ĠCode": 5912,
      "ensions": 5913,
      "Ġmaximum": 5914,
      "ĠSon": 5915,
      "Ġposted": 5916,
      "mother": 5917,
      "ella": 5918,
      "ĠJersey": 5919,
      "Ġyounger": 5920,
      "ILL": 5921,
      "Will": 5922,
      "ĠBu": 5923,
      "Bl": 5924,
      "Ġpoverty": 5925,
      "ĠSaf": 5926,
      "igen": 5927,
      "Ġforced": 5928,
      "rabble": 5929,
      "Ġindex": 5930,
      "OD": 5931,
      "Ġrenew": 5932,
      "ĠAS": 5933,
      "Ġhelps": 5934,
      "Ġjoy": 5935,
      "Ġcircumstances": 5936,
      "Ġshel": 5937,
      "Ġindependently": 5938,
      "ĠMedia": 5939,
      "ĠSenate": 5940,
      "Ġillness": 5941,
      "rance": 5942,
      "net": 5943,
      "Ġdefinition": 5944,
      "ĠList": 5945,
      "ĠRose": 5946,
      "ĠOnly": 5947,
      "ĠJacob": 5948,
      "ilit": 5949,
      "Ġnd": 5950,
      "word": 5951,
      "ommod": 5952,
      "ĠMS": 5953,
      "ymph": 5954,
      "awn": 5955,
      "ml": 5956,
      "section": 5957,
      "Ġenhance": 5958,
      "Ġphen": 5959,
      "Ġneither": 5960,
      "Ġgirls": 5961,
      "Ġelected": 5962,
      "ĠÂ£": 5963,
      "Ġspiritual": 5964,
      "Ġclim": 5965,
      "cel": 5966,
      "Ġcraft": 5967,
      "Ġaccurate": 5968,
      "Ġnewsp": 5969,
      "Ġamazing": 5970,
      "Ġevening": 5971,
      "ĠCanadian": 5972,
      "ĠBarb": 5973,
      "Ġmillions": 5974,
      "arry": 5975,
      "Ġpartners": 5976,
      "Ã¼": 5977,
      "ORD": 5978,
      "oom": 5979,
      "pet": 5980,
      "Ġdistinct": 5981,
      "Ġgather": 5982,
      "Ġsoci": 5983,
      "ĠRepublican": 5984,
      "imental": 5985,
      "ĠTH": 5986,
      "Ġvital": 5987,
      "Ġdelivery": 5988,
      "abetes": 5989,
      "ĠMot": 5990,
      "Ġthoughts": 5991,
      "ĠSanta": 5992,
      "ĠMD": 5993,
      "Ġhappens": 5994,
      "comm": 5995,
      "alian": 5996,
      "ĠHa": 5997,
      "Ġrisks": 5998,
      "EW": 5999,
      "Ġ.,": 6000,
      "esota": 6001,
      "ĠLuc": 6002,
      "Rec": 6003,
      "MA": 6004,
      "Ġquarter": 6005,
      "Ġresolution": 6006,
      "Ġprove": 6007,
      "ĠMountain": 6008,
      "Ġdescription": 6009,
      "uses": 6010,
      "Ġframe": 6011,
      "top": 6012,
      "Ġentry": 6013,
      "Ġocean": 6014,
      "Ġsymptoms": 6015,
      "Ġteach": 6016,
      "Ġpun": 6017,
      "Ġsole": 6018,
      "Ġnie": 6019,
      "Ġtransmission": 6020,
      "iced": 6021,
      "Or": 6022,
      "Ġnone": 6023,
      "ĠCorporation": 6024,
      "Ġclub": 6025,
      "ĠAbout": 6026,
      "Ġremote": 6027,
      "Ġdriven": 6028,
      "ĠCoast": 6029,
      "Ġcalling": 6030,
      "rane": 6031,
      "Ġspelling": 6032,
      "aud": 6033,
      "prise": 6034,
      "Ġped": 6035,
      "oir": 6036,
      "bro": 6037,
      "Ġconcern": 6038,
      "Ġindicate": 6039,
      "ĠIran": 6040,
      "AA": 6041,
      "Ġbright": 6042,
      "RS": 6043,
      "Ġended": 6044,
      "ĠSystems": 6045,
      "ĠChem": 6046,
      "ĠJapanese": 6047,
      "essee": 6048,
      "Ġreferred": 6049,
      "Ġinstalled": 6050,
      "ĠCountry": 6051,
      "ĠRem": 6052,
      "ipping": 6053,
      "ĠJoe": 6054,
      "Ġsynt": 6055,
      "Ġhabit": 6056,
      "Ġdescribes": 6057,
      "Ġends": 6058,
      "Ġpublication": 6059,
      "ĠForest": 6060,
      "oves": 6061,
      "cribed": 6062,
      "profit": 6063,
      "Ġrepresents": 6064,
      "writ": 6065,
      "Ġagents": 6066,
      "hesis": 6067,
      "Ġreaction": 6068,
      "Click": 6069,
      "Ġinternet": 6070,
      "Ġdistingu": 6071,
      "Ġpayment": 6072,
      "Ġshut": 6073,
      "pected": 6074,
      "Ġguarant": 6075,
      "erman": 6076,
      "ĠHouston": 6077,
      "Ġsolar": 6078,
      "ĠFriend": 6079,
      "Ġthick": 6080,
      "ificate": 6081,
      "ĠKen": 6082,
      "Ġpersonnel": 6083,
      "ĠOpen": 6084,
      "levision": 6085,
      "ĠPC": 6086,
      "Since": 6087,
      "Sur": 6088,
      "ga": 6089,
      "Ġwear": 6090,
      "Ġacknow": 6091,
      "Ġlock": 6092,
      "nam": 6093,
      "Ġwalls": 6094,
      "Ġexchange": 6095,
      "ager": 6096,
      "anges": 6097,
      "rition": 6098,
      "Ġmotion": 6099,
      "Ġhumans": 6100,
      "nda": 6101,
      "ĠAp": 6102,
      "Ġorganized": 6103,
      "ĠStan": 6104,
      "iability": 6105,
      "gor": 6106,
      "lers": 6107,
      "dis": 6108,
      "Ġchamber": 6109,
      "Ġholds": 6110,
      "ĠSuch": 6111,
      "Ġembodiment": 6112,
      "ĠDie": 6113,
      "Ġconcerning": 6114,
      "ĠOak": 6115,
      "Ġpictures": 6116,
      "inder": 6117,
      "Ġtow": 6118,
      "ĠNavy": 6119,
      "Ġloving": 6120,
      "Ġachieved": 6121,
      "ĠMaster": 6122,
      "ĠFac": 6123,
      "Ġexperts": 6124,
      "ĠPage": 6125,
      "Ġwestern": 6126,
      "ĠComput": 6127,
      "ĠOnce": 6128,
      "hat": 6129,
      "Ġpieces": 6130,
      "agon": 6131,
      "âĢł": 6132,
      "Ġadvis": 6133,
      "ĠLittle": 6134,
      "Ġsegment": 6135,
      "ĠIndust": 6136,
      "Ġconserv": 6137,
      "FIG": 6138,
      "Sp": 6139,
      "Ġdescribe": 6140,
      "ĠDor": 6141,
      "Ġnetworks": 6142,
      "ĠData": 6143,
      "Ġdelay": 6144,
      "inet": 6145,
      "fol": 6146,
      "Ġexceed": 6147,
      "comes": 6148,
      "RC": 6149,
      "Ġefficiency": 6150,
      "Ġrevealed": 6151,
      "Ġhydro": 6152,
      "Ġcontribute": 6153,
      "BN": 6154,
      "Ġonto": 6155,
      "Ġeld": 6156,
      "Ġacid": 6157,
      "ĠParty": 6158,
      "ortunately": 6159,
      "Ġtumor": 6160,
      "tery": 6161,
      "umin": 6162,
      "Ġhearing": 6163,
      "Ġspl": 6164,
      "Ġspellings": 6165,
      "Ġbow": 6166,
      "Ġcategories": 6167,
      "Ġobtain": 6168,
      "ditional": 6169,
      "Ġunem": 6170,
      "Ġenforce": 6171,
      "Ġgenerations": 6172,
      "Ġmi": 6173,
      "Ġremaining": 6174,
      "Ġinvestigation": 6175,
      "ĠHead": 6176,
      "ban": 6177,
      "Ġdiverse": 6178,
      "Ġwants": 6179,
      "Ġparties": 6180,
      "Ġregister": 6181,
      "elines": 6182,
      "Ġrain": 6183,
      "ĠBridge": 6184,
      "ĠPsych": 6185,
      "idden": 6186,
      "oln": 6187,
      "ĠMicrosoft": 6188,
      "Ġappointed": 6189,
      "Ġtechnologies": 6190,
      "Ġresidence": 6191,
      "Ġment": 6192,
      "Ġcontrast": 6193,
      "Ġentirely": 6194,
      "ĠFarm": 6195,
      "ĠPA": 6196,
      "illa": 6197,
      "Ġcorner": 6198,
      "Ġpopulations": 6199,
      "Ġcircuit": 6200,
      "yan": 6201,
      "Ġconven": 6202,
      "Ġsimpl": 6203,
      "Ġannounce": 6204,
      "Please": 6205,
      "ĠRussian": 6206,
      "Ġlease": 6207,
      "kin": 6208,
      "gal": 6209,
      "Ġgenerate": 6210,
      "ĠMinnesota": 6211,
      "ĠCarl": 6212,
      "agraph": 6213,
      "Ġdirected": 6214,
      "Ġeat": 6215,
      "ibl": 6216,
      "ĠSing": 6217,
      "ellect": 6218,
      "Ġweak": 6219,
      "Ġentit": 6220,
      "ĠJun": 6221,
      "Ġpurchased": 6222,
      "itan": 6223,
      "ghan": 6224,
      "Ġjoint": 6225,
      "ooth": 6226,
      "cles": 6227,
      "onsin": 6228,
      "Ġhealthcare": 6229,
      "Ġpassing": 6230,
      "rants": 6231,
      "Ġnorm": 6232,
      "Ġvary": 6233,
      "Ġspend": 6234,
      "ĠCentre": 6235,
      "igation": 6236,
      "Ġfirstname": 6237,
      "sub": 6238,
      "Ġamb": 6239,
      "Ġcook": 6240,
      "ĠLy": 6241,
      "Ġplus": 6242,
      "outs": 6243,
      "ĠSpirit": 6244,
      "Ġastron": 6245,
      "Qu": 6246,
      "stream": 6247,
      "ugh": 6248,
      "isconsin": 6249,
      "Add": 6250,
      "Ġprocedure": 6251,
      "oty": 6252,
      "ĠJon": 6253,
      "ĠBooks": 6254,
      "ĠInvest": 6255,
      "odge": 6256,
      "inding": 6257,
      "clusion": 6258,
      "long": 6259,
      "ato": 6260,
      "ĠCorn": 6261,
      "Ġimaging": 6262,
      "ĠCensus": 6263,
      "Ġaccounts": 6264,
      "GE": 6265,
      "pert": 6266,
      "Ġevil": 6267,
      "Ġcrim": 6268,
      "xts": 6269,
      "Ġfle": 6270,
      "alse": 6271,
      "ĠTherefore": 6272,
      "Ġdivision": 6273,
      "Ġbeauty": 6274,
      "Ġsettled": 6275,
      "ĠParis": 6276,
      "ĠAsh": 6277,
      "Ġfly": 6278,
      "Ġoccurs": 6279,
      "Ġdivor": 6280,
      "adel": 6281,
      "Col": 6282,
      "Ġrequirement": 6283,
      "Ġmagazine": 6284,
      "Ġheaven": 6285,
      "ĠWilson": 6286,
      "Ġrepresentative": 6287,
      "Ġcopies": 6288,
      "**": 6289,
      "Ġles": 6290,
      "uan": 6291,
      "Read": 6292,
      "Ġvaluable": 6293,
      "ican": 6294,
      "TER": 6295,
      "ologist": 6296,
      "Ġelev": 6297,
      "Ġwinner": 6298,
      "Ġthousand": 6299,
      "Ġadopted": 6300,
      "Ġcars": 6301,
      "Ġlatter": 6302,
      "ĠNorthern": 6303,
      "During": 6304,
      "ĠThose": 6305,
      "Ġcolon": 6306,
      "FR": 6307,
      "ĠLewis": 6308,
      "Ġbodies": 6309,
      "Ġmode": 6310,
      "itely": 6311,
      "Ġsounds": 6312,
      "Ġprotein": 6313,
      "Ġopinion": 6314,
      "how": 6315,
      "asters": 6316,
      "dule": 6317,
      "Ġstre": 6318,
      "ĠClark": 6319,
      "grandchildren": 6320,
      "athy": 6321,
      "Ġunderstood": 6322,
      "enter": 6323,
      "ails": 6324,
      "ĠMargaret": 6325,
      "ĠTer": 6326,
      "Ġcollaboration": 6327,
      "Ġdiscipl": 6328,
      "Although": 6329,
      "ĠDun": 6330,
      "ograp": 6331,
      "Ġbirds": 6332,
      "othe": 6333,
      "Ġphoto": 6334,
      "Ġmeasurement": 6335,
      "Ġfailed": 6336,
      "Ġoblig": 6337,
      "idge": 6338,
      "Ġwire": 6339,
      "Ġcash": 6340,
      "Ġaccommod": 6341,
      "Ġmagnetic": 6342,
      "ipe": 6343,
      "iano": 6344,
      "Ġprint": 6345,
      "aby": 6346,
      "Ġindeed": 6347,
      "Ġattacks": 6348,
      "ĠMen": 6349,
      "Ġcompens": 6350,
      "usal": 6351,
      "Ġknows": 6352,
      "ĠChapel": 6353,
      "ĠEqu": 6354,
      "etime": 6355,
      "Ġgene": 6356,
      "Ġpolitics": 6357,
      "Ġcrisis": 6358,
      "Äģ": 6359,
      "Ġresistance": 6360,
      "arat": 6361,
      "BA": 6362,
      "ĠEnter": 6363,
      "Ġsecure": 6364,
      "ĠOnline": 6365,
      "ceased": 6366,
      "ĠBlue": 6367,
      "ĠRussia": 6368,
      "tes": 6369,
      "Ġwave": 6370,
      "Ġsoldiers": 6371,
      "IF": 6372,
      "Ġinstrument": 6373,
      "Ã³": 6374,
      "âĢĿ,": 6375,
      "Ġisol": 6376,
      "ĠTri": 6377,
      "ĠAriz": 6378,
      "ĠBrad": 6379,
      "othing": 6380,
      "Ġassociation": 6381,
      "Ġsharing": 6382,
      "Ġagricult": 6383,
      "ĠSamuel": 6384,
      "Ġspecified": 6385,
      "Ġsan": 6386,
      "Ġsymbol": 6387,
      "Ġassistant": 6388,
      "Ġmarkets": 6389,
      "Ġplayer": 6390,
      "ocracy": 6391,
      "incoln": 6392,
      "Ġdescend": 6393,
      "Ġcompetition": 6394,
      "Ġcharacteristics": 6395,
      "Ġnice": 6396,
      "Ġtrademark": 6397,
      "Ġunion": 6398,
      "iate": 6399,
      "Sub": 6400,
      "ĠCH": 6401,
      "Ġpromote": 6402,
      "Mar": 6403,
      "Ġfishing": 6404,
      "urrent": 6405,
      "ava": 6406,
      "Ġfacts": 6407,
      "Ġterrit": 6408,
      "Ġagreed": 6409,
      "Ġopposite": 6410,
      "However": 6411,
      "Ġmedicine": 6412,
      "Ġnav": 6413,
      "Ġcharged": 6414,
      "ĠJean": 6415,
      "agram": 6416,
      "Ġinterpret": 6417,
      "celer": 6418,
      "ĠLove": 6419,
      "ĠTennessee": 6420,
      "ĠField": 6421,
      "kes": 6422,
      "ela": 6423,
      "ĠFRBO": 6424,
      "aming": 6425,
      "ĠRh": 6426,
      "Ġmountain": 6427,
      "osophy": 6428,
      "Ġexclus": 6429,
      "ĠLuther": 6430,
      "Ġnewly": 6431,
      "Ġaccordance": 6432,
      "ĠEp": 6433,
      "Ġcandidates": 6434,
      "zen": 6435,
      "Ġlimits": 6436,
      "Ġconfiguration": 6437,
      "Ġsleep": 6438,
      "Ġrose": 6439,
      "Ġclosely": 6440,
      "Ġmanage": 6441,
      "ĠWalk": 6442,
      "Ġbeach": 6443,
      "Ġpil": 6444,
      "Ġfulf": 6445,
      "Ġproperly": 6446,
      "Ġcolleagues": 6447,
      "iac": 6448,
      "Ġtrend": 6449,
      "Ġengaged": 6450,
      "Ġfab": 6451,
      "Ġeasier": 6452,
      "Ġmarked": 6453,
      "Ġalternate": 6454,
      "Ġfinished": 6455,
      "Ġmm": 6456,
      "ĠTaylor": 6457,
      "ĠProte": 6458,
      "Ġcandidate": 6459,
      "Ġcoin": 6460,
      "Ġerr": 6461,
      "ulner": 6462,
      "ĠMid": 6463,
      "Ġholding": 6464,
      "pping": 6465,
      "dden": 6466,
      "ĠBest": 6467,
      "ĠWisconsin": 6468,
      "osc": 6469,
      "Ġrelatives": 6470,
      "bour": 6471,
      "ĠAP": 6472,
      "point": 6473,
      "Ġjourney": 6474,
      "ĠView": 6475,
      "Ġitem": 6476,
      "ded": 6477,
      "ĠCamb": 6478,
      "Ġmemories": 6479,
      "Ġshot": 6480,
      "Ġthee": 6481,
      "ĠApplic": 6482,
      "Ġaffili": 6483,
      "aren": 6484,
      "atern": 6485,
      "irmed": 6486,
      "uted": 6487,
      "ĠMethodist": 6488,
      "alysis": 6489,
      "ĠOrig": 6490,
      "Ġstanding": 6491,
      "Ġban": 6492,
      "Ġsuc": 6493,
      "Ġaudio": 6494,
      "Ġdistributed": 6495,
      "athe": 6496,
      "itis": 6497,
      "ĠPlay": 6498,
      "ĠArea": 6499,
      "rient": 6500,
      "iform": 6501,
      "ĠThrough": 6502,
      "Ġhistoric": 6503,
      "Ġgenes": 6504,
      "Most": 6505,
      "Ġtells": 6506,
      "han": 6507,
      "Ġfellow": 6508,
      "Ġworksh": 6509,
      "Posted": 6510,
      "Ġequival": 6511,
      "Ġrevolution": 6512,
      "ĠBow": 6513,
      "Ġ(-)": 6514,
      "hedule": 6515,
      "aron": 6516,
      "ĠâĢĵ.": 6517,
      "Ġadm": 6518,
      "ulum": 6519,
      "Ġrecovery": 6520,
      "apped": 6521,
      "een": 6522,
      "oven": 6523,
      "Ġeligible": 6524,
      "Ġfootball": 6525,
      "Ġbought": 6526,
      "Ġmoral": 6527,
      "gs": 6528,
      "atherine": 6529,
      "Ġcapable": 6530,
      "Ġreduction": 6531,
      "Ġreserved": 6532,
      "Ġcontrolled": 6533,
      "Ġderived": 6534,
      "gorith": 6535,
      "Ġrural": 6536,
      "Ġcrime": 6537,
      "ĠOx": 6538,
      "isms": 6539,
      "such": 6540,
      "Note": 6541,
      "Ġfinds": 6542,
      "Ġisland": 6543,
      "Ġpoet": 6544,
      "ĠKentucky": 6545,
      "Ġlinked": 6546,
      "sex": 6547,
      "ĠBal": 6548,
      "Ġconflict": 6549,
      "Many": 6550,
      "Ġassembly": 6551,
      "Ġeffectively": 6552,
      "uls": 6553,
      "Ġsnow": 6554,
      "Ġprincipal": 6555,
      "pson": 6556,
      "Ġinh": 6557,
      "Ġlies": 6558,
      "Ġsubjects": 6559,
      "Ġpregn": 6560,
      "orough": 6561,
      "ĠâĢĵ,": 6562,
      "ĠControl": 6563,
      "Ġneur": 6564,
      "gov": 6565,
      "ĠNC": 6566,
      "ĠÂ·": 6567,
      "ĠItaly": 6568,
      "Ġearned": 6569,
      "Ġbreat": 6570,
      "ĠRon": 6571,
      "Ġphysics": 6572,
      "Ġshift": 6573,
      "Ġpatent": 6574,
      "ears": 6575,
      "then": 6576,
      "ache": 6577,
      "IDS": 6578,
      "Ġpositions": 6579,
      "ĠGeneal": 6580,
      "Ġwaters": 6581,
      "chen": 6582,
      "Ġtun": 6583,
      "Ġfasc": 6584,
      "Ġchildhood": 6585,
      "ĠAR": 6586,
      "Ġliqu": 6587,
      "Ġiron": 6588,
      "eding": 6589,
      "Ġsuitable": 6590,
      "Ġanniversary": 6591,
      "ye": 6592,
      "Ġinjury": 6593,
      "Ġmedium": 6594,
      "zy": 6595,
      "irt": 6596,
      "Ġconcerned": 6597,
      "Ġenable": 6598,
      "ĠStudy": 6599,
      "ossible": 6600,
      "rm": 6601,
      "Ġwhatever": 6602,
      "ĠSat": 6603,
      "ĠLin": 6604,
      "ĠColl": 6605,
      ",,": 6606,
      "roke": 6607,
      "ĠLt": 6608,
      "regon": 6609,
      "Ġwidely": 6610,
      "Ġbact": 6611,
      "Ġtechnique": 6612,
      "ĠMic": 6613,
      "ĠFour": 6614,
      "ĠCall": 6615,
      "ĠSea": 6616,
      "Ġmemorial": 6617,
      "ĠPoint": 6618,
      "ĠFood": 6619,
      "ĠArk": 6620,
      "ĠRand": 6621,
      "Ġsudden": 6622,
      "ĠFar": 6623,
      "ĠGreek": 6624,
      "iley": 6625,
      "ror": 6626,
      "Ġlaunched": 6627,
      "Ġprices": 6628,
      "while": 6629,
      "Ġpool": 6630,
      "Ġstatements": 6631,
      "Ġlargely": 6632,
      "kend": 6633,
      "ownt": 6634,
      "ĠBritain": 6635,
      "Ġsucceed": 6636,
      "Ġseeing": 6637,
      "Ġinfo": 6638,
      "ĠMarketing": 6639,
      "Ġemissions": 6640,
      "itud": 6641,
      "Ġfrequently": 6642,
      "Ġfees": 6643,
      "Ġsick": 6644,
      "hi": 6645,
      "Ġkeeping": 6646,
      "Ġpra": 6647,
      "Ġinnovative": 6648,
      "hand": 6649,
      "Ġstret": 6650,
      "Ġentertain": 6651,
      "cers": 6652,
      "Ġconventional": 6653,
      "ĠGre": 6654,
      "fin": 6655,
      "epend": 6656,
      "Ġacquisition": 6657,
      "Ġpreferred": 6658,
      "Ġdebate": 6659,
      "rage": 6660,
      "CO": 6661,
      "SP": 6662,
      "Ġchurches": 6663,
      "Ġgreatly": 6664,
      "Ġarrived": 6665,
      "Ġrespectively": 6666,
      "Ġconsistent": 6667,
      "Ġcounsel": 6668,
      "Ã¶": 6669,
      "TA": 6670,
      "reation": 6671,
      "worth": 6672,
      "Ġherself": 6673,
      "Ġmissed": 6674,
      "ĠGrant": 6675,
      "encing": 6676,
      "Ġrecommended": 6677,
      "ĠMaryland": 6678,
      "Ġplate": 6679,
      "ĠMike": 6680,
      "ĠAgency": 6681,
      "Ġdental": 6682,
      "Ġce": 6683,
      "hent": 6684,
      "Ġstuff": 6685,
      "Ġobvious": 6686,
      "hus": 6687,
      "Ġmaybe": 6688,
      "otes": 6689,
      "etary": 6690,
      "ĠWhere": 6691,
      "ounded": 6692,
      "Ġpainting": 6693,
      "Ġmatters": 6694,
      "Ġgrown": 6695,
      "Ġstim": 6696,
      "mann": 6697,
      "iology": 6698,
      "Ġvillage": 6699,
      "Ġneuro": 6700,
      "fl": 6701,
      "ĠSqu": 6702,
      "ĠAfghan": 6703,
      "Ġretirement": 6704,
      "Ġtheore": 6705,
      "ĠHor": 6706,
      "ĠBell": 6707,
      "aph": 6708,
      "Ġvehicle": 6709,
      "pes": 6710,
      "Ġinvent": 6711,
      "Ġlisten": 6712,
      "holders": 6713,
      "Ġmile": 6714,
      "ĠTrail": 6715,
      "Ġgolf": 6716,
      "Ġtom": 6717,
      "Ġexists": 6718,
      "Ġdangerous": 6719,
      "Ġnegot": 6720,
      "Ġfloor": 6721,
      "Ġfunded": 6722,
      "UM": 6723,
      "ĠAst": 6724,
      "ĠKel": 6725,
      "Ġaudience": 6726,
      "bian": 6727,
      "Jan": 6728,
      "Ġcamer": 6729,
      "ĠAlbert": 6730,
      "Ġpossess": 6731,
      "olis": 6732,
      "nie": 6733,
      "ĠStephen": 6734,
      "unicip": 6735,
      "Ġimplementation": 6736,
      "Ġencourage": 6737,
      "Ġweapons": 6738,
      "ĠBern": 6739,
      "Ġprovision": 6740,
      "Ġsignals": 6741,
      "ĠApple": 6742,
      "ĠResources": 6743,
      "ĠRog": 6744,
      "Ġexplained": 6745,
      "thur": 6746,
      "Ġswitch": 6747,
      "Ġcounties": 6748,
      "Ġdynamic": 6749,
      "Ġguidance": 6750,
      "Ġduty": 6751,
      "Ġadvertising": 6752,
      "craft": 6753,
      "Me": 6754,
      "bell": 6755,
      "Ste": 6756,
      "Ġawareness": 6757,
      "fast": 6758,
      "iration": 6759,
      "Ġformal": 6760,
      "Ġexciting": 6761,
      "rity": 6762,
      "Ġflat": 6763,
      "ĠLatin": 6764,
      "Ġincred": 6765,
      "ĠLast": 6766,
      "Ġunknown": 6767,
      "apes": 6768,
      "Mrs": 6769,
      "Ġcontrols": 6770,
      "ĠMax": 6771,
      "Ġurg": 6772,
      "ogical": 6773,
      "Ġtopics": 6774,
      "Ġaren": 6775,
      "Ġcouncil": 6776,
      "Ġvoters": 6777,
      "Ġlandscape": 6778,
      "Ġrecommendations": 6779,
      "Ġdates": 6780,
      "ĠBurial": 6781,
      "Ġthin": 6782,
      "Ġmel": 6783,
      "aine": 6784,
      "Do": 6785,
      "Ġvisitors": 6786,
      "ĠJustice": 6787,
      "ĠPop": 6788,
      "Ġchronic": 6789,
      "lah": 6790,
      "ĠLincoln": 6791,
      "ĠÂ©": 6792,
      "Ġtroops": 6793,
      "Ġstarts": 6794,
      "Ġwebsites": 6795,
      "ĠBureau": 6796,
      "Ġindu": 6797,
      "'.": 6798,
      "Ġconsists": 6799,
      "ĠChapter": 6800,
      "Ġgoods": 6801,
      "ĠâĢĻ": 6802,
      "ĠSup": 6803,
      "Ġlots": 6804,
      "olve": 6805,
      "anguage": 6806,
      "ĠCult": 6807,
      "Ġgate": 6808,
      "Ġongoing": 6809,
      "Ġtube": 6810,
      "ĠLiber": 6811,
      "Ġdestroyed": 6812,
      "ĠCard": 6813,
      "ĠCirc": 6814,
      "ĠAnderson": 6815,
      "Ġinvolves": 6816,
      "Ġconfidence": 6817,
      "Ġsand": 6818,
      "Ġsuffering": 6819,
      "ĠAustralian": 6820,
      "Ġdefe": 6821,
      "].": 6822,
      "Ġsuccessfully": 6823,
      "Ġincl": 6824,
      "Ġfourth": 6825,
      "Ge": 6826,
      "aser": 6827,
      "Ġrepresented": 6828,
      "Ġheight": 6829,
      "Ġarrangements": 6830,
      "arters": 6831,
      "ĠBox": 6832,
      "Ġcrow": 6833,
      "Ġappearance": 6834,
      "ults": 6835,
      "Ġentitled": 6836,
      "Ġages": 6837,
      "acent": 6838,
      "EP": 6839,
      "ollowing": 6840,
      "Ġradiation": 6841,
      "Ġlists": 6842,
      "gend": 6843,
      "ologists": 6844,
      "Ġsteel": 6845,
      "Ġpure": 6846,
      "Ġconsequences": 6847,
      "ĠIP": 6848,
      "ds": 6849,
      "Ġsubstrate": 6850,
      "Ġpresents": 6851,
      "Ġcreative": 6852,
      "Ġmanaged": 6853,
      "Ġpermanent": 6854,
      "Ġing": 6855,
      "erk": 6856,
      "phia": 6857,
      "Ġpossibly": 6858,
      "lymp": 6859,
      "Ġguard": 6860,
      "ifer": 6861,
      "Ġshoot": 6862,
      "ĠLab": 6863,
      "ĠKar": 6864,
      "inally": 6865,
      "rection": 6866,
      "Ġpal": 6867,
      "Ġentity": 6868,
      "asy": 6869,
      "Ġpull": 6870,
      "merce": 6871,
      "ĠAssist": 6872,
      "Us": 6873,
      "ĠFull": 6874,
      "Ġfamiliar": 6875,
      "Ġretail": 6876,
      "ĠManager": 6877,
      "Ġpush": 6878,
      "utch": 6879,
      "ipt": 6880,
      "Ġimmediate": 6881,
      "Ġcomponent": 6882,
      "Ġfurn": 6883,
      "ĠIss": 6884,
      "ceived": 6885,
      "Ġcolumn": 6886,
      "First": 6887,
      "Ġalle": 6888,
      "HS": 6889,
      "Ġextension": 6890,
      "look": 6891,
      "Ġintegrated": 6892,
      "Ġunable": 6893,
      "Ġtypical": 6894,
      "Ġargument": 6895,
      "Ġoperated": 6896,
      "ĠConst": 6897,
      "othy": 6898,
      "Ġflag": 6899,
      "Ġmonitoring": 6900,
      "Ġstores": 6901,
      "Ġurban": 6902,
      "aning": 6903,
      "ighter": 6904,
      "Ġneighborhood": 6905,
      "bel": 6906,
      "ĠEs": 6907,
      "Ġyield": 6908,
      "Ġslightly": 6909,
      "class": 6910,
      "ether": 6911,
      "Ġmotiv": 6912,
      "ani": 6913,
      "Ġben": 6914,
      "Ġdispos": 6915,
      "Ġrevenue": 6916,
      "Ġroads": 6917,
      "Ġoutstanding": 6918,
      "chers": 6919,
      "Ġath": 6920,
      "Ġoffices": 6921,
      "ĠEastern": 6922,
      "Ġvotes": 6923,
      "urric": 6924,
      "Ġfill": 6925,
      "ĠOregon": 6926,
      "ĠCapt": 6927,
      "Ġvert": 6928,
      "Ġbiggest": 6929,
      "Why": 6930,
      "Ġcoupl": 6931,
      "ĠSP": 6932,
      "ati": 6933,
      "ĠDig": 6934,
      "Ġintellect": 6935,
      "Ġafford": 6936,
      "ĠJenn": 6937,
      "ĠScient": 6938,
      "ĠBack": 6939,
      "ilton": 6940,
      "ĠAllen": 6941,
      "Ġstudied": 6942,
      "iscal": 6943,
      "Ġinner": 6944,
      "friend": 6945,
      "ĠStation": 6946,
      "Ġprogramming": 6947,
      "Ġcritic": 6948,
      "ignment": 6949,
      "Ġjump": 6950,
      "ĠClick": 6951,
      "ĠDC": 6952,
      "Ġsuggested": 6953,
      "ĠAccess": 6954,
      "ĠFestival": 6955,
      "Ġarrest": 6956,
      "illy": 6957,
      "Ġoperate": 6958,
      "Ġarray": 6959,
      "edu": 6960,
      "Ġfacilit": 6961,
      "shire": 6962,
      "adelphia": 6963,
      "box": 6964,
      "ĠConnect": 6965,
      "Ġzone": 6966,
      "Ġtopic": 6967,
      "SS": 6968,
      "Ġelectro": 6969,
      "Ġuncertain": 6970,
      "lines": 6971,
      "Ġdry": 6972,
      "Int": 6973,
      "fe": 6974,
      "ĠCrit": 6975,
      "rete": 6976,
      "Ġvulner": 6977,
      "Ġdiscrimination": 6978,
      "new": 6979,
      "Ġpractical": 6980,
      "Ġstands": 6981,
      "Ġgeneal": 6982,
      "ĠStaff": 6983,
      "Ġseemed": 6984,
      "Ġmal": 6985,
      "Ġdiam": 6986,
      "Ġearn": 6987,
      "Ġfalse": 6988,
      "ĠDev": 6989,
      "Ġturns": 6990,
      "ĠAT": 6991,
      "Ġmand": 6992,
      "Ġelectron": 6993,
      "ĠBudd": 6994,
      "Ġsmart": 6995,
      "antly": 6996,
      "opher": 6997,
      "His": 6998,
      "Ġsurvival": 6999,
      "Ġalgorith": 7000,
      "istical": 7001,
      "hall": 7002,
      "Ġupdate": 7003,
      "Ġconsumers": 7004,
      "Ġmembership": 7005,
      "ursing": 7006,
      "Ġnephews": 7007,
      "Ġsad": 7008,
      "Ġapproval": 7009,
      "Pe": 7010,
      "Ġparticipate": 7011,
      "rics": 7012,
      "ippi": 7013,
      "Ġetymology": 7014,
      "rin": 7015,
      "ĠUse": 7016,
      "ĠMah": 7017,
      "Ġrein": 7018,
      "Ġcommunications": 7019,
      "thew": 7020,
      "Ġassigned": 7021,
      "Ġchairman": 7022,
      "sect": 7023,
      "Ġcovers": 7024,
      "ca": 7025,
      "Ġmarg": 7026,
      "Ġstored": 7027,
      "ĠOR": 7028,
      "Ġfigures": 7029,
      "Ġlinear": 7030,
      "ĠHim": 7031,
      "ĠNature": 7032,
      "ĠIrish": 7033,
      "Oct": 7034,
      "Ġlegislation": 7035,
      "Ġgar": 7036,
      "after": 7037,
      "osm": 7038,
      "Ġauthorities": 7039,
      "Ġrepeated": 7040,
      "anna": 7041,
      "wing": 7042,
      "ĠEnvironmental": 7043,
      "Ġreject": 7044,
      "ĠAnnual": 7045,
      "Ġrd": 7046,
      "En": 7047,
      "Ġrestrict": 7048,
      "ĠSem": 7049,
      "ĠPa": 7050,
      "race": 7051,
      "Ġstability": 7052,
      "sem": 7053,
      "ĠSC": 7054,
      "ĠLog": 7055,
      "ba": 7056,
      "ĠTwitter": 7057,
      "ĠSprings": 7058,
      "ĠDate": 7059,
      "',": 7060,
      "Ġcollected": 7061,
      "Ġcontained": 7062,
      "inners": 7063,
      "ATE": 7064,
      "Ġbroken": 7065,
      "Ġbiograph": 7066,
      "Ġacts": 7067,
      "Ġapproaches": 7068,
      "ĠHunt": 7069,
      "graduate": 7070,
      "Ġtelevision": 7071,
      "Ġunlike": 7072,
      "Ġphenomen": 7073,
      "ĠSteve": 7074,
      "Ġlabel": 7075,
      "coh": 7076,
      "gers": 7077,
      "ĠCommon": 7078,
      "unning": 7079,
      "rix": 7080,
      "elled": 7081,
      "ĠSeries": 7082,
      "Ġsav": 7083,
      "ĠPen": 7084,
      "ĠNatural": 7085,
      "ĠOrder": 7086,
      "Ġdevoted": 7087,
      "ĠItalian": 7088,
      "ĠBa": 7089,
      "ĠKim": 7090,
      "Ġmurder": 7091,
      "ici": 7092,
      "Ġacquired": 7093,
      "ads": 7094,
      "Ġsupposed": 7095,
      "Ġcous": 7096,
      "Ġagent": 7097,
      "Ġcontemporary": 7098,
      "Ġhair": 7099,
      "Ġcab": 7100,
      "ĠConstitution": 7101,
      "Ġpatterns": 7102,
      "angel": 7103,
      "Of": 7104,
      "Ġbatter": 7105,
      "icity": 7106,
      "ĠRout": 7107,
      "ĠOlymp": 7108,
      "Ġpair": 7109,
      "Ġimproving": 7110,
      "Ġappoint": 7111,
      "ĠAlexander": 7112,
      "ta": 7113,
      "Ġscene": 7114,
      "AND": 7115,
      "Ġorders": 7116,
      "burgh": 7117,
      "anes": 7118,
      "Ġkinds": 7119,
      "Ġsequence": 7120,
      "uous": 7121,
      "ĠSpain": 7122,
      "ĠPot": 7123,
      "Ġexplan": 7124,
      "ĠYet": 7125,
      "ĠExt": 7126,
      "Ġrepair": 7127,
      "EA": 7128,
      "flow": 7129,
      "Ġroute": 7130,
      "Ġdiversity": 7131,
      "ĠBon": 7132,
      "Ġjudgment": 7133,
      "Ġtwice": 7134,
      "Ġattribut": 7135,
      "ĠName": 7136,
      "Ġdiseases": 7137,
      "ĠChange": 7138,
      ".]": 7139,
      "Ġinstallation": 7140,
      "Ġpione": 7141,
      "icial": 7142,
      "oned": 7143,
      "ĠPR": 7144,
      "Ġmix": 7145,
      "Ġgro": 7146,
      "ĠBh": 7147,
      "ĠPers": 7148,
      "Ġpossibility": 7149,
      "Ġera": 7150,
      "Ġsearc": 7151,
      "Ġimprovement": 7152,
      "ascular": 7153,
      "Ġbiology": 7154,
      "uts": 7155,
      "front": 7156,
      "ĠTree": 7157,
      "ĠFalls": 7158,
      "ĠSav": 7159,
      "osure": 7160,
      "Ġaccident": 7161,
      "ublished": 7162,
      "Ġlect": 7163,
      "Ġattached": 7164,
      "lock": 7165,
      "Ġpotentially": 7166,
      "rat": 7167,
      "ĠLight": 7168,
      "iors": 7169,
      "throp": 7170,
      "prene": 7171,
      "ĠAllah": 7172,
      "quest": 7173,
      "Ġkingdom": 7174,
      "eties": 7175,
      "Ġnieces": 7176,
      "Let": 7177,
      "Ġcatch": 7178,
      "ĠGuide": 7179,
      "Ġreprodu": 7180,
      "ĠArizona": 7181,
      "grade": 7182,
      "Ġrough": 7183,
      "Ġsacr": 7184,
      "Ġteen": 7185,
      "otal": 7186,
      "ĠPass": 7187,
      "ĠPerson": 7188,
      "Ġprotected": 7189,
      "ĠNeb": 7190,
      "owned": 7191,
      "ĠNon": 7192,
      "Ġtub": 7193,
      "Over": 7194,
      "Ġindicates": 7195,
      "reprene": 7196,
      "ĠFed": 7197,
      "Ġultimately": 7198,
      "ĠAnne": 7199,
      "Ġplanned": 7200,
      "vard": 7201,
      "uma": 7202,
      "ĠMess": 7203,
      "Ġgall": 7204,
      "ĠTurn": 7205,
      "ĠSir": 7206,
      "Ġprecise": 7207,
      "Ġcm": 7208,
      "ospel": 7209,
      "iser": 7210,
      "Ġoccasion": 7211,
      "ennis": 7212,
      "Ġbrings": 7213,
      "Ġbarri": 7214,
      "Ġreturns": 7215,
      "ĠKnow": 7216,
      "Ġroots": 7217,
      "issippi": 7218,
      "agement": 7219,
      "Ġlose": 7220,
      "ĠVeter": 7221,
      "Ġwait": 7222,
      "Ġconsumer": 7223,
      "Ġanswers": 7224,
      "Ġrecognize": 7225,
      "BM": 7226,
      "Ġintroduction": 7227,
      "Ġdesired": 7228,
      "Ġexcess": 7229,
      "Ġincreasingly": 7230,
      "ĠYouth": 7231,
      "ĠHard": 7232,
      "Ġfee": 7233,
      "Ġforever": 7234,
      "Ġsheet": 7235,
      "NS": 7236,
      "ensed": 7237,
      "Ġprinciple": 7238,
      "Ġwine": 7239,
      "Ġoldest": 7240,
      "acher": 7241,
      "ĠAnth": 7242,
      "Ġbringing": 7243,
      "ĠRus": 7244,
      "ĠFOR": 7245,
      "ĠVill": 7246,
      "ĠÂ§": 7247,
      "Ġ(\"": 7248,
      "Ġplays": 7249,
      "Ġtransition": 7250,
      "ĠDown": 7251,
      "adow": 7252,
      "Ġvice": 7253,
      "Ġfunctional": 7254,
      "ĠVice": 7255,
      "da": 7256,
      "Ġplot": 7257,
      "Ġtrig": 7258,
      "Ġfighting": 7259,
      "lets": 7260,
      "Ġballot": 7261,
      "uzz": 7262,
      "Ġmental": 7263,
      "lahoma": 7264,
      "gments": 7265,
      "Ġconstit": 7266,
      "aks": 7267,
      "rus": 7268,
      "BT": 7269,
      "abama": 7270,
      "Ġofficiating": 7271,
      "Go": 7272,
      "was": 7273,
      "Ġscheduled": 7274,
      "Ġid": 7275,
      "ĠArticle": 7276,
      "sm": 7277,
      "Ġboys": 7278,
      "eller": 7279,
      "ĠDrive": 7280,
      "ĠLu": 7281,
      "ĠFil": 7282,
      "apping": 7283,
      "Ġdisput": 7284,
      "ĠTeam": 7285,
      "Ġbehalf": 7286,
      "Ġrealize": 7287,
      "Ġreducing": 7288,
      "hetic": 7289,
      "PC": 7290,
      "including": 7291,
      "Ġcouldn": 7292,
      "aints": 7293,
      "Ġundert": 7294,
      "Ġacceler": 7295,
      "ĠPrinc": 7296,
      "Ġconstitution": 7297,
      "Ġparagraph": 7298,
      "Ġsubstantial": 7299,
      "zil": 7300,
      "ĠHay": 7301,
      "Ġparking": 7302,
      "Ġexplains": 7303,
      "Ġinvited": 7304,
      "Ġarts": 7305,
      "lections": 7306,
      "ĠOcean": 7307,
      "itative": 7308,
      "Ġaccessible": 7309,
      "Ġcompliance": 7310,
      "Ġsought": 7311,
      "rine": 7312,
      "ĠHistorical": 7313,
      "Ġmo": 7314,
      "Ġmessages": 7315,
      "ocated": 7316,
      "ĠMarri": 7317,
      "Ġadding": 7318,
      "Ġcommonly": 7319,
      "rell": 7320,
      "ĠBuilding": 7321,
      "ĠLawrence": 7322,
      "Ġbelieves": 7323,
      "ĠEnt": 7324,
      "plant": 7325,
      "ĠThree": 7326,
      "person": 7327,
      "Ġmusical": 7328,
      "Ġring": 7329,
      "Ġengage": 7330,
      "Ġuniversal": 7331,
      "''": 7332,
      "isdom": 7333,
      "Ġsurf": 7334,
      "Ġestimate": 7335,
      "rovers": 7336,
      "Ġexamine": 7337,
      "ĠAge": 7338,
      "bal": 7339,
      "http": 7340,
      "Ġnob": 7341,
      "ĠTownship": 7342,
      "ĠEmer": 7343,
      "ĠSchol": 7344,
      "Ġtowns": 7345,
      "ĠISBN": 7346,
      "ĠON": 7347,
      "Ġahead": 7348,
      "Ġfant": 7349,
      "osexual": 7350,
      "ups": 7351,
      "Ġspoke": 7352,
      "ĠDiego": 7353,
      "Ġmouth": 7354,
      "ĠCell": 7355,
      "mes": 7356,
      "Ġstring": 7357,
      "IST": 7358,
      "Ġkit": 7359,
      "Ġmerch": 7360,
      "Ġtables": 7361,
      "cycl": 7362,
      "Every": 7363,
      "ĠMinister": 7364,
      "ĠPhiladelphia": 7365,
      "Ġstreets": 7366,
      "umes": 7367,
      "igious": 7368,
      "riculum": 7369,
      "Ġworship": 7370,
      "pay": 7371,
      "arts": 7372,
      "ĠWrit": 7373,
      "ĠChris": 7374,
      "enger": 7375,
      "aver": 7376,
      "Ġplural": 7377,
      "Ġsky": 7378,
      "ĠCle": 7379,
      "ĠQueen": 7380,
      "Ġdecide": 7381,
      "ila": 7382,
      "ĠHand": 7383,
      "pton": 7384,
      "Ġconstructed": 7385,
      "foot": 7386,
      "ĠHeart": 7387,
      "Ġstrongly": 7388,
      "Ġconj": 7389,
      "Ġhem": 7390,
      "UL": 7391,
      "plete": 7392,
      "Ġprohib": 7393,
      "ĠViet": 7394,
      "Ġtherm": 7395,
      "ĠAve": 7396,
      "elve": 7397,
      "zer": 7398,
      "Ġtemperatures": 7399,
      "Ġmachines": 7400,
      "Ġqualified": 7401,
      "Copyright": 7402,
      "ĠAwards": 7403,
      "Ġtumors": 7404,
      "ĠCase": 7405,
      "ĠBroad": 7406,
      "ĠAnother": 7407,
      "Ġdivided": 7408,
      "Ġreplaced": 7409,
      "Ġreact": 7410,
      "Ġindicated": 7411,
      "eman": 7412,
      "she": 7413,
      "ĠLike": 7414,
      "ĠTraining": 7415,
      "Ġsweet": 7416,
      "Can": 7417,
      "ĠChristians": 7418,
      "Ġmuseum": 7419,
      "Ġwrites": 7420,
      "usalem": 7421,
      "Ġrefers": 7422,
      "ALL": 7423,
      "Ġrul": 7424,
      "Ġhaven": 7425,
      "xx": 7426,
      "QL": 7427,
      "Ġclock": 7428,
      "Ġequivalent": 7429,
      "Ġfruit": 7430,
      "ĠPalest": 7431,
      "Ġalb": 7432,
      "Mem": 7433,
      "icide": 7434,
      "eper": 7435,
      "Ġreasonable": 7436,
      "Ġmanif": 7437,
      "Ġrequests": 7438,
      "Ġprovisions": 7439,
      "PL": 7440,
      "Ġaccomplish": 7441,
      "Ġvariations": 7442,
      "ĠPrize": 7443,
      "Ġdomestic": 7444,
      "real": 7445,
      "Ġscope": 7446,
      "ĠSupreme": 7447,
      "Ġimplemented": 7448,
      "Ġestimates": 7449,
      "Ġschedule": 7450,
      "Ġbiological": 7451,
      "Ġ---": 7452,
      "ART": 7453,
      "Ġclar": 7454,
      "Aug": 7455,
      "ĠMississippi": 7456,
      "isk": 7457,
      "ĠRest": 7458,
      "ĠOs": 7459,
      "acc": 7460,
      "asp": 7461,
      "Ġprinted": 7462,
      "ĠLyn": 7463,
      "orses": 7464,
      "Ġchain": 7465,
      "Ġbuff": 7466,
      "ĠAdam": 7467,
      "ĠNorm": 7468,
      "alo": 7469,
      "ĠSign": 7470,
      "jection": 7471,
      "pd": 7472,
      "Ġlens": 7473,
      "Ġpanel": 7474,
      "ĠLeague": 7475,
      "Ġcarrier": 7476,
      "ĠChild": 7477,
      "Ġphr": 7478,
      "Another": 7479,
      "Ġmaintaining": 7480,
      "Ġmechanisms": 7481,
      "Ġenroll": 7482,
      "ĠÂ»": 7483,
      "rog": 7484,
      "Ġcomprising": 7485,
      "Ġimprovements": 7486,
      "bing": 7487,
      "isa": 7488,
      "ĠExper": 7489,
      "Ġprox": 7490,
      "ĠThanks": 7491,
      "Ġremove": 7492,
      "Ġhandle": 7493,
      "ĠHawai": 7494,
      "ĠNations": 7495,
      "Ġcelebration": 7496,
      "imens": 7497,
      "Ġdiabetes": 7498,
      "pm": 7499,
      "Ġconfident": 7500,
      "Ġtor": 7501,
      "ĠCra": 7502,
      "Car": 7503,
      "ĠWhit": 7504,
      "SE": 7505,
      "Ġrespective": 7506,
      "ĠGuard": 7507,
      "ĠBarbara": 7508,
      "Ġwriters": 7509,
      "Ġabsence": 7510,
      "ĠLow": 7511,
      "ĠProper": 7512,
      "EST": 7513,
      "ĠAnna": 7514,
      "Ġships": 7515,
      "Ġcenturies": 7516,
      "Ġeastern": 7517,
      "ĠKingdom": 7518,
      "Ġchemistry": 7519,
      "ĠSaint": 7520,
      "Ġnearby": 7521,
      "ĠAtlantic": 7522,
      "ĠOfficer": 7523,
      "Ġalive": 7524,
      "organ": 7525,
      "ampions": 7526,
      "Ġblow": 7527,
      "ĠRam": 7528,
      "Ġwarming": 7529,
      "Ġexperimental": 7530,
      "erts": 7531,
      "Ġ(%": 7532,
      "asant": 7533,
      "Ġtexts": 7534,
      "Ġesc": 7535,
      "Ġconnections": 7536,
      "Ġdirectors": 7537,
      "host": 7538,
      "ĠPo": 7539,
      "Ġrid": 7540,
      "miss": 7541,
      "uties": 7542,
      "Ġgovernments": 7543,
      "avor": 7544,
      "Ġvoted": 7545,
      "Ġconcert": 7546,
      "Ġvictims": 7547,
      "Ġdrawn": 7548,
      "Ġmovie": 7549,
      "Ġhardware": 7550,
      "Ġsession": 7551,
      "Ġassociate": 7552,
      "ĠOklahoma": 7553,
      "erald": 7554,
      "ĠMission": 7555,
      "Ġmechanical": 7556,
      "ĠNob": 7557,
      "rank": 7558,
      "esterday": 7559,
      "oking": 7560,
      "Ġtaxes": 7561,
      "ĠPak": 7562,
      "raction": 7563,
      "Ġmine": 7564,
      "Today": 7565,
      "Ġcreates": 7566,
      "Ġtiny": 7567,
      "Surv": 7568,
      "Ġenforcement": 7569,
      "Ġregul": 7570,
      "ĠHighway": 7571,
      "Ġmilk": 7572,
      "Ġparameters": 7573,
      "ĠSusan": 7574,
      "Ġunemployment": 7575,
      "Ġsubsequent": 7576,
      "ĠScotland": 7577,
      "ctic": 7578,
      "\")": 7579,
      "ĠAnton": 7580,
      "Ġinspired": 7581,
      "ĠMult": 7582,
      "ĠHarry": 7583,
      "ners": 7584,
      "ums": 7585,
      "Ġpermission": 7586,
      "Ġcontribution": 7587,
      "Ġsoil": 7588,
      "Ġcited": 7589,
      "Pre": 7590,
      "Ġfaster": 7591,
      "Ġattorney": 7592,
      "Ġseed": 7593,
      "irms": 7594,
      "ĠPerform": 7595,
      "ĠUtah": 7596,
      "Ġselling": 7597,
      "Ġgrass": 7598,
      "Ġunus": 7599,
      "wan": 7600,
      "Ġinches": 7601,
      "Ġaddresses": 7602,
      "def": 7603,
      "orters": 7604,
      "ĠÂ°": 7605,
      "ĠSom": 7606,
      "Ġcertificate": 7607,
      "cons": 7608,
      "Ġclaimed": 7609,
      "ĠAlabama": 7610,
      "esis": 7611,
      "Ne": 7612,
      "ygen": 7613,
      "Ġtick": 7614,
      "./": 7615,
      "rary": 7616,
      "Ġcheese": 7617,
      "Ġsearchable": 7618,
      "Ġvisible": 7619,
      "Tra": 7620,
      "Ġdepart": 7621,
      "using": 7622,
      "ĠNOT": 7623,
      "Ġinvolving": 7624,
      "Ġexception": 7625,
      "Ġsituations": 7626,
      "Ġcenters": 7627,
      "ĠSupport": 7628,
      "Ġmerely": 7629,
      "ĠLeon": 7630,
      "==": 7631,
      "Ġmodified": 7632,
      "Ġelectricity": 7633,
      "Ġrig": 7634,
      "Ġreporting": 7635,
      "Ġtail": 7636,
      "Ġhath": 7637,
      "ĠDeath": 7638,
      "ĠPit": 7639,
      "ĠPast": 7640,
      "ressive": 7641,
      "Ġcapture": 7642,
      "ĠEmp": 7643,
      "Ġsaved": 7644,
      "ĠRail": 7645,
      "ĠMaine": 7646,
      "ĠWeek": 7647,
      "inction": 7648,
      "Her": 7649,
      "Ġframework": 7650,
      "Ġveterans": 7651,
      "Ġsight": 7652,
      "owntown": 7653,
      "aturally": 7654,
      "ĠRos": 7655,
      "ĠHom": 7656,
      "Ġproviders": 7657,
      "Ġexternal": 7658,
      "Ġvisited": 7659,
      "ĠJerusalem": 7660,
      "Ġhole": 7661,
      "ĠBru": 7662,
      "Ġaband": 7663,
      "Ġinfection": 7664,
      "Ġapplicant": 7665,
      "uction": 7666,
      "Ġroot": 7667,
      "ulpt": 7668,
      "ĠInn": 7669,
      "Ġfold": 7670,
      "iro": 7671,
      "elson": 7672,
      "ĠLearning": 7673,
      "Ġapart": 7674,
      "don": 7675,
      "Ġparticles": 7676,
      "Ġpit": 7677,
      "Ġstood": 7678,
      "bar": 7679,
      "Ġresulted": 7680,
      "ĠExpl": 7681,
      "El": 7682,
      "Ġcomposition": 7683,
      "Ġphotographs": 7684,
      "ĠVA": 7685,
      "Ġconsideration": 7686,
      "Ġvent": 7687,
      "Ġinsight": 7688,
      "Ġtheme": 7689,
      "Ġrelation": 7690,
      "Also": 7691,
      "Ġrapidly": 7692,
      "Ġsuit": 7693,
      "Ġbroadcast": 7694,
      "Ġforget": 7695,
      "ĠWat": 7696,
      "ĠHart": 7697,
      "Man": 7698,
      "Ġpermit": 7699,
      "just": 7700,
      "Ġvolunteer": 7701,
      "Ġbranch": 7702,
      "Ġsupplies": 7703,
      "Ġmathematics": 7704,
      "Ġedit": 7705,
      "ĠPay": 7706,
      "ĠLocal": 7707,
      "!\"": 7708,
      "Ġexpanded": 7709,
      "ĠPanel": 7710,
      "Ġconfirmed": 7711,
      "hire": 7712,
      "ĠSr": 7713,
      "Ġdesignated": 7714,
      "ĠCustom": 7715,
      "Ġancestors": 7716,
      "Ġassets": 7717,
      "Ġhonest": 7718,
      "ĠMembers": 7719,
      "Ġauthent": 7720,
      "ĠMarket": 7721,
      "ĠIC": 7722,
      "Ġsimulation": 7723,
      "town": 7724,
      "Ġrepresenting": 7725,
      "ĠUsing": 7726,
      "ĠRevolution": 7727,
      "ĠStudent": 7728,
      "ĠSenior": 7729,
      "Ġideal": 7730,
      "Ġparticipation": 7731,
      "inator": 7732,
      "ĠAC": 7733,
      "Ġhoriz": 7734,
      "Ġexpressed": 7735,
      "Ġsecondary": 7736,
      "Ġweekend": 7737,
      "Ġloop": 7738,
      "Ġexpertise": 7739,
      "ĠArchives": 7740,
      "cover": 7741,
      "Ġouter": 7742,
      "ĠInstead": 7743,
      "ĠPeace": 7744,
      "Ġven": 7745,
      "cific": 7746,
      "Ġimpossible": 7747,
      "Ġdefine": 7748,
      "Ġsevent": 7749,
      "raham": 7750,
      "covery": 7751,
      "Ġfounder": 7752,
      "Ġrelating": 7753,
      "ĠPolice": 7754,
      "vy": 7755,
      "ĠPDF": 7756,
      "Ġzero": 7757,
      "Ġadjacent": 7758,
      "Ġliquid": 7759,
      "Ġroles": 7760,
      "Ġgrandfather": 7761,
      "Ġproposals": 7762,
      "Ġcogn": 7763,
      "ardens": 7764,
      "ĠNancy": 7765,
      "Ġille": 7766,
      "Ġobjectives": 7767,
      "you": 7768,
      "Ġabsor": 7769,
      "ĠLtd": 7770,
      "Ġexec": 7771,
      "ĠWorks": 7772,
      "ĠAh": 7773,
      "Ġveget": 7774,
      "Ġsport": 7775,
      "aked": 7776,
      "Ġhighlight": 7777,
      "Ġwaiting": 7778,
      "Sec": 7779,
      "ĠGet": 7780,
      "Ġbomb": 7781,
      "Ġinstruct": 7782,
      "berts": 7783,
      "never": 7784,
      "utation": 7785,
      "ĠClimate": 7786,
      "Ġpronunciation": 7787,
      "aratus": 7788,
      "Ġteams": 7789,
      "iated": 7790,
      "Ġtrends": 7791,
      "ESS": 7792,
      "Ġflo": 7793,
      "ĠKat": 7794,
      "Ġerrors": 7795,
      "ĠWy": 7796,
      "ĠCreat": 7797,
      "Dav": 7798,
      "called": 7799,
      "cohol": 7800,
      "Ġlaid": 7801,
      "Ġcontrovers": 7802,
      "ĠHoward": 7803,
      "ibraries": 7804,
      "Ġinteractive": 7805,
      "Ġvessels": 7806,
      "iot": 7807,
      "Ġfraud": 7808,
      "ĠCro": 7809,
      "Ġdemonstrate": 7810,
      "ĠStudents": 7811,
      "aft": 7812,
      "Ġcriminal": 7813,
      "EF": 7814,
      "||||": 7815,
      "umer": 7816,
      "Ġsomewhat": 7817,
      "orne": 7818,
      "William": 7819,
      "olly": 7820,
      "ĠAsian": 7821,
      "sen": 7822,
      "Ġcemetery": 7823,
      "Ġboards": 7824,
      "fall": 7825,
      "ĠRod": 7826,
      "vity": 7827,
      "Ġca": 7828,
      "Ġrestaurant": 7829,
      "ĠArm": 7830,
      "Ġtested": 7831,
      "Mod": 7832,
      "icious": 7833,
      "Ġprominent": 7834,
      "pany": 7835,
      "Ġformerly": 7836,
      "Ġgrandmother": 7837,
      "ĠCost": 7838,
      "Ġtrials": 7839,
      "ĠTax": 7840,
      "roid": 7841,
      "eterm": 7842,
      "ait": 7843,
      "ĠSafety": 7844,
      "Ġapplicable": 7845,
      "Ġanalyz": 7846,
      "Ġdivorce": 7847,
      "acts": 7848,
      "Ġmarks": 7849,
      "night": 7850,
      "Ġinstruction": 7851,
      "ĠAL": 7852,
      "ĠIndepend": 7853,
      "Ġputting": 7854,
      "Ġexperiment": 7855,
      "ĠAdvis": 7856,
      "words": 7857,
      "Ġdonations": 7858,
      "ternoon": 7859,
      "oval": 7860,
      "Ġidentification": 7861,
      "ĠFord": 7862,
      "onym": 7863,
      "Ġoutcomes": 7864,
      "ditionally": 7865,
      "Ġminim": 7866,
      "Ġthirty": 7867,
      "Ġathlet": 7868,
      "Ġbiographies": 7869,
      "Ġdiagnosis": 7870,
      "ĠGreg": 7871,
      "ĠAfghanistan": 7872,
      "Then": 7873,
      "Ġsurvive": 7874,
      "Ġrising": 7875,
      "Ġstudying": 7876,
      "Ġgender": 7877,
      "Ġpriority": 7878,
      "Ġcomposed": 7879,
      "Ġshock": 7880,
      "ĠGovernor": 7881,
      "ĠTable": 7882,
      "Ġwouldn": 7883,
      "jamin": 7884,
      "ĠSet": 7885,
      "ĠLORD": 7886,
      "Ġru": 7887,
      "Ġattempts": 7888,
      "Ġhunting": 7889,
      "ĠRegional": 7890,
      "ĠFriends": 7891,
      "Ġbran": 7892,
      "ĠServer": 7893,
      ".:": 7894,
      "AF": 7895,
      "page": 7896,
      "ested": 7897,
      "Ġthereof": 7898,
      "Ġarchitecture": 7899,
      "Ġwithd": 7900,
      "ĠMathemat": 7901,
      "Ġabstract": 7902,
      "ĠSwed": 7903,
      "Ġstruggle": 7904,
      "car": 7905,
      "Ġsusp": 7906,
      "Ġpassage": 7907,
      "Ġantib": 7908,
      "ĠBall": 7909,
      "Ġprophe": 7910,
      "ĠWord": 7911,
      "Ġperiods": 7912,
      "ĠStandard": 7913,
      "Per": 7914,
      "Ġcontributed": 7915,
      "ĠFranklin": 7916,
      "dy": 7917,
      "Ġpreparation": 7918,
      "Ġadequ": 7919,
      "Ġworse": 7920,
      "Ġwatching": 7921,
      "Ġprovider": 7922,
      "Ġenthus": 7923,
      "Ġpowers": 7924,
      "Ġquiet": 7925,
      "Ġwet": 7926,
      "ĠMs": 7927,
      "Ġcapabilities": 7928,
      "Ġremind": 7929,
      "Â·": 7930,
      "uten": 7931,
      "anger": 7932,
      "Ġfiction": 7933,
      "MC": 7934,
      "ĠEric": 7935,
      "ogether": 7936,
      "Ġspeaking": 7937,
      "ĠMoore": 7938,
      "Just": 7939,
      "ĠConc": 7940,
      "ĠHeritage": 7941,
      "Ġboat": 7942,
      "pers": 7943,
      "Ġestablishment": 7944,
      "mod": 7945,
      "Ġreviews": 7946,
      "vation": 7947,
      "Ġchoices": 7948,
      "ĠHarris": 7949,
      "chestra": 7950,
      "ĠCat": 7951,
      "omas": 7952,
      "Ġdispl": 7953,
      "Ġsynd": 7954,
      "iner": 7955,
      "ridges": 7956,
      "Ġgarden": 7957,
      "Ġstatistics": 7958,
      "Ġaddressed": 7959,
      "ĠMu": 7960,
      "Ġdepth": 7961,
      "Ġgalaxies": 7962,
      "Ġbes": 7963,
      "EG": 7964,
      "Ġwed": 7965,
      "Ġdance": 7966,
      "ĠTheatre": 7967,
      "Ġmystery": 7968,
      "ĠBrand": 7969,
      "Ġfeatured": 7970,
      "Ġaudit": 7971,
      "ĠShow": 7972,
      "Ġconfirm": 7973,
      "UC": 7974,
      "aug": 7975,
      "Ġcompensation": 7976,
      "Ġprompt": 7977,
      "will": 7978,
      "Ġdensity": 7979,
      "dale": 7980,
      "ĠAccount": 7981,
      "ingham": 7982,
      "making": 7983,
      "Ġcoal": 7984,
      "uality": 7985,
      "Ġparalle": 7986,
      "away": 7987,
      "essions": 7988,
      "icut": 7989,
      "through": 7990,
      "ĠIndex": 7991,
      "Ġdeaths": 7992,
      "ĠOxford": 7993,
      "agan": 7994,
      "ĠBrazil": 7995,
      "Ġwheel": 7996,
      "ĠQur": 7997,
      "ĠMit": 7998,
      "Ġamounts": 7999,
      "Ġhip": 8000,
      "Ġlaboratory": 8001,
      "ket": 8002,
      "operation": 8003,
      "Ġcomplicated": 8004,
      "ĠCert": 8005,
      "ĠTru": 8006,
      "Ġjur": 8007,
      "Ġacknowled": 8008,
      "Ġinher": 8009,
      "Ġeating": 8010,
      "Christ": 8011,
      "Ġdisch": 8012,
      "Ġmovements": 8013,
      "criptions": 8014,
      "Ġfinish": 8015,
      "ĠBrother": 8016,
      "Ġfiscal": 8017,
      "ĠHarvard": 8018,
      "ĠPatrick": 8019,
      "Ġwalking": 8020,
      "Ġprotocol": 8021,
      "gent": 8022,
      "Ġsettings": 8023,
      "ĠPakistan": 8024,
      "Ġlegit": 8025,
      "Ġodd": 8026,
      "ading": 8027,
      "Ġcelebrated": 8028,
      "ouses": 8029,
      "Ġton": 8030,
      "Ġkil": 8031,
      "Ġchannels": 8032,
      "Ġgifts": 8033,
      "Ġguess": 8034,
      "Ġfacing": 8035,
      "ĠPhot": 8036,
      "Ġlifetime": 8037,
      "ĠNote": 8038,
      "uscript": 8039,
      "Ġplanets": 8040,
      "Ġboundaries": 8041,
      "Ġpump": 8042,
      "ĠUC": 8043,
      "aith": 8044,
      "Ġnewspaper": 8045,
      "elle": 8046,
      "aware": 8047,
      "Ġorganic": 8048,
      "Ġvan": 8049,
      "Ġintellectual": 8050,
      "ĠHop": 8051,
      "ĠGil": 8052,
      "ĠIsa": 8053,
      "Ġrooms": 8054,
      "Ġemployers": 8055,
      "Ġdollar": 8056,
      "herent": 8057,
      "orous": 8058,
      "BI": 8059,
      "ĠFinancial": 8060,
      "Ġbear": 8061,
      "ĠDemocratic": 8062,
      "Ġcontinuous": 8063,
      "erly": 8064,
      "Ġhearts": 8065,
      "Ġacute": 8066,
      "Ġproteins": 8067,
      "Ġseat": 8068,
      "ĠOpt": 8069,
      "Stud": 8070,
      "inter": 8071,
      "ĠMcG": 8072,
      "Ġvisiting": 8073,
      "Ġcas": 8074,
      "Ġsuffered": 8075,
      "ichol": 8076,
      "ĠZeal": 8077,
      "bound": 8078,
      "ĠRen": 8079,
      "Any": 8080,
      "TC": 8081,
      "Ġsmooth": 8082,
      "ĠUr": 8083,
      "Ġmanagers": 8084,
      "ishers": 8085,
      "iest": 8086,
      "Ġconclusion": 8087,
      "Te": 8088,
      "Ġtransaction": 8089,
      "ĠUnivers": 8090,
      "Ġaer": 8091,
      "Ġrow": 8092,
      "ĠDam": 8093,
      "ĠGree": 8094,
      "books": 8095,
      "Ġcrop": 8096,
      "ĠMember": 8097,
      "ĠBul": 8098,
      "het": 8099,
      "Ġunex": 8100,
      "Ġancestor": 8101,
      "mony": 8102,
      "Ġcutting": 8103,
      "cul": 8104,
      "Ġtitles": 8105,
      "ĠTal": 8106,
      "Ġexamination": 8107,
      "Ġgained": 8108,
      "ĠAmong": 8109,
      "Book": 8110,
      "Ġdeclared": 8111,
      "ultane": 8112,
      "Ġ@": 8113,
      "Ġmac": 8114,
      "Â©": 8115,
      "Ġstead": 8116,
      "Ġwarrant": 8117,
      "Ġexpensive": 8118,
      "Ġmeasured": 8119,
      "Ġreveal": 8120,
      "Ġfix": 8121,
      "Ġlogic": 8122,
      "itar": 8123,
      "ĠHo": 8124,
      "Ġperforming": 8125,
      "ĠCambridge": 8126,
      "ĠMarie": 8127,
      "yles": 8128,
      "Ġguest": 8129,
      "ĠCurrent": 8130,
      "ĠPlace": 8131,
      "Ġmetab": 8132,
      "Ġdoctors": 8133,
      "owed": 8134,
      "awa": 8135,
      "ĠClinton": 8136,
      "Two": 8137,
      "Ġmountains": 8138,
      "Art": 8139,
      "Dep": 8140,
      "Ġdestruction": 8141,
      "ĠPur": 8142,
      "ĠKh": 8143,
      "Ġgrace": 8144,
      "Ġoperator": 8145,
      "Ġsciences": 8146,
      "Ġresidential": 8147,
      "Ġshell": 8148,
      "Ġscore": 8149,
      "ĠCorp": 8150,
      "Ġreward": 8151,
      "Ġvs": 8152,
      "Ġstations": 8153,
      "Ġoutcome": 8154,
      "Ġsearching": 8155,
      "Ġcongreg": 8156,
      "ĠRome": 8157,
      "ĠType": 8158,
      "Ġpleased": 8159,
      "Ġsurname": 8160,
      "ushed": 8161,
      "ĠArthur": 8162,
      "iki": 8163,
      "unicipal": 8164,
      "Ġratio": 8165,
      "Ġupdates": 8166,
      "Ġdraft": 8167,
      ".).": 8168,
      "grad": 8169,
      "ĠSep": 8170,
      "Ġportra": 8171,
      "door": 8172,
      "HA": 8173,
      "Feb": 8174,
      "fts": 8175,
      "Ġproport": 8176,
      "ĠNumber": 8177,
      "Ġspoken": 8178,
      "Ġbonds": 8179,
      "asts": 8180,
      "ĠHills": 8181,
      "ercury": 8182,
      "Ġdemocracy": 8183,
      "Ġreviewed": 8184,
      "ĠVen": 8185,
      "Ġride": 8186,
      "Ġrepresentation": 8187,
      "Ġabsolutely": 8188,
      "ECT": 8189,
      "Ġsurve": 8190,
      "Ġsamples": 8191,
      "ĠMO": 8192,
      "Ġexposed": 8193,
      "Ġcentre": 8194,
      "eping": 8195,
      "Ġhall": 8196,
      "Ġconcepts": 8197,
      "Ġfabric": 8198,
      "ĠMcK": 8199,
      "Ġtrading": 8200,
      "Ġcompletion": 8201,
      "Ġ:,": 8202,
      "ĠDu": 8203,
      "Ġdinner": 8204,
      "Ġhomeless": 8205,
      "Ġversions": 8206,
      "Ġproven": 8207,
      "this": 8208,
      "Ġcloser": 8209,
      "pie": 8210,
      "ko": 8211,
      "Ġcuts": 8212,
      "Ġhonored": 8213,
      "Where": 8214,
      "Ġ`": 8215,
      "Ġanticip": 8216,
      "Ġvictory": 8217,
      "Ġsongs": 8218,
      "Ġdepartments": 8219,
      "olds": 8220,
      "ĠCam": 8221,
      "Ġraising": 8222,
      "Ġtaste": 8223,
      "ĠModel": 8224,
      "Ġreplacement": 8225,
      "Ġrememb": 8226,
      "Ġintelligence": 8227,
      "Ġequally": 8228,
      "Ġvertical": 8229,
      "ching": 8230,
      "Ġfan": 8231,
      "Ġinhib": 8232,
      "ĠLiving": 8233,
      "annel": 8234,
      "ĠZealand": 8235,
      "mont": 8236,
      "athered": 8237,
      "Co": 8238,
      "Ġdocumentation": 8239,
      "Ġthereby": 8240,
      "ĠPract": 8241,
      "ĠDean": 8242,
      "ĠResp": 8243,
      "Ġinstructions": 8244,
      "ĠOnt": 8245,
      "secut": 8246,
      "Ġradical": 8247,
      "ferent": 8248,
      "Ġprevention": 8249,
      "endar": 8250,
      "inf": 8251,
      "Ġregularly": 8252,
      "Ġnutrition": 8253,
      "Ġrequested": 8254,
      "Ġclassic": 8255,
      "vol": 8256,
      "Ġemphasis": 8257,
      "Ġcovering": 8258,
      "iral": 8259,
      "Ġconscious": 8260,
      "Ġcompetitive": 8261,
      "ĠDisc": 8262,
      "Ġsettlement": 8263,
      "elfare": 8264,
      "Ġvolunteers": 8265,
      "],": 8266,
      "Ġshares": 8267,
      "Ġoperational": 8268,
      "Ġcopyright": 8269,
      "heimer": 8270,
      "Comm": 8271,
      "Ġcrucial": 8272,
      "liam": 8273,
      "mouth": 8274,
      "Ġmit": 8275,
      "mm": 8276,
      "istent": 8277,
      "ĠGenealogy": 8278,
      "di": 8279,
      "arly": 8280,
      "annah": 8281,
      "ĠPhD": 8282,
      "Ġcollections": 8283,
      "ĠDirectors": 8284,
      "ĠLic": 8285,
      "ĠMajor": 8286,
      "Ġapparatus": 8287,
      "Ġconservative": 8288,
      "Part": 8289,
      "Ġsilicon": 8290,
      "Ġdefense": 8291,
      "ĠConservation": 8292,
      "Ġwisdom": 8293,
      "ĠWalter": 8294,
      "ĠHig": 8295,
      "Ġdecline": 8296,
      "Ġfans": 8297,
      "Ġdefinitely": 8298,
      "Ġtalks": 8299,
      "Ro": 8300,
      "Wor": 8301,
      "ordan": 8302,
      "ĠProduct": 8303,
      "Ġinitiative": 8304,
      "ĠChairman": 8305,
      "ĠUpd": 8306,
      "Homes": 8307,
      "ĠRadio": 8308,
      "ĠKir": 8309,
      "Ġalter": 8310,
      "Ġstack": 8311,
      "cribe": 8312,
      "Ġturning": 8313,
      "Ġpromise": 8314,
      "ĠTour": 8315,
      "quir": 8316,
      "eton": 8317,
      "Ġpharm": 8318,
      "ĠMatthew": 8319,
      "Ġhelpful": 8320,
      "Ġsitting": 8321,
      "Ġafternoon": 8322,
      "ĠSoft": 8323,
      "Ġbeer": 8324,
      "ima": 8325,
      "ĠHeb": 8326,
      "uits": 8327,
      "ĠConvention": 8328,
      "Ġwindow": 8329,
      "Ġgent": 8330,
      "eland": 8331,
      "ĠRoute": 8332,
      "ĠYes": 8333,
      "Ġplane": 8334,
      "Ġfilms": 8335,
      "lights": 8336,
      "ĠEstate": 8337,
      "CD": 8338,
      "ournals": 8339,
      "Ġaccuracy": 8340,
      "azon": 8341,
      "Ġpayments": 8342,
      "ĠPrice": 8343,
      "Ġpackage": 8344,
      "Ġtrouble": 8345,
      "ĠFL": 8346,
      "Ġcurriculum": 8347,
      "Ġveteran": 8348,
      "Ġmainly": 8349,
      "ffee": 8350,
      "Ġlegend": 8351,
      "Ġskill": 8352,
      "ĠTitle": 8353,
      "Ġdefect": 8354,
      "Ġcaught": 8355,
      "Ġsignature": 8356,
      "ĠKorea": 8357,
      "ĠAffairs": 8358,
      "Ġbatt": 8359,
      "ĠProcess": 8360,
      "ĠCop": 8361,
      "Ġlung": 8362,
      "Ġpublications": 8363,
      "Ġthorough": 8364,
      "apolis": 8365,
      "oding": 8366,
      "Ġessentially": 8367,
      "lie": 8368,
      "ployed": 8369,
      "ĠJefferson": 8370,
      "Ġencouraged": 8371,
      "ĠLaboratory": 8372,
      "Ġbeat": 8373,
      "ĠAction": 8374,
      "ĠBrian": 8375,
      "Ġrepresentatives": 8376,
      "Ġ_": 8377,
      "Ġplastic": 8378,
      "requ": 8379,
      "Ġinteractions": 8380,
      "operative": 8381,
      "Ġdust": 8382,
      "owship": 8383,
      "ĠGarden": 8384,
      "Ġobservations": 8385,
      "Ġdisorders": 8386,
      "Ġcomparison": 8387,
      "Ġreliable": 8388,
      "heric": 8389,
      "ĠLi": 8390,
      "Ġwars": 8391,
      "ĠLes": 8392,
      "Ġsilver": 8393,
      "Ġbranches": 8394,
      "boro": 8395,
      "Ġswim": 8396,
      "orph": 8397,
      "Ġft": 8398,
      "Ġscan": 8399,
      "Ġemotional": 8400,
      "ĠNO": 8401,
      "Ġdepending": 8402,
      "ao": 8403,
      "ĠStock": 8404,
      "Ġdiscussions": 8405,
      "Ġelections": 8406,
      "Ġexplo": 8407,
      "weight": 8408,
      "Ġparks": 8409,
      "Ġresid": 8410,
      "Ġending": 8411,
      "Ġinnovation": 8412,
      "fortunately": 8413,
      "Ġsplit": 8414,
      "ĠDak": 8415,
      "Ġnormally": 8416,
      "Ġoxygen": 8417,
      "Ġanywhere": 8418,
      "ĠWayne": 8419,
      "Ġboost": 8420,
      "Ġcombat": 8421,
      "acon": 8422,
      "Ġguy": 8423,
      "Ġexhibition": 8424,
      "Ġmissp": 8425,
      "Ġstick": 8426,
      "Ġsurprising": 8427,
      "Sm": 8428,
      "asive": 8429,
      "Ġstages": 8430,
      "achelor": 8431,
      "Reg": 8432,
      "Ġordered": 8433,
      "GA": 8434,
      "osystem": 8435,
      "Ġdelight": 8436,
      "ĠAssembly": 8437,
      "ĠSS": 8438,
      "Ġposts": 8439,
      "ĠMedic": 8440,
      "ĠCT": 8441,
      "Ġchose": 8442,
      "html": 8443,
      "Ġasking": 8444,
      "ĠTreat": 8445,
      "Ġcolors": 8446,
      "Ġadventure": 8447,
      "itzer": 8448,
      "oly": 8449,
      "Ġbeloved": 8450,
      "Ġdetection": 8451,
      "Ġorient": 8452,
      "ĠGulf": 8453,
      "position": 8454,
      "ĠContin": 8455,
      "Ġrecon": 8456,
      "ĠAdams": 8457,
      "ailability": 8458,
      "Ġcontracts": 8459,
      "Ġcomputers": 8460,
      "emia": 8461,
      "ĠPolit": 8462,
      "Ġsuperior": 8463,
      "Ġordinary": 8464,
      "Ġstrengthen": 8465,
      "Ġreserve": 8466,
      "ef": 8467,
      "glas": 8468,
      "ĠBry": 8469,
      "Ġtransmit": 8470,
      "Ġfewer": 8471,
      "ĠPrin": 8472,
      "Ġpounds": 8473,
      "June": 8474,
      "ĠMaria": 8475,
      "iox": 8476,
      "âĢłâĢł": 8477,
      "rust": 8478,
      "ĠLLC": 8479,
      "Ġduties": 8480,
      "ĠForum": 8481,
      "Ġtox": 8482,
      "elesc": 8483,
      "Sept": 8484,
      "oga": 8485,
      "liament": 8486,
      "iture": 8487,
      "Ġprivile": 8488,
      "Ġchallenging": 8489,
      "ĠMarine": 8490,
      "ĠAustin": 8491,
      "ĠLiter": 8492,
      "anch": 8493,
      "Ġarms": 8494,
      "ĠCON": 8495,
      "Ġempt": 8496,
      "Ġrational": 8497,
      "allas": 8498,
      "TON": 8499,
      "Ġcausing": 8500,
      "Ġpin": 8501,
      "Ġcart": 8502,
      "ĠRoberts": 8503,
      "isd": 8504,
      "Ġsubstance": 8505,
      "Ġreferences": 8506,
      "bors": 8507,
      "ĠIM": 8508,
      "vision": 8509,
      "Ġnaturally": 8510,
      "ador": 8511,
      "oen": 8512,
      "ĠBC": 8513,
      "ĠAnalysis": 8514,
      "Pat": 8515,
      "ĠKey": 8516,
      "Ġangle": 8517,
      "otte": 8518,
      "Ġdesigns": 8519,
      "iatric": 8520,
      "ĠIV": 8521,
      "Ġyellow": 8522,
      "lected": 8523,
      "Ġtotally": 8524,
      "ĠRules": 8525,
      "Ġarrangement": 8526,
      "RL": 8527,
      "ĠRegist": 8528,
      "Ġbackup": 8529,
      "Ġentreprene": 8530,
      "Ġaxis": 8531,
      "Under": 8532,
      "ĠQuest": 8533,
      "Ġcelebrate": 8534,
      "Ġheritage": 8535,
      "Ġseconds": 8536,
      "AY": 8537,
      "who": 8538,
      "Ġstake": 8539,
      "ĠDick": 8540,
      "iking": 8541,
      "eness": 8542,
      "resident": 8543,
      "Ġstable": 8544,
      "Ġprize": 8545,
      "Ġimper": 8546,
      "Ġusual": 8547,
      "Date": 8548,
      "Ġdefault": 8549,
      "Ġsimultane": 8550,
      "mits": 8551,
      "Ġabund": 8552,
      "ĠSurvey": 8553,
      "quarters": 8554,
      "Ġmath": 8555,
      "ulin": 8556,
      "ali": 8557,
      "Ġannually": 8558,
      "Ġsuffer": 8559,
      "Ġextraord": 8560,
      "ĠMorgan": 8561,
      "aternal": 8562,
      "Ġheads": 8563,
      "Ġvariable": 8564,
      "ĠThompson": 8565,
      "?âĢĿ": 8566,
      "Serv": 8567,
      "ĠRuth": 8568,
      "ĠRussell": 8569,
      "Ġdropped": 8570,
      "ishment": 8571,
      "iger": 8572,
      "Ġexperiments": 8573,
      "ĠBenjamin": 8574,
      "ĠPear": 8575,
      "igenous": 8576,
      "cyclop": 8577,
      "Ġintention": 8578,
      "ĠBalt": 8579,
      "Ġtransferred": 8580,
      "Ġcable": 8581,
      "Ġplurality": 8582,
      "ĠDO": 8583,
      "Ġachievement": 8584,
      "Ġinterior": 8585,
      "Because": 8586,
      "Ġfaces": 8587,
      "ĠLady": 8588,
      "ĠRoss": 8589,
      "Ġintent": 8590,
      "Ġyesterday": 8591,
      "normal": 8592,
      "ricted": 8593,
      "Ġstopped": 8594,
      "Ġillustrated": 8595,
      "Ġapartment": 8596,
      "Ġremarkable": 8597,
      "ĠHope": 8598,
      "Ġcards": 8599,
      "VD": 8600,
      "ĠCastle": 8601,
      "ĠPow": 8602,
      "Ġdramatic": 8603,
      "Your": 8604,
      "urities": 8605,
      "odd": 8606,
      "Ġimpacts": 8607,
      "ropical": 8608,
      "Ġinvolvement": 8609,
      "ochem": 8610,
      ".),": 8611,
      "OUR": 8612,
      "Ġseparation": 8613,
      "Ġtrained": 8614,
      "Ġviewed": 8615,
      "ounter": 8616,
      "Ġfairly": 8617,
      "ĠLanguage": 8618,
      "Ġdecor": 8619,
      "Ġthread": 8620,
      "Ġinvestors": 8621,
      "Ġsculpt": 8622,
      "Ġmuscle": 8623,
      "Ġdriver": 8624,
      "ĠMort": 8625,
      "Ġclassical": 8626,
      "Ġcastle": 8627,
      "vi": 8628,
      "ĠSac": 8629,
      "Ġadministrative": 8630,
      "ĠIslamic": 8631,
      "Ġprofit": 8632,
      "Ġapartments": 8633,
      "esity": 8634,
      "gressive": 8635,
      "Ġroutine": 8636,
      "Ġmyth": 8637,
      "erted": 8638,
      "oting": 8639,
      "anged": 8640,
      "HO": 8641,
      "ĠDefense": 8642,
      "Ġmoves": 8643,
      "ĠConnecticut": 8644,
      "asks": 8645,
      "unter": 8646,
      "ĠAk": 8647,
      "Ġmanual": 8648,
      "ĠShel": 8649,
      "ĠBeh": 8650,
      "Ġacting": 8651,
      "Ġresc": 8652,
      "Ġinformed": 8653,
      "ello": 8654,
      "ometimes": 8655,
      "ĠNS": 8656,
      "Ġdogs": 8657,
      "ials": 8658,
      "scale": 8659,
      "ĠRidge": 8660,
      "ĠArkansas": 8661,
      "apse": 8662,
      "Vis": 8663,
      "po": 8664,
      "ricts": 8665,
      "Ġgiant": 8666,
      "Ġobjective": 8667,
      "rec": 8668,
      "ĠFall": 8669,
      "Ġfifth": 8670,
      "Ġmixed": 8671,
      "ĠMP": 8672,
      "ĠSov": 8673,
      "Ġhorses": 8674,
      "Ġcarefully": 8675,
      "Ġreceives": 8676,
      "ĠRepresent": 8677,
      "icing": 8678,
      "Ass": 8679,
      "Ġexplos": 8680,
      "Ġprofile": 8681,
      "Ġdisaster": 8682,
      "ĠEarly": 8683,
      "Ġrecipient": 8684,
      "Ġworst": 8685,
      "Ġtight": 8686,
      "Ġlayers": 8687,
      "ĠProt": 8688,
      "Ġtownship": 8689,
      "Ġunusual": 8690,
      "una": 8691,
      "Ġdisorder": 8692,
      "Ġenemy": 8693,
      "Ġadds": 8694,
      "ĠMartha": 8695,
      "Ġwildlife": 8696,
      "ĠCas": 8697,
      "ĠBab": 8698,
      "vate": 8699,
      "ĠBattle": 8700,
      "âĢĺ": 8701,
      "Ġconsidering": 8702,
      "Ġscheme": 8703,
      "Ġdeeply": 8704,
      "Ġcamera": 8705,
      "Ġtoler": 8706,
      "ĠFox": 8707,
      "uh": 8708,
      "Ġmeets": 8709,
      "parents": 8710,
      "ĠMeeting": 8711,
      "burn": 8712,
      "erior": 8713,
      "Ġultimate": 8714,
      "Ġproduces": 8715,
      "ĠTemple": 8716,
      "Ġconcluded": 8717,
      "Ġstrict": 8718,
      "obs": 8719,
      "Ġrelief": 8720,
      "Ġbeings": 8721,
      "Ġaccomplished": 8722,
      "hist": 8723,
      "Ġequation": 8724,
      "Ġauthorized": 8725,
      "ĠMother": 8726,
      "ĠVolume": 8727,
      "Ġproducing": 8728,
      "Ġdisputed": 8729,
      "stal": 8730,
      "Ġcitizen": 8731,
      "Ġvolt": 8732,
      "Ġinitiatives": 8733,
      "osph": 8734,
      "Ġvo": 8735,
      "ĠVietnam": 8736,
      "Ġuniversities": 8737,
      "ĠHolly": 8738,
      "Ġconstantly": 8739,
      "Ġpride": 8740,
      "Ġdemonstrated": 8741,
      "Ġopposition": 8742,
      "ĠFreder": 8743,
      "Ġtwelve": 8744,
      "VER": 8745,
      "Ġrelax": 8746,
      "ĠDise": 8747,
      "ĠStone": 8748,
      "emed": 8749,
      "Ġcarrying": 8750,
      "Ġhypot": 8751,
      "ĠThank": 8752,
      "ĠSi": 8753,
      "ĠOS": 8754,
      "urricane": 8755,
      "kind": 8756,
      "Ġmisspellings": 8757,
      "ortheast": 8758,
      "rape": 8759,
      "Ġfeedback": 8760,
      "ĠTravel": 8761,
      "aired": 8762,
      "Ġmeth": 8763,
      "Ġmice": 8764,
      "ĠCr": 8765,
      "otten": 8766,
      "Ġdomin": 8767,
      "ova": 8768,
      "ĠBefore": 8769,
      "Ġrelate": 8770,
      "Ġaccounting": 8771,
      "Ġdrink": 8772,
      "folio": 8773,
      "Ġtransportation": 8774,
      "Well": 8775,
      "Ġcouples": 8776,
      "ĠCook": 8777,
      "Ġspaces": 8778,
      "Funeral": 8779,
      "chell": 8780,
      "ĠEconomic": 8781,
      "Ġceremony": 8782,
[...]
