{"version": "1.0", "truncation": null, "padding": null, "added_tokens": [{"id": 0, "content": "<s>", "single_word": false, "lstrip": false, "rstrip": false, "normalized": false, "special": true}, {"id": 1, "content": "</s>", "single_word": false, "lstrip": false, "rstrip": false, "normalized": false, "special": true}, {"id": 2, "content": "<pad>", "single_word": false, "lstrip": false, "rstrip": false, "normalized": false, "special": true}, {"id": 3, "content": "<unk>", "single_word": false, "lstrip": false, "rstrip": false, "normalized": false, "special": true}, {"id": 4, "content": "<|start_of_turn|>", "single_word": false, "lstrip": false, "rstrip": false, "normalized": false, "special": true}, {"id": 5, "content": "<|end_of_turn|>", "single_word": false, "lstrip": false, "rstrip": false, "normalized": false, "special": true}, {"id": 6, "content": "<|start_system_prompt|>", "single_word": false, "lstrip": false, "rstrip": false, "normalized": false, "special": true}, {"id": 7, "content": "<|end_system_prompt|>", "single_word": false, "lstrip": false, "rstrip": false, "normalized": false, "special": true}, {"id": 8, "content": "<|fim_prefix|>", "single_word": false, "lstrip": false, "rstrip": false, "normalized": false, "special": true}, {"id": 9, "content": "<|fim_middle|>", "single_word": false, "lstrip": false, "rstrip": false, "normalized": false, "special": true}, {"id": 10, "content": "<|fim_suffix|>", "single_word": false, "lstrip": false, "rstrip": false, "normalized": false, "special": true}], "normalizer": {"type": "NFKC"}, "pre_tokenizer": {"type": "Sequence", "pretokenizers": [{"type": "Digits", "individual_digits": true}, {"type": "ByteLevel", "add_prefix_space": false, "trim_offsets": true, "use_regex": true}]}, "post_processor": {"type": "ByteLevel", "add_prefix_space": true, "trim_offsets": true, "use_regex": true}, "decoder": {"type": "ByteLevel", "add_prefix_space": true, "trim_offsets": true, "use_regex": true}, "model": {"type": "BPE", "dropout": null, "unk_token": null, "continuing_subword_prefix": null, "end_of_word_suffix": null, "fuse_unk": false, "byte_fallback": false, "vocab": {"<s>": 0, "</s>": 1, "<pad>": 2, "<unk>": 3, "<|start_of_turn|>": 4, "<|end_of_turn|>": 5, "<|start_system_prompt|>": 6, "<|end_system_prompt|>": 7, "<|fim_prefix|>": 8, "<|fim_middle|>": 9, "<|fim_suffix|>": 10, "!": 11, "\"": 12, "#": 13, "$": 14, "%": 15, "&": 16, "'": 17, "(": 18, ")": 19, "*": 20, "+": 21, ",": 22, "-": 23, ".": 24, "/": 25, "0": 26, "1": 27, "2": 28, "3": 29, "4": 30, "5": 31, "6": 32, "7": 33, "8": 34, "9": 35, ":": 36, ";": 37, "<": 38, "=": 39, ">": 40, "?": 41, "@": 42, "A": 43, "B": 44, "C": 45, "D": 46, "E": 47, "F": 48, "G": 49, "H": 50, "I": 51, "J": 52, "K": 53, "L": 54, "M": 55, "N": 56, "O": 57, "P": 58, "Q": 59, "R": 60, "S": 61, "T": 62, "U": 63, "V": 64, "W": 65, "X": 66, "Y": 67, "Z": 68, "[": 69, "\\": 70, "]": 71, "^": 72, "_": 73, "`": 74, "a": 75, "b": 76, "c": 77, "d": 78, "e": 79, "f": 80, "g": 81, "h": 82, "i": 83, "j": 84, "k": 85, "l": 86, "m": 87, "n": 88, "o": 89, "p": 90, "q": 91, "r": 92, "s": 93, "t": 94, "u": 95, "v": 96, "w": 97, "x": 98, "y": 99, "z": 100, "{": 101, "|": 102, "}": 103, "~": 104, "\u00a1": 105, "\u00a2": 106, "\u00a3": 107, "\u00a4": 108, "\u00a5": 109, "\u00a6": 110, "\u00a7": 111, "\u00a8": 112, "\u00a9": 113, "\u00aa": 114, "\u00ab": 115, "\u00ac": 116, "\u00ae": 117, "\u00af": 118, "\u00b0": 119, "\u00b1": 120, "\u00b2": 121, "\u00b3": 122, "\u00b4": 123, "\u00b5": 124, "\u00b6": 125, "\u00b7": 126, "\u00b8": 127, "\u00b9": 128, "\u00ba": 129, "\u00bb": 130, "\u00bc": 131, "\u00bd": 132, "\u00be": 133, "\u00bf": 134, "\u00c0": 135, "\u00c1": 136, "\u00c2": 137, "\u00c3": 138, "\u00c4": 139, "\u00c5": 140, "\u00c6": 141, "\u00c7": 142, "\u00c8": 143, "\u00c9": 144, "\u00ca": 145, "\u00cb": 146, "\u00cc": 147, "\u00cd": 148, "\u00ce": 149, "\u00cf": 150, "\u00d0": 151, "\u00d1": 152, "\u00d2": 153, "\u00d3": 154, "\u00d4": 155, "\u00d5": 156, "\u00d6": 157, "\u00d7": 158, "\u00d8": 159, "\u00d9": 160, "\u00da": 161, "\u00db": 162, "\u00dc": 163, "\u00dd": 164, "\u00de": 165, "\u00df": 166, "\u00e0": 167, "\u00e1": 168, "\u00e2": 169, "\u00e3": 170, "\u00e4": 171, "\u00e5": 172, "\u00e6": 173, "\u00e7": 174, "\u00e8": 175, "\u00e9": 176, "\u00ea": 177, "\u00eb": 178, "\u00ec": 179, "\u00ed": 180, "\u00ee": 181, "\u00ef": 182, "\u00f0": 183, "\u00f1": 184, "\u00f2": 185, "\u00f3": 186, "\u00f4": 187, "\u00f5": 188, "\u00f6": 189, "\u00f7": 190, "\u00f8": 191, "\u00f9": 192, "\u00fa": 193, "\u00fb": 194, "\u00fc": 195, "\u00fd": 196, "\u00fe": 197, "\u00ff": 198, "\u0100": 199, "\u0101": 200, "\u0102": 201, "\u0103": 202, "\u0104": 203, "\u0105": 204, "\u0106": 205, "\u0107": 206, "\u0108": 207, "\u0109": 208, "\u010a": 209, "\u010b": 210, "\u010c": 211, "\u010d": 212, "\u010e": 213, "\u010f": 214, "\u0110": 215, "\u0111": 216, "\u0112": 217, "\u0113": 218, "\u0114": 219, "\u0115": 220, "\u0116": 221, "\u0117": 222, "\u0118": 223, "\u0119": 224, "\u011a": 225, "\u011b": 226, "\u011c": 227, "\u011d": 228, "\u011e": 229, "\u011f": 230, "\u0120": 231, "\u0121": 232, "\u0122": 233, "\u0123": 234, "\u0124": 235, "\u0125": 236, "\u0126": 237, "\u0127": 238, "\u0128": 239, "\u0129": 240, "\u012a": 241, "\u012b": 242, "\u012c": 243, "\u012d": 244, "\u012e": 245, "\u012f": 246, "\u0130": 247, "\u0131": 248, "\u0132": 249, "\u0133": 250, "\u0134": 251, "\u0135": 252, "\u0136": 253, "\u0137": 254, "\u0138": 255, "\u0139": 256, "\u013a": 257, "\u013b": 258, "\u013c": 259, "\u013d": 260, "\u013e": 261, "\u013f": 262, "\u0140": 263, "\u0141": 264, "\u0142": 265, "\u0143": 266, "\u0120t": 267, "\u0120a": 268, "he": 269, "in": 270, "re": 271, "on": 272, "\u0120the": 273, "er": 274, "\u0120o": 275, "at": 276, "\u0120s": 277, "nd": 278, "or": 279, "en": 280, "\u0120w": 281, "is": 282, "\u0120c": 283, "es": 284, "it": 285, "ed": 286, "\u0120of": 287, "\u0120f": 288, "al": 289, "\u0120b": 290, "an": 291, "\u0120p": 292, "ar": 293, "ing": 294, "\u0120in": 295, "\u0120and": 296, "ou": 297, "\u0120m": 298, "ion": 299, "ic": 300, "\u0120to": 301, "\u0120d": 302, "as": 303, "le": 304, "om": 305, "\u0120h": 306, "ent": 307, "il": 308, "\u0120th": 309, "\u0120re": 310, "ro": 311, "\u0120e": 312, "ct": 313, "st": 314, "\u0120n": 315, "ve": 316, "\u0120l": 317, "\u0120S": 318, "\u0120C": 319, "\u0120A": 320, "\u0120T": 321, "\u0120be": 322, "ation": 323, "ol": 324, "\u0120is": 325, "id": 326, "ly": 327, "am": 328, "et": 329, "ur": 330, "\u0120for": 331, "\u0120g": 332, "ce": 333, "ch": 334, "\u0120I": 335, "\u0120M": 336, "se": 337, "ot": 338, "ut": 339, "im": 340, "\u0120on": 341, "ra": 342, "ig": 343, "ow": 344, "ay": 345, "ver": 346, "\u00e2\u0122": 347, "el": 348, "\u0120that": 349, "ir": 350, "\u0120u": 351, "\u0120P": 352, "her": 353, "\u0120st": 354, "\u0120B": 355, "ith": 356, "ad": 357, "ter": 358, "\u0120y": 359, "ul": 360, "\u0120H": 361, "ill": 362, "\u0120with": 363, "\u0120as": 364, "em": 365, "\u0120pro": 366, "\u0120an": 367, "\u0120con": 368, "\u0120(": 369, "\u0120R": 370, "if": 371, "\u0120wh": 372, "\u0120D": 373, "\u0120F": 374, "ers": 375, "\u0120al": 376, "\u0120W": 377, "ist": 378, "ge": 379, "ri": 380, "ate": 381, "\u0120are": 382, "\u0120The": 383, "\u0120it": 384, "nt": 385, "\u0120at": 386, "od": 387, "\u0120com": 388, "\u0120or": 389, "ity": 390, "op": 391, "\u0120L": 392, "ment": 393, "us": 394, "\u0120E": 395, "ess": 396, "\u0120was": 397, "\u0120N": 398, "\u0120by": 399, "\u0120he": 400, "rom": 401, "ab": 402, "\u0120G": 403, "th": 404, "res": 405, "est": 406, "and": 407, "ac": 408, "\u0120de": 409, "\u0120,": 410, "um": 411, "\u0120you": 412, "pp": 413, "ore": 414, "\u0120ex": 415, "\u0120se": 416, "\u0120J": 417, "ere": 418, "os": 419, "\u0120v": 420, "ld": 421, "ive": 422, "qu": 423, "oc": 424, "\u0120su": 425, "iv": 426, "ies": 427, "ew": 428, "ain": 429, "un": 430, "\u0120ha": 431, "ant": 432, "igh": 433, "\u0120from": 434, "pe": 435, "ke": 436, "ort": 437, "ud": 438, "ear": 439, "\u0120O": 440, "\u0120ch": 441, "art": 442, "'s": 443, "\u0120r": 444, "ard": 445, "\u0120.": 446, "\u0120-": 447, "\u0120will": 448, "\u0120have": 449, "all": 450, "\u0120this": 451, "\u0120not": 452, "ial": 453, "\u00e2\u0122\u013b": 454, "ure": 455, "ust": 456, "ag": 457, "\u0120sh": 458, "ction": 459, "The": 460, "\u0120le": 461, "og": 462, "\u0120U": 463, "our": 464, "gh": 465, "ight": 466, "ast": 467, "ich": 468, "ical": 469, "\u0120wor": 470, "rou": 471, "pt": 472, "ell": 473, "ated": 474, "pl": 475, "ber": 476, "ine": 477, "out": 478, "ire": 479, "ost": 480, "per": 481, "\u0120ab": 482, "\u0120has": 483, "are": 484, "ome": 485, "\u0120can": 486, "ff": 487, "\u0120all": 488, "ther": 489, "\u0120\u00e2\u0122": 490, "\u0120we": 491, "te": 492, "ary": 493, "\u0120In": 494, "orm": 495, "ans": 496, "ia": 497, "ous": 498, "\u0120\"": 499, "ok": 500, "iz": 501, "\u0120pl": 502, "\u0120ad": 503, "ip": 504, "ect": 505, "ak": 506, "\u0120res": 507, "\u0120K": 508, "ide": 509, "\u0120St": 510, "ould": 511, "age": 512, "\u0120whe": 513, "\u0120his": 514, "\u0120their": 515, "ations": 516, "cc": 517, "ong": 518, "\u0120comp": 519, "ount": 520, "\u0120cont": 521, "\u0120inc": 522, "ame": 523, "\u0120en": 524, "\u0120k": 525, "ry": 526, "du": 527, "\u0120Ch": 528, "ice": 529, "\u0120who": 530, "\u0120me": 531, "\u0120which": 532, "ie": 533, "\u0120man": 534, "ord": 535, "\u0120im": 536, "\u0120int": 537, "ult": 538, "ib": 539, "\u0120ne": 540, "\u0120us": 541, "\u0120year": 542, "able": 543, "ition": 544, "\u0120cl": 545, "\u0120one": 546, "\u0120Th": 547, "ru": 548, "form": 549, "\u0120V": 550, "\u0120j": 551, "\u0120more": 552, "ub": 553, "ap": 554, "\u0120they": 555, "act": 556, "ance": 557, "ind": 558, "vel": 559, "erv": 560, "ook": 561, "ass": 562, "ign": 563, "au": 564, "\u0120dis": 565, "\u0120her": 566, "ase": 567, "ack": 568, "\u0120app": 569, "ence": 570, "\u0120do": 571, "\u0120un": 572, "one": 573, "ual": 574, "ory": 575, "ild": 576, "ach": 577, "\u0120per": 578, "ood": 579, "\u0120sa": 580, "ll": 581, "ark": 582, "so": 583, "mer": 584, "ace": 585, "ond": 586, "ime": 587, "ose": 588, "reat": 589, "\u0120but": 590, "\u0120out": 591, "\u0120were": 592, "\u00e2\u0122\u013f": 593, "av": 594, "very": 595, "ions": 596, "\u0120rec": 597, "ors": 598, "\u0120other": 599, "\u0120ev": 600, "ail": 601, "\u0120so": 602, "\u0120pe": 603, "ite": 604, "\u0120about": 605, "ree": 606, "\u0120ar": 607, "ents": 608, "ens": 609, "\u0120sp": 610, "vers": 611, "\u0120work": 612, "\u0120comm": 613, "\u0120part": 614, "ue": 615, "\u0120its": 616, "\u0120been": 617, "ang": 618, "\u0120te": 619, "nder": 620, "ake": 621, "\u0120Re": 622, "\u0120up": 623, "ress": 624, "\u0120also": 625, "wn": 626, "ian": 627, "ish": 628, "low": 629, "\u0120Y": 630, "lud": 631, "\u0120pre": 632, "ound": 633, "ile": 634, "ph": 635, "\u0120tra": 636, "lic": 637, "own": 638, "irst": 639, "\u0120He": 640, "ov": 641, "ces": 642, "\u0120than": 643, "\u0120your": 644, "ings": 645, "ople": 646, "ons": 647, "ove": 648, "port": 649, "ays": 650, "\u0120there": 651, "\u0120ag": 652, "ci": 653, "ne": 654, "oy": 655, "ates": 656, "ily": 657, "ational": 658, "\u0120our": 659, "\u0120new": 660, "ied": 661, "\u0120Un": 662, "\u0120spe": 663, "\u0120off": 664, "\u0120years": 665, "\u0120\u00e2\u0122\u013e": 666, "iss": 667, "ike": 668, "\u0120qu": 669, ").": 670, "\u0120over": 671, "ric": 672, "\u0120acc": 673, "ram": 674, "\u0120may": 675, "\u0120people": 676, "\u0120bec": 677, "ob": 678, "\u0120time": 679, "\u0120includ": 680, "yst": 681, "ren": 682, "tern": 683, "\u0120them": 684, "\u0120any": 685, "rough": 686, "ts": 687, "rit": 688, "\u0120tw": 689, "\u0120ind": 690, "old": 691, "red": 692, "olog": 693, "\u0120said": 694, "\u0120prov": 695, "ife": 696, "ks": 697, "\u0120kn": 698, "ath": 699, "\u0120des": 700, "ep": 701, "\u0120first": 702, "hed": 703, "ater": 704, "arch": 705, "\u0120when": 706, "\u0120into": 707, "\u0120under": 708, "\u0120It": 709, "fter": 710, "\u0120em": 711, "\u0120no": 712, "ments": 713, "\u0120go": 714, "\u0120fam": 715, "orn": 716, "ally": 717, "\u0120ro": 718, "amp": 719, "\u0120my": 720, "ec": 721, "ough": 722, "oin": 723, "\u0120had": 724, "\u0120:": 725, "lect": 726, "erm": 727, "ystem": 728, "\u0120tr": 729, "ific": 730, "end": 731, "\u0120she": 732, "\u0120ra": 733, "ool": 734, "aw": 735, "\u0120rel": 736, "\u0120some": 737, "\u0120Com": 738, "formation": 739, "ities": 740, "\u0120sub": 741, "ject": 742, "\u0120stud": 743, "ced": 744, "fere": 745, "ident": 746, "),": 747, "rib": 748, "\u0120cons": 749, "\u0120ac": 750, "ss": 751, "\u0120two": 752, "\u0120am": 753, "\u0120many": 754, "ivers": 755, "\u0120these": 756, "\u0120pres": 757, "ng": 758, "eth": 759, "ating": 760, "\u0120through": 761, "les": 762, "uc": 763, "ative": 764, "\u0120what": 765, "ted": 766, "\u0120This": 767, "\u0120such": 768, "ious": 769, "\u0120mem": 770, "\u0120reg": 771, "ward": 772, "\u0120would": 773, "we": 774, "\u0120like": 775, "urn": 776, "\u0120act": 777, ".,": 778, "\u0120serv": 779, "oth": 780, "velop": 781, "||": 782, "\u0120ph": 783, "\u0120gen": 784, "ft": 785, "ade": 786, "\u0120sc": 787, "\u0120most": 788, "ause": 789, "\u0120bl": 790, "ited": 791, "dition": 792, "\u0120inv": 793, "ont": 794, "\u0120ass": 795, "und": 796, "\u0120col": 797, "gram": 798, "cial": 799, "ick": 800, "ys": 801, "ise": 802, "cess": 803, "hip": 804, "iew": 805, "ful": 806, "\u0120bet": 807, "\u0120information": 808, "\u0120system": 809, "ics": 810, "day": 811, "\u0120count": 812, "\u0120if": 813, "\u0120fe": 814, "uring": 815, "\u0120imp": 816, "\u0120rem": 817, "als": 818, "\u0120where": 819, "ased": 820, "\u0120loc": 821, "gan": 822, "ink": 823, "ange": 824, "ty": 825, "ered": 826, "\u0120Pro": 827, "ollow": 828, "ible": 829, "\u0120gra": 830, "land": 831, "ex": 832, "meric": 833, "In": 834, "\u0120how": 835, "sel": 836, "\u0120family": 837, "\u0120New": 838, "\u0120supp": 839, "\u0120after": 840, "chool": 841, "\u0120--": 842, "\u0120num": 843, "erson": 844, "\u0120only": 845, "\u0120Al": 846, "ning": 847, "\u0120sur": 848, "ility": 849, "\u0120eff": 850, "\u0120requ": 851, "\u0120dif": 852, "ular": 853, "\u0120bu": 854, "com": 855, "cy": 856, "oh": 857, "\u0120Ar": 858, "oci": 859, "round": 860, "pect": 861, "eral": 862, "\u0120We": 863, "\u0120&": 864, "ork": 865, "hen": 866, "oss": 867, "\u0120develop": 868, "\u0120ob": 869, "Th": 870, "\u0120rese": 871, "\u0120An": 872, "iversity": 873, "\u0120form": 874, "ah": 875, ".\"": 876, "any": 877, "ures": 878, "\u0120then": 879, "\u0120dec": 880, "\u0120great": 881, "ert": 882, "\u0120long": 883, "\u0120follow": 884, "'t": 885, "\u0120Americ": 886, "ution": 887, "\u0120ent": 888, "\u0120own": 889, "\u0120well": 890, "\u0120pr": 891, "arri": 892, "\u0120co": 893, "\u0120need": 894, "ildren": 895, "\u0120see": 896, "\u0120ed": 897, "\u0120just": 898, "fore": 899, "\u0120trans": 900, "\u0120commun": 901, "row": 902, "\u0120know": 903, "\u0120De": 904, "\u0120mod": 905, "ues": 906, "ology": 907, "ather": 908, "ock": 909, "\u0120right": 910, "ton": 911, "urch": 912, "\u0120book": 913, "ters": 914, "ives": 915, "ublic": 916, "\u0120program": 917, "\u0120sec": 918, "io": 919, "other": 920, "\u0120\u00e2\u0122\u0135": 921, "irect": 922, "\u0120life": 923, "\u0120att": 924, "ract": 925, "hes": 926, "iel": 927, "\u0120use": 928, "\u0120produ": 929, "\u0120world": 930, "ower": 931, "\u0120set": 932, "its": 933, "\u0120could": 934, "arg": 935, "alth": 936, "man": 937, "\u0120inter": 938, "\u0120disc": 939, "uch": 940, "ting": 941, "air": 942, "led": 943, "\u0120Se": 944, "ement": 945, "ven": 946, "ices": 947, "\u0120those": 948, "\u0120det": 949, "\u0120him": 950, "\u0120now": 951, "ins": 952, "\u0120And": 953, "\u0120pol": 954, "ble": 955, "uth": 956, "ved": 957, "ran": 958, "\u0120used": 959, "\u0120$": 960, "ars": 961, "ctions": 962, "ween": 963, "roup": 964, "\u0120made": 965, "\u0120high": 966, "\u0120provid": 967, "\u0120inst": 968, "pr": 969, "\u0120very": 970, "\u0120fl": 971, "\u0120every": 972, "\u0120For": 973, "\u0120even": 974, "ict": 975, "\u0120being": 976, "cept": 977, "\u0120ear": 978, "mit": 979, "pos": 980, "ten": 981, "ax": 982, "iness": 983, "xt": 984, "\u0120Wh": 985, "\u0120because": 986, "tle": 987, "arm": 988, "ines": 989, "\u0120lead": 990, "\u0120found": 991, "bers": 992, "ames": 993, "\u0120between": 994, "\u0120call": 995, "ck": 996, "ale": 997, "the": 998, "\u0120ret": 999, "chn": 1000, "ists": 1001, "\u0120She": 1002, "\u0120sign": 1003, "\u0120both": 1004, "\u0120end": 1005, "ived": 1006, "\u0120result": 1007, "\u0120hel": 1008, "ature": 1009, "ner": 1010, "ished": 1011, "\u0120person": 1012, "\u0120University": 1013, "\u0120differe": 1014, "\u0120back": 1015, "aking": 1016, "\u0120get": 1017, "ouse": 1018, "ug": 1019, "ploy": 1020, "ages": 1021, "ants": 1022, "ohn": 1023, "oun": 1024, "\u0120Cl": 1025, "\u0120dat": 1026, "\u0120name": 1027, "cer": 1028, "\u0120mark": 1029, "\u0120sim": 1030, ",\"": 1031, "ince": 1032, "\u0120cent": 1033, "\u0120should": 1034, "way": 1035, "ield": 1036, "\u0120help": 1037, "inal": 1038, "\u0120exper": 1039, "ness": 1040, "\u0120each": 1041, "ute": 1042, "\u0120Ad": 1043, "ix": 1044, "\u0120est": 1045, "\u0120process": 1046, "\u0120sm": 1047, "\u0120comple": 1048, "ural": 1049, "ene": 1050, "\u0120Le": 1051, "\u0120Col": 1052, "\u0120add": 1053, "\u0120make": 1054, "\u0120mon": 1055, "\u0120def": 1056, "ism": 1057, "\u0120art": 1058, "ash": 1059, "ized": 1060, "ically": 1061, "\u0120research": 1062, "\u0120rep": 1063, "\u0120Count": 1064, "\u0120number": 1065, "usiness": 1066, "\u0120appro": 1067, "\u0120hist": 1068, "der": 1069, "ention": 1070, "son": 1071, "orth": 1072, "ron": 1073, "\u0120support": 1074, "\u0120way": 1075, "\u0120incre": 1076, "\u0120cre": 1077, "cent": 1078, "\u0120find": 1079, "\u0120As": 1080, "ital": 1081, "up": 1082, "\u0120rece": 1083, "\u0120ins": 1084, "ired": 1085, "\u0120cur": 1086, "rist": 1087, "ving": 1088, "ety": 1089, "ission": 1090, "\u0120spec": 1091, "\u0120ke": 1092, "\u0120during": 1093, "\u0120read": 1094, "\u0120med": 1095, "ier": 1096, "\u0120does": 1097, "aj": 1098, "\u0120present": 1099, "\u0120Res": 1100, "ull": 1101, "\u0120here": 1102, "outh": 1103, "\u0120rent": 1104, "\u0120dist": 1105, "rent": 1106, "\u0120again": 1107, "\u0120Sh": 1108, "oint": 1109, "\u0120home": 1110, "uman": 1111, "view": 1112, "\u0120()": 1113, "\u0120three": 1114, "\u0120ser": 1115, "\u0120John": 1116, "iving": 1117, "fess": 1118, "\u0120organ": 1119, "\u0120contin": 1120, "ever": 1121, "\u0120same": 1122, "ision": 1123, "rid": 1124, "\u0120partic": 1125, "\u0120bro": 1126, "\u0120Cent": 1127, "\u0120pat": 1128, "\u0120inf": 1129, "\u0120good": 1130, "ross": 1131, "\u0120children": 1132, "\u0120much": 1133, "\u0120look": 1134, "\u0120last": 1135, "\u0120var": 1136, "\u0120record": 1137, "\u0120group": 1138, "\u0120'": 1139, "\u0120exp": 1140, "\u0120bo": 1141, "\u0120Is": 1142, "ually": 1143, "augh": 1144, "az": 1145, "\u0120cour": 1146, "\u0120must": 1147, "\u0120design": 1148, "\u0120did": 1149, "de": 1150, "ets": 1151, "\u0120before": 1152, "imes": 1153, "imate": 1154, "vern": 1155, "con": 1156, "\u0120show": 1157, "ruct": 1158, "nce": 1159, "\u0120Ph": 1160, "tend": 1161, "\u0120writ": 1162, "ley": 1163, "\u0120ext": 1164, "\u0120av": 1165, "\u0120oper": 1166, "riend": 1167, "\u0120County": 1168, "illion": 1169, "\u0120str": 1170, "ave": 1171, ".\u00e2\u0122\u013f": 1172, "ample": 1173, "\u0120direct": 1174, "eting": 1175, "\u0120Ind": 1176, "\u0120adv": 1177, "\u0120min": 1178, "\u0120including": 1179, "\u0120effect": 1180, "\u0120Con": 1181, "ering": 1182, "\u0120bel": 1183, "ined": 1184, "ery": 1185, "\u0120old": 1186, "\u0120school": 1187, "arge": 1188, "enn": 1189, "\u0120gu": 1190, "\u0120op": 1191, "\u0120cor": 1192, "This": 1193, "ivid": 1194, "\u0120different": 1195, "ral": 1196, "ient": 1197, "ank": 1198, "\u0120pass": 1199, "\u0120care": 1200, "iver": 1201, "get": 1202, "ize": 1203, "\u0120born": 1204, "\u0120start": 1205, "ER": 1206, "\u0120val": 1207, "cl": 1208, "ann": 1209, "\u0120while": 1210, "\u0120resp": 1211, "ves": 1212, "\u0120import": 1213, "self": 1214, "hem": 1215, "\u0120allow": 1216, "\u0120report": 1217, "ands": 1218, "\u0120state": 1219, "\u0120real": 1220, "rol": 1221, "line": 1222, "uss": 1223, "\u0120unt": 1224, "\u0120main": 1225, "gy": 1226, "\u0120iss": 1227, "\u0120ref": 1228, "ified": 1229, "\u0120fact": 1230, "ases": 1231, "\u0120pri": 1232, "\u0120place": 1233, "\u0120If": 1234, "\u0120employ": 1235, "\u0120business": 1236, "\u0120gl": 1237, "\u0120gener": 1238, "\u0120fun": 1239, "raph": 1240, "\u0120They": 1241, "\u0120techn": 1242, "--": 1243, "ense": 1244, "\u0120marri": 1245, "\u0120But": 1246, "ration": 1247, "ury": 1248, "ason": 1249, "ains": 1250, "ym": 1251, "iqu": 1252, "\u0120data": 1253, "\u0120community": 1254, "\u0120public": 1255, "pend": 1256, "\u0120Christ": 1257, "\u0120take": 1258, "\u0120poss": 1259, "\u0120You": 1260, "\u0120orig": 1261, "\u0120vis": 1262, "\u0120within": 1263, "\u0120Q": 1264, "ik": 1265, "\u0120lit": 1266, "\u0120don": 1267, "ator": 1268, "\u0120Co": 1269, "\u0120American": 1270, "\u0120/": 1271, "cient": 1272, "\u0120let": 1273, "\u0120day": 1274, "omes": 1275, "erest": 1276, "ote": 1277, "ency": 1278, "ple": 1279, "\u0120following": 1280, "\u0120perform": 1281, "\u0120build": 1282, "iam": 1283, "ior": 1284, "\u0120think": 1285, "\u0120All": 1286, "\u0120God": 1287, "\u0120cell": 1288, "\u0120include": 1289, "ris": 1290, "ajor": 1291, "ee": 1292, "ring": 1293, "\u0120conf": 1294, "tt": 1295, "ization": 1296, "\u0120power": 1297, "\u0120ty": 1298, "ional": 1299, "\u0120educ": 1300, "\u0120pop": 1301, "por": 1302, "\u0120mat": 1303, "ina": 1304, "ining": 1305, "\u0120expl": 1306, "\u0120still": 1307, "lear": 1308, "\u0120Ro": 1309, "\u0120Ex": 1310, "\u0120second": 1311, "\u0120play": 1312, "alk": 1313, "omen": 1314, "\u0120elect": 1315, "\u0120fin": 1316, "stand": 1317, "eb": 1318, "ared": 1319, "els": 1320, "\u0120list": 1321, "read": 1322, "\u0120law": 1323, "urs": 1324, "\u0120chang": 1325, "ww": 1326, "ubl": 1327, ",\u00e2\u0122\u013f": 1328, "\u0120age": 1329, "\u0120Sp": 1330, "ained": 1331, "ulation": 1332, "\u0120down": 1333, "gin": 1334, "\u0120around": 1335, "\u0120car": 1336, "\u0120proper": 1337, "\u0120four": 1338, "\u0120come": 1339, "\u0120eng": 1340, "stit": 1341, "ethod": 1342, "apt": 1343, "\u0120history": 1344, "\u0120change": 1345, "\u0120som": 1346, "arent": 1347, "\u0120sol": 1348, "mber": 1349, "of": 1350, "oved": 1351, "\u0120ann": 1352, "ividual": 1353, "\u0120equ": 1354, "uthor": 1355, "\u0120rest": 1356, "\u0120term": 1357, "\u0120died": 1358, "akes": 1359, "\u0120near": 1360, "\u0120want": 1361, "\u0120Mar": 1362, "\u00e2\u0122\u013e": 1363, "\u0120plan": 1364, "\u0120fund": 1365, "\u0120ele": 1366, "\u0120though": 1367, "ality": 1368, "ways": 1369, "to": 1370, "\u0120Comm": 1371, "\u0120friend": 1372, "\u0120study": 1373, "ential": 1374, "\u0120project": 1375, "\u0120human": 1376, "\u0120consid": 1377, "\u0120health": 1378, "ille": 1379, "\u0120Bl": 1380, "yn": 1381, "\u0120Mr": 1382, "\u0120United": 1383, "\u0120area": 1384, "\u0120Eng": 1385, "artment": 1386, "\u0120activ": 1387, "\u0120interest": 1388, "\u0120fil": 1389, "\u0120word": 1390, "\u0120Sc": 1391, "We": 1392, "It": 1393, "\u0120[": 1394, "\u0120Z": 1395, "bs": 1396, "ek": 1397, "\u0120major": 1398, "\u0120members": 1399, "\u0120country": 1400, "iven": 1401, "\u0120How": 1402, "ccess": 1403, "\u0120Car": 1404, "osp": 1405, "cience": 1406, "\u0120death": 1407, "\u0120stat": 1408, "\u0120Or": 1409, "\u0120profess": 1410, "lease": 1411, "less": 1412, "\u0120small": 1413, "\u0120experi": 1414, "\u0120since": 1415, "\u0120del": 1416, "\u0120individual": 1417, "iron": 1418, "\u0120important": 1419, "\u0120using": 1420, "\u0120current": 1421, "\u0120National": 1422, "\u0120say": 1423, "\u0120ident": 1424, "uro": 1425, "\u0120met": 1426, "\u0120belie": 1427, "\u0120manag": 1428, "\u0120cap": 1429, "\u0120lear": 1430, "ON": 1431, "\u0120local": 1432, "une": 1433, "Wh": 1434, "\u0120opp": 1435, "\u0120Pl": 1436, "\u0120dem": 1437, "\u0120class": 1438, "\u0120Be": 1439, "ograph": 1440, "\u0120open": 1441, "ently": 1442, "irc": 1443, "ailable": 1444, "\u0120May": 1445, "\u0120There": 1446, "ret": 1447, "ries": 1448, "\u0120stand": 1449, "\u0120fac": 1450, "\u0120level": 1451, "\u0120char": 1452, "\u0120service": 1453, "ember": 1454, "\u0120order": 1455, "ify": 1456, "ination": 1457, "ability": 1458, "\u0120Jan": 1459, "ms": 1460, "duct": 1461, "eng": 1462, "\u0120occ": 1463, "gg": 1464, "\u0120without": 1465, "\u0120aff": 1466, "by": 1467, "\u0120test": 1468, "ling": 1469, "\u0120addition": 1470, "ern": 1471, "\u0120dev": 1472, "\u0120shall": 1473, "\u0120Will": 1474, "\u0120war": 1475, "ories": 1476, "ope": 1477, "\u0120bas": 1478, "\u0120provide": 1479, "\u0120applic": 1480, "\u0120month": 1481, "\u0120prev": 1482, "\u0120ris": 1483, "ody": 1484, "\u0120until": 1485, "hers": 1486, "\u0120grow": 1487, "\u00e2\u0122\u0136": 1488, "ource": 1489, "\u0120bra": 1490, "ocial": 1491, "ware": 1492, "AR": 1493, "crib": 1494, "\u0120offic": 1495, "\u0120Man": 1496, "reen": 1497, "IN": 1498, "\u0120Ass": 1499, "ird": 1500, "ording": 1501, "\u0120mus": 1502, "\u0120happ": 1503, "\u0120Te": 1504, "min": 1505, "\u0120)": 1506, "\u0120Med": 1507, "\u0120quest": 1508, "\u0120US": 1509, "\u0120State": 1510, "\u0120pos": 1511, "\u0120non": 1512, "\u0120available": 1513, "\u0120love": 1514, "here": 1515, "\u0120percent": 1516, "co": 1517, "\u0120sk": 1518, "ences": 1519, "__": 1520, "ternational": 1521, "\u0120says": 1522, "\u0120member": 1523, "\u0120Center": 1524, "\u0120men": 1525, "\u0120large": 1526, "conom": 1527, "\u0120el": 1528, "\u0120mil": 1529, "\u0120Church": 1530, "\u0120Can": 1531, "\u0120govern": 1532, "\u0120School": 1533, "resent": 1534, "\u0120post": 1535, "\u0120few": 1536, "veral": 1537, "ript": 1538, "\u0120proble": 1539, "\u0120access": 1540, "be": 1541, "\u0120Cal": 1542, "\u0120top": 1543, "inc": 1544, "ode": 1545, "ians": 1546, "ister": 1547, "\u0120gr": 1548, "\u0120beh": 1549, "\u0120prote": 1550, "\u0120known": 1551, "\u0120came": 1552, "\u0120called": 1553, "\u0120States": 1554, "viron": 1555, "ES": 1556, "\u0120York": 1557, "\u0120might": 1558, "\u0120development": 1559, "\u0120At": 1560, "\u0120run": 1561, "sh": 1562, "\u0120another": 1563, "\u0120method": 1564, "\u0120young": 1565, "\u0120Ge": 1566, "unt": 1567, "\u0120Ed": 1568, "\u0120bre": 1569, "\u0120means": 1570, "\u0120hand": 1571, "\u0120invest": 1572, "\u0120par": 1573, "\u0120best": 1574, "\u0120against": 1575, "\u0120view": 1576, "\u0120always": 1577, "\u0120point": 1578, "\u0120mean": 1579, "\u0120sl": 1580, "\u0120dep": 1581, "OR": 1582, "\u0120Bo": 1583, "\u0120son": 1584, "ised": 1585, "\u0120past": 1586, "\u0120control": 1587, "\u0120never": 1588, "abl": 1589, "\u0120anal": 1590, "\u0120On": 1591, "aim": 1592, "yl": 1593, "me": 1594, "atic": 1595, "use": 1596, "rop": 1597, "earch": 1598, "ium": 1599, "med": 1600, "urther": 1601, "\u0120impro": 1602, "aster": 1603, "angu": 1604, "AN": 1605, "\u0120turn": 1606, "arc": 1607, "\u0120El": 1608, "icle": 1609, "aterial": 1610, "ards": 1611, "\u0120author": 1612, "\u0120lot": 1613, "\u0120product": 1614, "ogn": 1615, "\u0120field": 1616, "\u0120along": 1617, "\u0120several": 1618, "bert": 1619, "ertain": 1620, "\u0120grand": 1621, "\u0120prom": 1622, "\u0120lim": 1623, "ribut": 1624, "\u0120;": 1625, "\u0120success": 1626, "ney": 1627, "\u0120less": 1628, "\u0120phot": 1629, "\u0120eas": 1630, "iod": 1631, "idence": 1632, "ients": 1633, "ateg": 1634, "\u0120%": 1635, "ustom": 1636, "\u0120Mc": 1637, "\u0120vol": 1638, "ott": 1639, "\u0120cost": 1640, "\u0120sit": 1641, "cing": 1642, "par": 1643, "\u0120example": 1644, "\u0120account": 1645, "\u0120water": 1646, "\u0120held": 1647, "fer": 1648, "work": 1649, "ources": 1650, "olution": 1651, "\u0120ide": 1652, "\u0120North": 1653, "vironment": 1654, "\u0120i": 1655, "ference": 1656, "\u0120City": 1657, "agn": 1658, "\u0120No": 1659, "app": 1660, "org": 1661, "\u0120understand": 1662, "over": 1663, "AT": 1664, "\u0120const": 1665, "\u0120ever": 1666, "ilt": 1667, "aces": 1668, "\u0120Fl": 1669, "lege": 1670, "ville": 1671, "uture": 1672, "\u0120company": 1673, "\u0120fore": 1674, "ourn": 1675, "\u0120results": 1676, "\u0120days": 1677, "\u0120city": 1678, "\u0120among": 1679, "\u0120Am": 1680, "ane": 1681, "\u0120tre": 1682, "\u0120across": 1683, "\u0120case": 1684, "\u0120free": 1685, "For": 1686, "\u0120wife": 1687, "\u0120require": 1688, "\u0120return": 1689, "\u0120today": 1690, "\u0120tri": 1691, "\u0120early": 1692, "ental": 1693, "\u0120sing": 1694, "ably": 1695, "ortun": 1696, "\u0120di": 1697, "ored": 1698, "\u0120daugh": 1699, "\u0120Dep": 1700, "\u0120publ": 1701, "ffic": 1702, "put": 1703, "\u0120ve": 1704, "let": 1705, "ead": 1706, "\u0120che": 1707, "\u0120given": 1708, "\u0120next": 1709, "\u0120based": 1710, "AS": 1711, "\u0120special": 1712, "\u0120head": 1713, "\u0120treat": 1714, "\u0120house": 1715, "abor": 1716, "\u0120women": 1717, "\u0120Wor": 1718, "\u0120least": 1719, "aken": 1720, "\u0120determ": 1721, "\u0120national": 1722, "\u0120Pres": 1723, "\u0120later": 1724, "\u0120charact": 1725, "oot": 1726, "\u0120redu": 1727, "\u0120Park": 1728, "\u0120mult": 1729, "\u0120condition": 1730, "\u0120rights": 1731, "//": 1732, "aut": 1733, "\u0120indust": 1734, "\u0120possible": 1735, "eter": 1736, "ued": 1737, "\u0120port": 1738, "\u0120dri": 1739, "\u0120move": 1740, "\u0120full": 1741, "aus": 1742, "\u0120left": 1743, "\u0120five": 1744, "\u0120leg": 1745, "\u0120search": 1746, "\u0120space": 1747, "\u0120education": 1748, "\u0120particular": 1749, "ington": 1750, "\u0120Bro": 1751, "\u0120land": 1752, "\u0120seem": 1753, "\u0120These": 1754, "\u0120War": 1755, "\u0120times": 1756, "ither": 1757, "\u0120His": 1758, "\u0120away": 1759, "\u0120cho": 1760, "\u0120bi": 1761, "not": 1762, "\u0120econom": 1763, "ray": 1764, "alf": 1765, "\u0120pract": 1766, "St": 1767, "\u0120making": 1768, "\u0120side": 1769, "\u0120Oct": 1770, "itor": 1771, "\u0120clear": 1772, "\u0120Aug": 1773, "\u0120town": 1774, "\u0120opt": 1775, "\u0120|": 1776, "\u0120invol": 1777, "ociety": 1778, "pro": 1779, "\u0120material": 1780, "\u0120vari": 1781, "\u0120To": 1782, "\u0120meas": 1783, "\u0120\u00c2": 1784, "\u0120crit": 1785, "osed": 1786, "omm": 1787, "ique": 1788, "\u0120received": 1789, "ights": 1790, "rand": 1791, "\u0120establ": 1792, "\u0120Har": 1793, "ething": 1794, "ole": 1795, "\u0120friends": 1796, "urg": 1797, "\u0120fre": 1798, "EN": 1799, "\u0120common": 1800, "\u0120William": 1801, "for": 1802, "\u0120short": 1803, "\u0120having": 1804, "\u0120future": 1805, "ler": 1806, "\u0120pot": 1807, "\u0120big": 1808, "ification": 1809, "ibr": 1810, "\u0120married": 1811, "rew": 1812, "\u0120Fran": 1813, "enef": 1814, "\u0120services": 1815, "uly": 1816, "\u0120Dr": 1817, "\u0120Ab": 1818, "\u0120become": 1819, "ales": 1820, "ills": 1821, "As": 1822, "\u0120content": 1823, "\u0120hous": 1824, "\u0120toget": 1825, "\u0120heart": 1826, "\u0120together": 1827, "\u0120little": 1828, "\u0120provided": 1829, "ides": 1830, "lection": 1831, "\u0120give": 1832, "ured": 1833, "itive": 1834, "\u0120books": 1835, "\u0120South": 1836, "\u0120million": 1837, "\u0120et": 1838, "\u0120students": 1839, "\u0120period": 1840, "\u0120parent": 1841, "uck": 1842, "\u0120camp": 1843, "\u0120exist": 1844, "band": 1845, "\u0120Tra": 1846, "ours": 1847, "\u0120line": 1848, "\u0120brother": 1849, "\u0120homes": 1850, "\u0120associ": 1851, "aper": 1852, "rict": 1853, "ats": 1854, "ological": 1855, "\u0120site": 1856, "\u0120event": 1857, "\u0120aut": 1858, "\u0120Go": 1859, "ilar": 1860, "opy": 1861, "af": 1862, "\u0120complete": 1863, "ipp": 1864, "orts": 1865, "\u0120langu": 1866, "\u0120Serv": 1867, "\u0120Tr": 1868, "iting": 1869, "He": 1870, "\u0120dra": 1871, "idd": 1872, "ocu": 1873, "\u0120award": 1874, "\u0120Dav": 1875, "pecial": 1876, "oll": 1877, "aff": 1878, "pril": 1879, "amed": 1880, "\u0120custom": 1881, "int": 1882, "\u0120represent": 1883, "\u0120social": 1884, "\u0120cult": 1885, "\u0120discuss": 1886, "\u0120too": 1887, "\u0120records": 1888, "\u0120Euro": 1889, "\u0120hard": 1890, "right": 1891, "\u0120others": 1892, "\u0120commit": 1893, "\u0120init": 1894, "uary": 1895, "\u0120page": 1896, "sw": 1897, "\u0120something": 1898, "\u0120story": 1899, "hern": 1900, "\u0120pay": 1901, "\u0120better": 1902, "\u0120America": 1903, "che": 1904, "ones": 1905, "\u0120living": 1906, "\u0120team": 1907, "\u0120hig": 1908, "ged": 1909, "\u0120comb": 1910, "\u0120areas": 1911, "\u0120describ": 1912, "ilities": 1913, "\u0120risk": 1914, "\u0120required": 1915, "\u0120En": 1916, "aining": 1917, "att": 1918, "ances": 1919, "\u0120section": 1920, "\u0120tru": 1921, "\u0120review": 1922, "oney": 1923, "ows": 1924, "cript": 1925, "elf": 1926, "\u0120things": 1927, "atural": 1928, "\u0120comput": 1929, "ocus": 1930, "\u0120cells": 1931, "\u0120tem": 1932, "\u0120above": 1933, "Ch": 1934, ".)": 1935, "\u0120music": 1936, "\u0120es": 1937, "\u0120church": 1938, "thing": 1939, "ai": 1940, "\u0120Mary": 1941, "\u0120feel": 1942, "\u0120further": 1943, "\u0120dom": 1944, "IS": 1945, "\u0120respons": 1946, "\u0120father": 1947, "\u0120Af": 1948, "ples": 1949, "\u0120put": 1950, "\u0120June": 1951, "\u0120air": 1952, "\u0120Ste": 1953, "\u0120detail": 1954, "\u0120names": 1955, "\u0120increase": 1956, "\u0120Sept": 1957, "ush": 1958, "\u0120includes": 1959, "\u0120net": 1960, "\u0120struct": 1961, "\u0120became": 1962, "atch": 1963, "\u0120phys": 1964, "\u0120able": 1965, "\u0120submit": 1966, "\u0120course": 1967, "\u0120relations": 1968, "reet": 1969, "ledge": 1970, "oad": 1971, "\u0120benef": 1972, "\u0120Gen": 1973, "\u0120systems": 1974, "oman": 1975, "aps": 1976, "minist": 1977, "my": 1978, "reg": 1979, "\u0120By": 1980, "ately": 1981, "olic": 1982, "nect": 1983, "\u0120light": 1984, "\u0120March": 1985, "ication": 1986, "An": 1987, "\u0120hus": 1988, "\u0120week": 1989, "\u0120Bar": 1990, "ising": 1991, "If": 1992, "\u0120Department": 1993, "\u0120recogn": 1994, "inn": 1995, "\u0120propos": 1996, "rie": 1997, "\u0120Europe": 1998, "\u0120larg": 1999, "\u0120working": 2000, "\u0120appear": 2001, "\u0120When": 2002, "\u0120sum": 2003, "\u0120respect": 2004, "\u0120position": 2005, "\u0120claim": 2006, "rap": 2007, "\u0120World": 2008, "\u0120surv": 2009, "\u0120rad": 2010, "\u0120experience": 2011, "ox": 2012, "\u0120changes": 2013, "\u0120Su": 2014, "\u0120government": 2015, "\u0120fire": 2016, "AL": 2017, "\u0120engine": 2018, "ream": 2019, "ony": 2020, "term": 2021, "\u0120often": 2022, "rodu": 2023, "\u0120object": 2024, "\u0120Sec": 2025, "\u0120That": 2026, "\u0120Me": 2027, "\u0120ask": 2028, "face": 2029, "\u0120child": 2030, "\u0120expect": 2031, "\u0120typ": 2032, "\u0120inde": 2033, "ators": 2034, "\u0120tax": 2035, "lement": 2036, "\u0120signific": 2037, "\u0120Gu": 2038, "ively": 2039, "tended": 2040, "\u0120why": 2041, "\u0120Calif": 2042, "\u0120begin": 2043, "ape": 2044, "side": 2045, "\u0120address": 2046, "\u0120environment": 2047, "\u0120App": 2048, "\u0120sex": 2049, "err": 2050, "\u0120once": 2051, "\u0120ill": 2052, "cil": 2053, "\u0120sw": 2054, "\u0120hold": 2055, "\u0120creat": 2056, "obal": 2057, "\u0120So": 2058, "\u0120deb": 2059, "\u0120circ": 2060, "\u0120husband": 2061, "ecut": 2062, "\u0120ant": 2063, "\u0120Associ": 2064, "\u0120April": 2065, "\u0120July": 2066, "\u0120provides": 2067, "\u0120far": 2068, "ivil": 2069, "\u0120written": 2070, "\u0120Pr": 2071, "oor": 2072, "ournal": 2073, "roll": 2074, "\u0120reason": 2075, "\u0120Cor": 2076, "\u0120Cont": 2077, "\u0120Comp": 2078, "tee": 2079, "though": 2080, "\u0120Feb": 2081, "ridge": 2082, "\u0120really": 2083, "\u0120fr": 2084, "\u0120West": 2085, "\u0120pur": 2086, "\u0120ens": 2087, "\u0120$,": 2088, "\u0120various": 2089, "aul": 2090, "ned": 2091, "\u0120mother": 2092, "\u0120Ne": 2093, "\u0120Inc": 2094, "\u0120wr": 2095, "isc": 2096, "ership": 2097, "\u0120join": 2098, "\u0120Em": 2099, "\u0120keep": 2100, "chie": 2101, "\u0120focus": 2102, "\u0120contact": 2103, "ots": 2104, "\u0120pain": 2105, "\u0120Ag": 2106, "ergy": 2107, "\u0120concer": 2108, "oph": 2109, "\u0120X": 2110, "\u0120daughter": 2111, "\u0120taken": 2112, "\u0120Char": 2113, "\u0120\u00e2\u0122\u013a": 2114, "\u0120vac": 2115, "\u0120personal": 2116, "\u0120conduct": 2117, "\u0120saf": 2118, "\u0120Hist": 2119, "\u0120key": 2120, "ama": 2121, "\u0120hon": 2122, "\u0120going": 2123, "\u0120polit": 2124, "\u0120management": 2125, "\u0120famil": 2126, "ches": 2127, "rated": 2128, "ysis": 2129, "\u0120deg": 2130, "\u0120model": 2131, "And": 2132, "\u0120ago": 2133, "illed": 2134, "ison": 2135, "ruction": 2136, "acy": 2137, "ids": 2138, "IC": 2139, "atures": 2140, "\u0120docu": 2141, "There": 2142, "\u0120whether": 2143, "verage": 2144, "\u0120according": 2145, "\u0120countries": 2146, "\u0120training": 2147, "\u0120exam": 2148, "\".": 2149, "\u0120potential": 2150, "joy": 2151, "\u0120former": 2152, "\u0120subject": 2153, "iol": 2154, "\u0120Act": 2155, "ford": 2156, "ps": 2157, "\u0120scient": 2158, "\u0120opportun": 2159, "\u0120job": 2160, "rate": 2161, "\u0120Research": 2162, "\u0120function": 2163, "\u0120built": 2164, "\u0120property": 2165, "No": 2166, "\u0120However": 2167, "ibility": 2168, "aid": 2169, "\u0120visit": 2170, "atory": 2171, "\u0120What": 2172, "\u0120Her": 2173, "ham": 2174, "val": 2175, "ele": 2176, "elling": 2177, "\u0120origin": 2178, "ask": 2179, "\u0120blood": 2180, "\u0120issues": 2181, "\u0120Reg": 2182, "\u0120entire": 2183, "\u0120prim": 2184, "\u0120obs": 2185, "\u0120enc": 2186, "\u0120miss": 2187, "\u0120mot": 2188, "\u0120President": 2189, "\u0120cou": 2190, "'re": 2191, "\u0120hy": 2192, "\u0120original": 2193, "\u0120created": 2194, "stitute": 2195, "\u0120tradition": 2196, "\u0120range": 2197, "\u0120Tex": 2198, "atur": 2199, "\u0120emb": 2200, "\u0120step": 2201, "\u0120similar": 2202, "raft": 2203, "\u0120low": 2204, "\u0120Ann": 2205, "\u0120With": 2206, "ger": 2207, "hel": 2208, "cember": 2209, "ober": 2210, "\u0120population": 2211, "\u0120travel": 2212, "adem": 2213, "IT": 2214, "\u0120went": 2215, "\u0120relationship": 2216, "now": 2217, "\u0120relig": 2218, "\u0120Gl": 2219, "\u0120online": 2220, "\u0120win": 2221, "\u0120kind": 2222, "\u0120got": 2223, "\u0120six": 2224, "\u0120maint": 2225, "icro": 2226, "ornia": 2227, "asing": 2228, "\u0120significant": 2229, "\u0120flow": 2230, "\u0120tot": 2231, "IG": 2232, "icated": 2233, "\u0120High": 2234, "\u0120\u00e2\u0122\u0136": 2235, "\u0120months": 2236, "\u0120webs": 2237, "\u0120published": 2238, "\u0120cr": 2239, "\u0120wind": 2240, "cle": 2241, "\u0120single": 2242, "\u0120II": 2243, "\u0120programs": 2244, "bor": 2245, "Al": 2246, "\u0120researc": 2247, "\u0120gradu": 2248, "\u0120upon": 2249, "lu": 2250, "\u0120fail": 2251, "\u0120College": 2252, "\u0120rental": 2253, "\u0120news": 2254, "\u0120diff": 2255, "\u0120vot": 2256, "\u0120particip": 2257, "\u0120press": 2258, "\u0120One": 2259, "go": 2260, "\u0120super": 2261, "\u0120mass": 2262, "\u0120close": 2263, "ened": 2264, "\u0120James": 2265, "etic": 2266, "\u0120located": 2267, "Re": 2268, "ief": 2269, "umb": 2270, "\u0120Stud": 2271, "\u0120request": 2272, "\u0120dise": 2273, "uf": 2274, "\u0120enjoy": 2275, "\u0120parents": 2276, "\u0120strong": 2277, "\u0120character": 2278, "uation": 2279, "\u0120park": 2280, "\u0120general": 2281, "rad": 2282, "ules": 2283, "\u0120Qu": 2284, "\u0120Aust": 2285, "\u0120sent": 2286, "\u0120took": 2287, "\u0120Mich": 2288, "\u0120certain": 2289, "\u0120Pe": 2290, "ression": 2291, "\u0120due": 2292, "\u0120Im": 2293, "\u0120compan": 2294, "ees": 2295, "://": 2296, "\u0120body": 2297, "ino": 2298, "\u0120August": 2299, "ouncil": 2300, "selves": 2301, "\u0120board": 2302, "ires": 2303, "ma": 2304, "\u0120California": 2305, "irth": 2306, "\u0120Sm": 2307, "ival": 2308, "lev": 2309, "\u0120building": 2310, "\u0120developed": 2311, "ovember": 2312, "ishing": 2313, "\u0120Ear": 2314, "\u0120Wash": 2315, "\u0120quality": 2316, "orge": 2317, "most": 2318, "wh": 2319, "\u0120impact": 2320, "\u0120pers": 2321, "\u0120accept": 2322, "\u0120houses": 2323, "ift": 2324, "vert": 2325, "aching": 2326, "\u0120live": 2327, "\u0120wide": 2328, "\u0120caus": 2329, "\u0120table": 2330, "\u0120San": 2331, "\u0120dam": 2332, "\u0120yet": 2333, "\u0120industry": 2334, "\u0120studies": 2335, "\u0120sugg": 2336, "\u0120money": 2337, "\u0120suggest": 2338, "ttp": 2339, "\u0120cannot": 2340, "ites": 2341, "\u0120words": 2342, "\u0120Health": 2343, "\u0120date": 2344, "\u0120try": 2345, "\u0120market": 2346, "\u0120works": 2347, "hold": 2348, "ceed": 2349, "ready": 2350, "\u0120).": 2351, "\u0120select": 2352, "\u0120consider": 2353, "uel": 2354, "\u0120Per": 2355, "ctor": 2356, "hib": 2357, "\u0120billion": 2358, "ada": 2359, "ges": 2360, "inary": 2361, "\u0120-.": 2362, "gen": 2363, "\u0120official": 2364, "pond": 2365, "eal": 2366, "\u0120language": 2367, "urb": 2368, "ops": 2369, "\u0120seen": 2370, "atives": 2371, "\u0120thing": 2372, "oms": 2373, "\u0120sense": 2374, "\u0120My": 2375, "AC": 2376, "\u0120organiz": 2377, "\u0120knowledge": 2378, "empt": 2379, "overed": 2380, "\u0120prior": 2381, "\u0120Sch": 2382, "urity": 2383, "\u0120meet": 2384, "\u0120polic": 2385, "\u0120looking": 2386, "\u0120specific": 2387, "\u0120improve": 2388, "\u0120achie": 2389, "\u0120energy": 2390, "\u0120lives": 2391, "\u0120thought": 2392, "\u0120z": 2393, "mb": 2394, "chan": 2395, "cell": 2396, "sc": 2397, "\u0120mov": 2398, "ED": 2399, "\u0120assist": 2400, "\u0120Thom": 2401, "\u0120Afric": 2402, "\u0120fa": 2403, "lex": 2404, "iber": 2405, "alls": 2406, "rug": 2407, "\u0120Pat": 2408, "\u0120half": 2409, "\u0120natural": 2410, "\u0120priv": 2411, "year": 2412, "\u0120mess": 2413, "\u0120began": 2414, "\u0120farm": 2415, "\u0120Rep": 2416, "\u0120dest": 2417, "\u0120compl": 2418, "\u0120growth": 2419, "\u0120either": 2420, "\u0120role": 2421, "\u0120cut": 2422, "\u0120meaning": 2423, "wards": 2424, "rel": 2425, "\u0120century": 2426, "\u0120prob": 2427, "\u0120marketing": 2428, "What": 2429, "ume": 2430, "utions": 2431, "\u0120soft": 2432, "'ve": 2433, "alt": 2434, "\u0120sym": 2435, "\u0120issue": 2436, "\u0120served": 2437, "\u0120Direct": 2438, "\u0120December": 2439, "ster": 2440, "icult": 2441, "\u0120cases": 2442, "\u0120value": 2443, "\u0120David": 2444, "\u0120brain": 2445, "\u0120type": 2446, "ternal": 2447, "based": 2448, "\u0120meeting": 2449, "\u0120cal": 2450, "aries": 2451, "play": 2452, "ze": 2453, "\u0120Mark": 2454, "\u0120bring": 2455, "\u0120article": 2456, "\u0120question": 2457, "\u0120aud": 2458, "\u0120problem": 2459, "\u0120needs": 2460, "\u0120likely": 2461, "\u0120lay": 2462, "\u0120named": 2463, "ospital": 2464, "\u0120already": 2465, "\u0120climate": 2466, "But": 2467, "\u0120January": 2468, "vent": 2469, "orial": 2470, "\u0120however": 2471, "\u0120technology": 2472, "\u0120cancer": 2473, "irl": 2474, "\u0120science": 2475, "\u0120tool": 2476, "dom": 2477, "\u0120Hol": 2478, "\u0120done": 2479, "ection": 2480, "\u0120Art": 2481, "\u0120talk": 2482, "\u0120necess": 2483, "\u0120link": 2484, "\u0120October": 2485, "\u0120Brit": 2486, "duc": 2487, "On": 2488, "rs": 2489, "\u0120marriage": 2490, "\u0120Washington": 2491, "\u0120coll": 2492, "ude": 2493, "ancial": 2494, "amily": 2495, "\u0120After": 2496, "\u0120believe": 2497, "attle": 2498, "\u0120red": 2499, "\u0120Germ": 2500, "\u0120groups": 2501, "()": 2502, "ule": 2503, "\u0120mind": 2504, "To": 2505, "\u0120Part": 2506, "book": 2507, "\u0120president": 2508, "\u0120performance": 2509, "\u0120independ": 2510, "aring": 2511, "\u0120whose": 2512, "\u0120offer": 2513, "lin": 2514, "\u0120Association": 2515, "ett": 2516, "\u0120doing": 2517, "vey": 2518, "ederal": 2519, "ibrary": 2520, "\u0120September": 2521, "ched": 2522, "\u0120food": 2523, "\u0120Home": 2524, "\u0120moved": 2525, "\u0120share": 2526, "\u0120below": 2527, "\u0120beaut": 2528, "\u0120Ac": 2529, "children": 2530, "US": 2531, "\u0120answ": 2532, "\u0120create": 2533, "itation": 2534, "teg": 2535, "gress": 2536, "iple": 2537, "ung": 2538, "ores": 2539, "\u0120added": 2540, "ided": 2541, "'m": 2542, "\u0120series": 2543, "uneral": 2544, "\u0120November": 2545, "\u0120chall": 2546, "\u0120La": 2547, "\u0120led": 2548, "ara": 2549, "\u0120Board": 2550, "eleb": 2551, "\u0120companies": 2552, "lish": 2553, "\u0120activities": 2554, "HE": 2555, "\u0120la": 2556, "AM": 2557, "\u0120patients": 2558, "irit": 2559, "\u0120families": 2560, "ns": 2561, "\u0120treatment": 2562, "\u0120subst": 2563, "ese": 2564, "aced": 2565, "You": 2566, "iously": 2567, "\u0120events": 2568, "\u0120text": 2569, "\u0120makes": 2570, "\u0120$.": 2571, "\u0120Institute": 2572, "\u0120unique": 2573, "\u0120().": 2574, "\u0120Commun": 2575, "\u0120div": 2576, "\u0120Texas": 2577, "\u0120related": 2578, "\u0120arch": 2579, "\u0120source": 2580, "\u0120enough": 2581, "\u0120road": 2582, "\u0120King": 2583, "iction": 2584, "ufact": 2585, "\u0120longer": 2586, "\u0120host": 2587, "\u0120International": 2588, "\u0120states": 2589, "onst": 2590, "iation": 2591, "\u00c3\u00a9": 2592, "ulations": 2593, "\u0120Des": 2594, "\u0120self": 2595, "sy": 2596, "\u0120resources": 2597, "\u0120late": 2598, "\u0120hope": 2599, "\u0120sold": 2600, "\u0120path": 2601, "\u0120Val": 2602, "itary": 2603, "hood": 2604, "iff": 2605, "pecially": 2606, "\u0120regard": 2607, "\u0120sound": 2608, "\u0120considered": 2609, "\u0120researchers": 2610, "anks": 2611, "irm": 2612, "fully": 2613, "nes": 2614, "\u0120Par": 2615, "\u0120log": 2616, "yle": 2617, "estern": 2618, "\u0120vers": 2619, "\u0120repl": 2620, "\u0120Jew": 2621, "rael": 2622, "\u0120nature": 2623, "\u0120instit": 2624, "oe": 2625, "\u0120higher": 2626, "RE": 2627, "\u0120ensure": 2628, "\u0120learning": 2629, "pri": 2630, "\u0120Off": 2631, "erved": 2632, "\u0120media": 2633, "\u0120hom": 2634, "\u0120started": 2635, "istic": 2636, "\u0120total": 2637, "\u0120Tw": 2638, "istry": 2639, "anced": 2640, "ruary": 2641, "ii": 2642, "\u0120letter": 2643, "\u0120Program": 2644, "\u0120comes": 2645, "\u0120affect": 2646, "\u0120difficult": 2647, "\u0120Mem": 2648, "oon": 2649, "\u0120county": 2650, "ervation": 2651, "\u0120size": 2652, "\u0120Vir": 2653, "\u0120pred": 2654, "\u0120paper": 2655, "\u0120student": 2656, "ald": 2657, "mercial": 2658, "ements": 2659, "ronic": 2660, "ications": 2661, "\u0120attack": 2662, "lt": 2663, "\u0120wond": 2664, "\u0120amount": 2665, "\u0120abs": 2666, "\u0120matter": 2667, "\u0120connect": 2668, "\u0120tell": 2669, "\u0120Ob": 2670, "sequ": 2671, "\u0120receive": 2672, "\u0120north": 2673, "\u0120Mus": 2674, "\u0120Miss": 2675, "usion": 2676, "\u0120website": 2677, "\u0120Min": 2678, "\u0120Mrs": 2679, "\u0120shown": 2680, "\u0120imm": 2681, "\u0120action": 2682, "\u0120lo": 2683, "\u0120products": 2684, "\u0120Science": 2685, "\u0120integ": 2686, "\u0120Found": 2687, "\u0120protect": 2688, "\u0120themselves": 2689, "\u0120network": 2690, "\u0120Our": 2691, "\u0120Ant": 2692, "\u0120region": 2693, "ID": 2694, "\u0120Mon": 2695, "\u0120announ": 2696, "\u0120occur": 2697, "ael": 2698, "\u0120Je": 2699, "\u0120datab": 2700, "\u0120behav": 2701, "\u0120international": 2702, "\u0120Street": 2703, "erve": 2704, "\u0120additional": 2705, "\u0120Dec": 2706, "\u0120grant": 2707, "ging": 2708, "\u0120investig": 2709, "\u0120conc": 2710, "\u0120Jes": 2711, "ommend": 2712, "oid": 2713, "amb": 2714, "field": 2715, "action": 2716, "\u0120Society": 2717, "\u0120viol": 2718, "\u0120ess": 2719, "\u0120Paul": 2720, "ump": 2721, "\u0120problems": 2722, "\u0120conditions": 2723, "\u0120Pol": 2724, "\u0120disease": 2725, "\u0120actually": 2726, "\u0120River": 2727, "cies": 2728, "reme": 2729, "ecutive": 2730, "\u0120analysis": 2731, "\u0120House": 2732, "\u0120hours": 2733, "\u0120Rich": 2734, "rang": 2735, "mission": 2736, "iddle": 2737, "na": 2738, "\u0120Educ": 2739, "iment": 2740, "aker": 2741, "\u0120Cour": 2742, "\u0120introdu": 2743, "aging": 2744, "\u0120sure": 2745, "\u0120Rev": 2746, "\u0120medical": 2747, "\u0120itself": 2748, "vention": 2749, "\u0120fall": 2750, "\u0120global": 2751, "ensive": 2752, "\u0120separ": 2753, "\u0120English": 2754, "\u0120contract": 2755, "gu": 2756, "\u0120exc": 2757, "She": 2758, "medi": 2759, "\u0120cause": 2760, "\u0120contribut": 2761, "\u0120evidence": 2762, "\u0120email": 2763, "\u0120vacation": 2764, "When": 2765, "ords": 2766, "LL": 2767, "ari": 2768, "\u0120rate": 2769, "\u0120birth": 2770, "\u0120compet": 2771, "\u0120http": 2772, "ades": 2773, "aint": 2774, "rect": 2775, "\u0120recommend": 2776, "erous": 2777, "\u0120production": 2778, "\u0120numbers": 2779, "\u0120ap": 2780, "undred": 2781, "\u0120court": 2782, "erc": 2783, "\u0120Some": 2784, "\u0120Phil": 2785, "ormal": 2786, "\u0120George": 2787, "\u0120approach": 2788, "\u0120fav": 2789, "\u0120Israel": 2790, "like": 2791, "ball": 2792, "\u0120effective": 2793, "\u0120continue": 2794, "rant": 2795, "\u0120final": 2796, "\u0120efforts": 2797, "ternet": 2798, "____": 2799, "\u0120copy": 2800, "\u0120nation": 2801, "\u0120poin": 2802, "\u0120ful": 2803, "\u0120worked": 2804, "\u0120document": 2805, "isions": 2806, "\u0120rev": 2807, "\u0120individuals": 2808, "\u0120tit": 2809, "\u0120passed": 2810, "\u0120loss": 2811, "\u0120needed": 2812, "\u0120Law": 2813, "\u0120questions": 2814, "rab": 2815, "\u0120standard": 2816, "\u0120third": 2817, "uff": 2818, "\u0120dou": 2819, "\u0120understanding": 2820, "\u0120rather": 2821, "ana": 2822, "\u0120especially": 2823, "\u0120administ": 2824, "\u0120Ke": 2825, "\u0120celeb": 2826, "dd": 2827, "rim": 2828, "ension": 2829, "\u0120East": 2830, "\u0120mechan": 2831, "\u0120mission": 2832, "bon": 2833, "\u0120computer": 2834, "iful": 2835, "\u0120lived": 2836, "\u0120ren": 2837, "\u0120bur": 2838, "\u0120Book": 2839, "\u0120ge": 2840, "ston": 2841, "\u0120histor": 2842, "\u0120Council": 2843, "emet": 2844, "\u0120included": 2845, "iet": 2846, "\u0120Christian": 2847, "onse": 2848, "\u0120collect": 2849, "utes": 2850, "\u0120application": 2851, "nds": 2852, "\u0120anim": 2853, "\u0120hol": 2854, "ata": 2855, "imately": 2856, "\u0120sens": 2857, "\u0120x": 2858, "\u0120gas": 2859, "\u0120associated": 2860, "\u0120chem": 2861, "\u0120dig": 2862, "\u0120command": 2863, "\u0120Indian": 2864, "IV": 2865, "\u0120Pre": 2866, "mittee": 2867, "\u0120carri": 2868, "itiz": 2869, "\u0120More": 2870, "\u0120game": 2871, "\u0120complex": 2872, "\u0120measure": 2873, "ply": 2874, "\u0120assess": 2875, "ae": 2876, "\u0120economic": 2877, "\u0120Rec": 2878, "\u0120terms": 2879, "uk": 2880, "\u0120please": 2881, "\u0120species": 2882, "\u0120prof": 2883, "\u0120wee": 2884, "EC": 2885, "\u0120file": 2886, "\u0120south": 2887, "\u0120Ang": 2888, "\u0120established": 2889, "\u0120taking": 2890, "\u0120Robert": 2891, "ening": 2892, "\u0120requirements": 2893, "sych": 2894, "\u0120activity": 2895, "atter": 2896, "\u0120schools": 2897, "\u0120ten": 2898, "\u0120History": 2899, "\u0120emer": 2900, "\u0120initial": 2901, "\u0120adj": 2902, "\u0120ver": 2903, "nding": 2904, "\u0120estate": 2905, "see": 2906, "\u0120levels": 2907, "time": 2908, "\u0120agre": 2909, "ables": 2910, "\u0120br": 2911, "\u00e2\u0122\u0135": 2912, "\u0120Int": 2913, "emetery": 2914, "\u0120Manag": 2915, "\u0120ri": 2916, "\u0120throughout": 2917, "\u0120Family": 2918, "icles": 2919, "\u0120Lou": 2920, "\u0120heav": 2921, "\u0120break": 2922, "\u0120Thomas": 2923, "\u0120implement": 2924, "\u0120miles": 2925, "\u0120manufact": 2926, "\u0120recent": 2927, "ips": 2928, "OM": 2929, "\u0120purch": 2930, "\u0120February": 2931, "\u00e2\u0122\u00a2": 2932, "izing": 2933, "oura": 2934, "\u0120dr": 2935, "come": 2936, "\u0120plant": 2937, "asc": 2938, "\u0120ground": 2939, "\u0120block": 2940, "\u0120black": 2941, "\u0120regist": 2942, "\u0120software": 2943, "\u0120center": 2944, "\u0120remain": 2945, "wood": 2946, "How": 2947, "\u0120First": 2948, "\u0120active": 2949, "\u0120modern": 2950, "hing": 2951, "www": 2952, "ography": 2953, "\u0120sat": 2954, "\u0120Mor": 2955, "\u0120indic": 2956, "\u0120broad": 2957, "\u0120civil": 2958, "\u0120writing": 2959, "\u0120System": 2960, "\u0120submitted": 2961, "\u0120frequ": 2962, "\u0120features": 2963, "\u0120prin": 2964, "\u0120ut": 2965, "\u0120shows": 2966, "\u0120youth": 2967, "ky": 2968, "\u0120device": 2969, "\u0120thous": 2970, "\u0120Do": 2971, "\u0120Sw": 2972, "riday": 2973, "\u0120drug": 2974, "\u0120+": 2975, "\u0120except": 2976, "\u0120Carol": 2977, "aign": 2978, "\u0120po": 2979, "nces": 2980, "\u0120hundred": 2981, "lying": 2982, "\u0120Not": 2983, "\u0120organization": 2984, "aves": 2985, "pose": 2986, "\u0120adult": 2987, "ship": 2988, "\u0120via": 2989, "\u0120trust": 2990, "\u0120true": 2991, "\u0120autom": 2992, "yond": 2993, "ET": 2994, "\u0120teac": 2995, "\u0120liter": 2996, "\u0120financial": 2997, "lied": 2998, "-.": 2999, "\u0120influ": 3000, "\u0120Cons": 3001, "ST": 3002, "idents": 3003, "\u0120Sen": 3004, "rought": 3005, "\u0120office": 3006, "\u0120ey": 3007, "fect": 3008, "\u0120eth": 3009, "\u0120surface": 3010, "\u0120director": 3011, "\u0120memory": 3012, "\u0120face": 3013, "\u0120Road": 3014, "ivity": 3015, "\u0120www": 3016, "\u0120acqu": 3017, "ached": 3018, "\u0120annual": 3019, "\u0120almost": 3020, "\u0120increased": 3021, "\u0120Service": 3022, "\u0120upd": 3023, "name": 3024, "\u0120Dist": 3025, "imum": 3026, "ancy": 3027, "\u0120materials": 3028, "\u0120wa": 3029, "\u0120pie": 3030, "\u0120Foundation": 3031, "\u0120sil": 3032, "\u0120pict": 3033, "aily": 3034, "elt": 3035, "\u0120Lake": 3036, "mon": 3037, "\u0120code": 3038, "\u0120cle": 3039, "\u0120providing": 3040, "\u0120neg": 3041, "\u0120Virgin": 3042, "\u0120structure": 3043, "\u0120dire": 3044, "\u0120cred": 3045, "lier": 3046, "\u0120.%": 3047, "\u0120currently": 3048, "\u0120organizations": 3049, "\u0120Austral": 3050, "aturday": 3051, "ground": 3052, "\u0120Committee": 3053, "\u0120outside": 3054, "\u0120whole": 3055, "\u0120remains": 3056, "\u0120seems": 3057, "\u0120consum": 3058, "\u0120fig": 3059, "\u0120cross": 3060, "\u0120database": 3061, "eria": 3062, "\u0120night": 3063, "ensus": 3064, "\u0120peace": 3065, "\u0120eval": 3066, "\u0120Don": 3067, "off": 3068, "\u0120opportunity": 3069, "bo": 3070, "\u0120sister": 3071, "\u0120ord": 3072, "\u0120vir": 3073, "\u0120won": 3074, "nic": 3075, "\u0120deal": 3076, "\u0120idea": 3077, "OT": 3078, "\u0120effects": 3079, "ties": 3080, "\u0120recently": 3081, "\u0120Inter": 3082, "\u0120basis": 3083, "\u0120commercial": 3084, "\u0120mach": 3085, "\u0120career": 3086, "\u0120stop": 3087, "\u0120involved": 3088, "\u0120front": 3089, "\u0120Sund": 3090, "\u0120staff": 3091, "reek": 3092, "\u0120write": 3093, "\u0120Fr": 3094, "\u0120vote": 3095, "\u0120Jesus": 3096, "\u0120Cong": 3097, "\u0120someone": 3098, "\u0120quite": 3099, "\u0120inn": 3100, "\u0120designed": 3101, "ondon": 3102, "\u0120obt": 3103, "\u0120Jose": 3104, "\u0120doesn": 3105, "\u0120display": 3106, "\u0120religious": 3107, "\u0120ste": 3108, "ribution": 3109, "\u0120altern": 3110, "\u0120heard": 3111, "\u0120Acc": 3112, "inks": 3113, "\u0120Gra": 3114, "\u0120Company": 3115, "aged": 3116, "itions": 3117, "\u0120depend": 3118, "\u0120Ser": 3119, "\u0120faith": 3120, "\u0120foot": 3121, "arily": 3122, "\u0120political": 3123, "rote": 3124, "\u0120didn": 3125, "\u0120leading": 3126, "eration": 3127, "useum": 3128, "apan": 3129, "\u0120color": 3130, "\u0120Jer": 3131, "\u0120base": 3132, "ming": 3133, "\u0120user": 3134, "pre": 3135, "\u0120install": 3136, "\u0120seven": 3137, "ION": 3138, "\u0120methods": 3139, "\u0120Dan": 3140, "\u0120General": 3141, "\u0120profession": 3142, "\u0120corpor": 3143, "\u0120cy": 3144, "\u0120necessary": 3145, "back": 3146, "\u0120Che": 3147, "\u0120degree": 3148, "\u0120etc": 3149, "\u0120targ": 3150, "\u0120described": 3151, "\u0120nearly": 3152, "lim": 3153, "ises": 3154, "\u0120magn": 3155, "\u0120determine": 3156, "enced": 3157, "rick": 3158, "\u0120Funeral": 3159, "OU": 3160, "\u0120suff": 3161, "outhern": 3162, "reng": 3163, "\u0120forward": 3164, "\u0120Lord": 3165, "\u0120king": 3166, "ideo": 3167, "\u0120Education": 3168, "\u0120=": 3169, "\u0120fem": 3170, "haps": 3171, "\u0120Techn": 3172, "\u0120Dis": 3173, "unch": 3174, "oke": 3175, "\u0120lost": 3176, "li": 3177, "\u0120theory": 3178, "istics": 3179, "atal": 3180, "\u0120mom": 3181, "\u0120Day": 3182, "ING": 3183, "wide": 3184, "cription": 3185, "\u0120reve": 3186, "\u0120mount": 3187, "\u0120reported": 3188, "\u0120domain": 3189, "\u0120News": 3190, "\u0120continued": 3191, "\u0120ball": 3192, "rown": 3193, "\u0120phone": 3194, "'ll": 3195, "\u0120Govern": 3196, "\u0120coming": 3197, "\u0120wonder": 3198, "\u0120capital": 3199, "\u0120categ": 3200, "\u0120bank": 3201, "\u0120invention": 3202, "\u0120Air": 3203, "\u0120ang": 3204, "\u0120attempt": 3205, "\u0120owner": 3206, "\u0120Sam": 3207, "king": 3208, "ought": 3209, "\u0120strateg": 3210, "izes": 3211, "ida": 3212, "\u0120temper": 3213, "rast": 3214, "\u0120deep": 3215, "\u0120Mat": 3216, "\u0120accom": 3217, "burg": 3218, "\u0120Friday": 3219, "Pro": 3220, "\u0120woman": 3221, "\u0120simply": 3222, "\u0120uses": 3223, "\u0120users": 3224, "phe": 3225, "ems": 3226, "\u0120eight": 3227, "\u0120jud": 3228, "\u0120feature": 3229, "\u0120quick": 3230, "\u0120mar": 3231, "\u0120hor": 3232, "airs": 3233, "itch": 3234, "\u0120response": 3235, "\u0120else": 3236, "\u0120Group": 3237, "\u0120limited": 3238, "\u0120Oh": 3239, "\u0120\u00e2\u0122\u00a2": 3240, "\u0120details": 3241, "\u0120From": 3242, "\u0120appropri": 3243, "\u0120largest": 3244, "oud": 3245, "iverse": 3246, "\u0120Bur": 3247, "All": 3248, "\u0120costs": 3249, "\u0120photos": 3250, "\u0120concept": 3251, "\u0120increasing": 3252, "\u0120Earth": 3253, "\u0120bar": 3254, "\u0120Public": 3255, "\u0120flu": 3256, "\u0120learn": 3257, "vis": 3258, "onday": 3259, "\u0120consist": 3260, "\u0120earth": 3261, "vere": 3262, "load": 3263, "\u0120inj": 3264, "\u0120Saturday": 3265, "Ar": 3266, "\u0120star": 3267, "\u0120Island": 3268, "\u0120Office": 3269, "\u0120beginning": 3270, "\u0120stay": 3271, "\u0120listed": 3272, "\u0120ded": 3273, "omet": 3274, "ocr": 3275, "\u0120Cath": 3276, "\u0120extra": 3277, "order": 3278, "\u0120Green": 3279, "\u0120serve": 3280, "oul": 3281, "\u0120Smith": 3282, "\u0120Mil": 3283, "\u0120allows": 3284, "\u0120movement": 3285, "uit": 3286, "\u0120Republic": 3287, "\u0120Court": 3288, "\u0120Red": 3289, "head": 3290, "NA": 3291, "ulty": 3292, "\u0120Virginia": 3293, "\u0120spent": 3294, "\u0120Pal": 3295, "\u0120beautiful": 3296, "gment": 3297, "\u0120identify": 3298, "apter": 3299, "\u0120trail": 3300, "\",": 3301, "\u0120lower": 3302, "\u0120ways": 3303, "\u0120London": 3304, "ico": 3305, "lam": 3306, "\u0120squ": 3307, "\u0120Sunday": 3308, "\u0120Hen": 3309, "semb": 3310, "At": 3311, "\u0120anything": 3312, "\u0120Commission": 3313, "\u0120funding": 3314, "\u0120defin": 3315, "\u0120cand": 3316, "\u0120Journal": 3317, "ying": 3318, "icine": 3319, "\u0120Canada": 3320, "\u0120simple": 3321, "lick": 3322, "\u0120season": 3323, "\u0120coun": 3324, "\u0120China": 3325, "\u0120Hall": 3326, "\u0120Sim": 3327, "ago": 3328, ".;": 3329, "\u0120capt": 3330, "oice": 3331, "\u0120Award": 3332, "\u0120beyond": 3333, "iance": 3334, "error": 3335, "\u0120traditional": 3336, "\u0120Jack": 3337, "van": 3338, "ellow": 3339, "\u0120soon": 3340, "\u0120completed": 3341, "\u0120continu": 3342, "\u0120dead": 3343, "isters": 3344, "\u0120mer": 3345, "\u0120types": 3346, "\u0120parts": 3347, "\u0120military": 3348, "\u0120popular": 3349, "\u0120conne": 3350, "\u0120expected": 3351, "LE": 3352, "\u0120-,": 3353, "ses": 3354, "ili": 3355, "\u0120streng": 3356, "stitution": 3357, "hens": 3358, "\u0120Mass": 3359, "where": 3360, "\u0120image": 3361, "\u0120Japan": 3362, "aving": 3363, "\u0120applications": 3364, "\u0120sett": 3365, "\u0120mag": 3366, "\u0120pack": 3367, "\u0120brought": 3368, "venue": 3369, "\u0120everyone": 3370, "aur": 3371, "By": 3372, "\u0120IS": 3373, "\u0120sch": 3374, "\u0120England": 3375, "\u0120click": 3376, "\u0120hum": 3377, "respond": 3378, "rial": 3379, "\u0120policy": 3380, "ously": 3381, "\u0120practice": 3382, "\u0120While": 3383, "New": 3384, "\u0120film": 3385, "\u0120Dem": 3386, "\u0120Spr": 3387, "\u0120Wind": 3388, "\u0120Trans": 3389, "ocks": 3390, "\u0120er": 3391, "\u0120demonst": 3392, "\u0120leaders": 3393, "\u0120Web": 3394, "\u0120performed": 3395, "\u0120primary": 3396, "\u0120professional": 3397, "\u0120effic": 3398, "\u0120girl": 3399, "ica": 3400, "\u0120sons": 3401, "ynam": 3402, "\u0120walk": 3403, "\u0120estim": 3404, "\u0120private": 3405, "\u0120encoura": 3406, "De": 3407, "\u0120Great": 3408, "oming": 3409, "bit": 3410, "uesday": 3411, "\u0120express": 3412, "\u0120prevent": 3413, "olf": 3414, "ption": 3415, "\u0120fra": 3416, "\u0120usually": 3417, "\u0120behavior": 3418, "\u0120decision": 3419, "\u0120stri": 3420, "\u0120Arch": 3421, "iring": 3422, "orthern": 3423, "So": 3424, "\u0120Mo": 3425, "example": 3426, "isl": 3427, "sec": 3428, "\u0120ability": 3429, "ira": 3430, "\u0120behind": 3431, "\u0120professor": 3432, "\u0120Mart": 3433, "\u0120Port": 3434, "\u0120spirit": 3435, "\u0120himself": 3436, "\u0120Mount": 3437, "\u0120#": 3438, "\u0120damage": 3439, "\u0120message": 3440, "\u0120ep": 3441, "ursday": 3442, "\u0120lif": 3443, "aches": 3444, "\u0120wrote": 3445, "\u0120Bi": 3446, "\u0120quant": 3447, "ha": 3448, "ipment": 3449, "\u0120achieve": 3450, "rest": 3451, "ulated": 3452, "gra": 3453, "\u0120citiz": 3454, "\u0120campaign": 3455, "oring": 3456, "\u0120Ber": 3457, "\u0120particularly": 3458, "\u0120Ret": 3459, "\u0120Profess": 3460, "\u0120white": 3461, "\u0120allowed": 3462, "\u0120clin": 3463, "ecause": 3464, "\u0120cast": 3465, "\u0120grandchildren": 3466, "\u0120AN": 3467, "ength": 3468, "vin": 3469, "\u0120hot": 3470, "\u0120Develop": 3471, "\u0120Michael": 3472, "\u0120projects": 3473, "\u0120loved": 3474, "oma": 3475, "\u0120directly": 3476, "\u0120Mod": 3477, "atform": 3478, "mark": 3479, "\u0120lab": 3480, "\u0120safety": 3481, "\u0120Black": 3482, "\u0120basic": 3483, "\u0120feet": 3484, "\u0120cover": 3485, "\u0120relative": 3486, "\u0120den": 3487, "\u0120micro": 3488, "\u0120lic": 3489, "\u0120bal": 3490, "rench": 3491, "\u0120Nov": 3492, "\u0120expand": 3493, "eds": 3494, "uge": 3495, "anc": 3496, "que": 3497, "\u0120culture": 3498, "\u0120Wed": 3499, "\u0120greater": 3500, "\u0120proced": 3501, "light": 3502, "itude": 3503, "\u0120sem": 3504, "\u0120Joseph": 3505, "\u0120Post": 3506, "\u0120favor": 3507, "sp": 3508, "\u0120followed": 3509, "\u0120Fin": 3510, "\u0120Add": 3511, "\u0120challeng": 3512, "\u0120multiple": 3513, "urance": 3514, "rain": 3515, "AD": 3516, "\u0120Wil": 3517, "\u0120easy": 3518, "\u0120(-": 3519, "\u0120speak": 3520, "\u0120employees": 3521, "obile": 3522, "\u0120Flor": 3523, "well": 3524, "\u0120presented": 3525, "\u0120Press": 3526, "\u0120Monday": 3527, "more": 3528, "\u0120Just": 3529, "\u0120probably": 3530, "\u0120neigh": 3531, "\u0120Charles": 3532, "ws": 3533, "uild": 3534, "\u0120lines": 3535, "\u0120society": 3536, "\u0120bad": 3537, "\u0120(),": 3538, "\u0120communities": 3539, "\u0120immedi": 3540, "\u0120reading": 3541, "OS": 3542, "\u0120British": 3543, "\u0120arri": 3544, "cast": 3545, "astic": 3546, "ience": 3547, "\u0120wanted": 3548, "\u0120carry": 3549, "\u0120existing": 3550, "\u0120European": 3551, "Ph": 3552, "Un": 3553, "\u0120decl": 3554, "\u0120unit": 3555, "ota": 3556, "\u0120refer": 3557, "\u0120larger": 3558, "\u0120attend": 3559, "AP": 3560, "\u0120proposed": 3561, "\u0120partn": 3562, "\u0120demand": 3563, "\u0120toward": 3564, "\u0120novel": 3565, "aught": 3566, "\u0120expos": 3567, "osing": 3568, "\u0120Mill": 3569, "\u0120Director": 3570, "ademic": 3571, "\u0120average": 3572, "\u0120tour": 3573, "\u0120Frank": 3574, "\u0120nothing": 3575, "\u0120tree": 3576, "ech": 3577, "\u0120colle": 3578, "edom": 3579, "nesday": 3580, "\u0120changed": 3581, "\u0120places": 3582, "\u0120comments": 3583, "\u0120web": 3584, "\u0120therefore": 3585, "\u0120summer": 3586, "abeth": 3587, "\u0120ple": 3588, "itable": 3589, "\u0120Vol": 3590, "ester": 3591, "\u0120bond": 3592, "\u0120Ill": 3593, "cks": 3594, "\u0120operating": 3595, "wise": 3596, "\u0120sy": 3597, "\u0120benefits": 3598, "text": 3599, "\u0120Cemetery": 3600, "\u0120stories": 3601, "cis": 3602, "With": 3603, "\u0120takes": 3604, "\u0120check": 3605, "\u0120Services": 3606, "\u0120::": 3607, "ux": 3608, "\u0120Ev": 3609, "\u0120Pri": 3610, "\u0120sexual": 3611, "vest": 3612, "\u0120responsible": 3613, "\u0120prec": 3614, "sey": 3615, "omb": 3616, "\u0120Many": 3617, "\u0120critical": 3618, "\u0120mid": 3619, "\u0120nar": 3620, "\u0120leave": 3621, "\u0120qual": 3622, "\u0120rout": 3623, "\u0120security": 3624, "\u0120successful": 3625, "hemat": 3626, "\u0120OF": 3627, "\u0120Union": 3628, "iding": 3629, "icip": 3630, "\u0120reflect": 3631, "enty": 3632, "ciences": 3633, "\u0120approx": 3634, "win": 3635, "\u0120vict": 3636, "\u0120inside": 3637, "men": 3638, "uthors": 3639, "ki": 3640, "\u0120Br": 3641, "\u0120comment": 3642, "bl": 3643, "\u0120reports": 3644, "\u0120physical": 3645, "pper": 3646, "II": 3647, "\u0120Russ": 3648, "\u0120IN": 3649, "\u0120points": 3650, "\u0120regular": 3651, "\u0120illust": 3652, "\u0120direction": 3653, "\u0120choose": 3654, "\u0120gives": 3655, "\u0120enter": 3656, "\u0120developing": 3657, "\u0120Now": 3658, "house": 3659, "One": 3660, "\u0120chann": 3661, "\u0120Ohio": 3662, "\u0120resource": 3663, "\u0120told": 3664, "Sh": 3665, "\u0120PM": 3666, "\u0120models": 3667, "\u0120correspond": 3668, "\u0120values": 3669, "\u0120instru": 3670, "\u0120arrang": 3671, "\u0120cert": 3672, "\u0120compon": 3673, "\u0120sus": 3674, "\u0120ter": 3675, "\u0120purpose": 3676, "ado": 3677, "hest": 3678, "\u0120Net": 3679, "\u0120asked": 3680, "\u0120Richard": 3681, "\u0120store": 3682, "itz": 3683, "EL": 3684, ":||": 3685, "\u0120Mex": 3686, "\u0120department": 3687, "\u0120location": 3688, "state": 3689, "\u0120earlier": 3690, "\u0120goal": 3691, "\u0120election": 3692, "encies": 3693, "wor": 3694, "\u0120threat": 3695, "isf": 3696, "\u0120sal": 3697, "\u0120employee": 3698, "\u0120Engine": 3699, "add": 3700, "\u0120Tuesday": 3701, "\u0120ult": 3702, "\u0120bound": 3703, "\u0120party": 3704, "unte": 3705, "\u0120White": 3706, "inated": 3707, "ixed": 3708, "asons": 3709, "\u0120mill": 3710, "iles": 3711, "\u0120fight": 3712, "\u0120highly": 3713, "\u0120Congress": 3714, "\u0120THE": 3715, "\u0120Mont": 3716, "\u0120aware": 3717, "\u0120stem": 3718, "\u0120Sal": 3719, "\u0120appropriate": 3720, "\u0120wild": 3721, "\u0120ideas": 3722, "\u0120Us": 3723, "\u0120central": 3724, "\u0120Eliz": 3725, "\u0120warm": 3726, "\u0120normal": 3727, "\u0120easily": 3728, "roy": 3729, "\u0120accur": 3730, "iers": 3731, "\u0120mor": 3732, "igned": 3733, "\u0120prot": 3734, "\u0120exact": 3735, "\u0120surround": 3736, "ribute": 3737, "\u0120collection": 3738, "\u0120adop": 3739, "\u0120evolution": 3740, "\u0120resident": 3741, "\u0120brothers": 3742, "\u0120wood": 3743, "\u0120pattern": 3744, "\u0120track": 3745, "\u0120fully": 3746, "\u0120Louis": 3747, "leg": 3748, "\u0120answer": 3749, "standing": 3750, "\u0120Medical": 3751, "\u0120weeks": 3752, "\u0120Thursday": 3753, "\u0120Are": 3754, "cest": 3755, "\u0120Camp": 3756, "\u0120essential": 3757, "\u0120Of": 3758, "\u0120platform": 3759, "\u0120card": 3760, "\u0120Information": 3761, "\u0120whom": 3762, "\u0120unc": 3763, "\u0120bit": 3764, "\u0120pages": 3765, "\u0120pressure": 3766, "\u0120perfect": 3767, "used": 3768, "\u0120rot": 3769, "osis": 3770, "\u0120safe": 3771, "\u0120release": 3772, "\u0120Obama": 3773, "Ab": 3774, "\u0120video": 3775, "overy": 3776, "\u0120scientific": 3777, "\u0120patient": 3778, "\u0120sen": 3779, "\u0120factors": 3780, "\u0120rentals": 3781, "\u0120der": 3782, "\u0120letters": 3783, "\u0120mention": 3784, "\u0120race": 3785, "CC": 3786, "\u0120communication": 3787, "\u0120variety": 3788, "\u0120trad": 3789, "\u0120Hill": 3790, "\u0120und": 3791, "\u0120force": 3792, "\u0120initi": 3793, "My": 3794, "\u0120nuc": 3795, "iter": 3796, "\u0120daily": 3797, "\u0120survived": 3798, "pite": 3799, "\u0120Penn": 3800, "Ex": 3801, "\u0120joined": 3802, "\u0120forms": 3803, "\u0120AM": 3804, "\u0120Business": 3805, "\u0120Sy": 3806, "\u0120laws": 3807, "\u0120box": 3808, "\u0120knew": 3809, "\u0120Town": 3810, "\u0120offered": 3811, "\u0120prep": 3812, "\u0120Here": 3813, "\u0120tou": 3814, "illing": 3815, "\u0120feed": 3816, "\u0120Sur": 3817, "\u0120purs": 3818, "\u0120Human": 3819, "\u0120reduce": 3820, "\u0120elements": 3821, ");": 3822, "\u0120correct": 3823, "\u0120west": 3824, "change": 3825, "\u0120Jud": 3826, "kn": 3827, "apers": 3828, "\u0120equipment": 3829, "ogy": 3830, "\u0120enh": 3831, "oted": 3832, "\u0120impl": 3833, "\u0120worth": 3834, "\u0120progress": 3835, "oday": 3836, "\u0120Francis": 3837, "IP": 3838, "\u0120India": 3839, "\u0120lack": 3840, "OL": 3841, "\u0120formed": 3842, "isher": 3843, "\u0120bud": 3844, "force": 3845, "\u0120plans": 3846, "\u0120debt": 3847, "\u0120produce": 3848, "law": 3849, "ansas": 3850, "\u0120tum": 3851, "ider": 3852, "\u0120Library": 3853, "oo": 3854, "aly": 3855, "\u0120candid": 3856, "\u0120excell": 3857, "\u0120skills": 3858, "\u0120subs": 3859, "ander": 3860, "!!": 3861, "\u0120older": 3862, "\u0120Other": 3863, "\u0120respond": 3864, "\u0120fair": 3865, "\u0120weight": 3866, "\u0120Bay": 3867, "\u0120images": 3868, "inate": 3869, "lor": 3870, "EO": 3871, "\u0120Hospital": 3872, "rapy": 3873, "ona": 3874, "\u0120giving": 3875, "\u0120status": 3876, "DA": 3877, "berg": 3878, "\u0120saw": 3879, "\u0120attention": 3880, "\u0120defined": 3881, "\u0120teaching": 3882, "\u0120extreme": 3883, "\u0120collabor": 3884, "EM": 3885, "\u0120majority": 3886, "\u0120everything": 3887, "\u0120schol": 3888, "\u0120Catholic": 3889, "\u0120independent": 3890, "\u0120fast": 3891, "\u0120thus": 3892, "\u0120(.": 3893, "\u0120remember": 3894, "rical": 3895, "\u0120insp": 3896, "ares": 3897, "phone": 3898, "\u0120gold": 3899, "\u0120nor": 3900, "\u0120doll": 3901, "\u0120Wednesday": 3902, "fort": 3903, "\u0120lands": 3904, "\u0120Del": 3905, "\u0120Rel": 3906, "\u0120beg": 3907, "with": 3908, "iques": 3909, "\u0120trying": 3910, "\u0120Florida": 3911, "\u0120Spe": 3912, "\u0120Henry": 3913, "\u0120Bel": 3914, "\u0120green": 3915, "\u0120Community": 3916, "zz": 3917, "\u0120identified": 3918, "ingu": 3919, "ulate": 3920, "retary": 3921, "itect": 3922, "umn": 3923, "\u0120Internet": 3924, "mitted": 3925, "\u0120princ": 3926, "\u0120Year": 3927, "cean": 3928, "\u0120master": 3929, "ius": 3930, "essel": 3931, "\u0120completely": 3932, "pan": 3933, "\u0120becomes": 3934, "\u0120ST": 3935, "\u0120Bank": 3936, "\u0120announced": 3937, "\u0120Management": 3938, "\u0120UK": 3939, "ests": 3940, "\u0120Div": 3941, "ette": 3942, "oper": 3943, "\u0120tools": 3944, "\u0120note": 3945, "\u0120rele": 3946, "\u0120generally": 3947, "\u0120hear": 3948, "\u0120draw": 3949, "key": 3950, "\u0120boy": 3951, "PA": 3952, "\u0120statement": 3953, "\u0120hands": 3954, "ession": 3955, "\u0120French": 3956, "\u0120Valley": 3957, "\u0120wel": 3958, "\u0120||": 3959, "\u0120Each": 3960, "\u0120saying": 3961, "aled": 3962, "icon": 3963, "\u0120residents": 3964, "\u0120prefer": 3965, "\u0120innov": 3966, "\u0120Americans": 3967, "\u0120Then": 3968, "\u0120Club": 3969, "\u0120inform": 3970, "\u0120tal": 3971, "\u0120getting": 3972, "\u0120mis": 3973, "\u0120numerous": 3974, "icago": 3975, "\u0120transfer": 3976, "\u0120compos": 3977, "den": 3978, "\u0120instead": 3979, "\u0120Jr": 3980, "\u0120controll": 3981, "\u0120properties": 3982, "\u0120pp": 3983, "\u0120trade": 3984, "\u0120acres": 3985, "room": 3986, "\u0120target": 3987, "\u0120thousands": 3988, "atest": 3989, "\u0120Rent": 3990, "\u0120//": 3991, "lands": 3992, "anta": 3993, "\u0120previous": 3994, "\u0120Ancient": 3995, "\u0120bridge": 3996, "uration": 3997, "That": 3998, "rian": 3999, "\u0120preced": 4000, "\u0120exhib": 4001, "\u0120tele": 4002, "\u0120generation": 4003, "Cl": 4004, "\u0120alone": 4005, "\u0120couple": 4006, "\u0120customers": 4007, "eles": 4008, "\u0120Carolina": 4009, "\u0120Hel": 4010, "\u0120offers": 4011, "\u0120gave": 4012, "\u0120Development": 4013, "\u0120District": 4014, "\u0120construction": 4015, "antic": 4016, "\u0120establish": 4017, "\u0120Plan": 4018, "\u0120moving": 4019, "\u0120Most": 4020, "issions": 4021, "\u0120fear": 4022, "\u0120African": 4023, "\u0120Jewish": 4024, "nel": 4025, "abit": 4026, "oyal": 4027, "\u0120applied": 4028, "\u0120Elizabeth": 4029, "unction": 4030, "\u0120presence": 4031, "\u0120conducted": 4032, "oses": 4033, "\u0120reference": 4034, "orning": 4035, "\u0120selected": 4036, "SC": 4037, "\u0120thinking": 4038, "\u0120ship": 4039, "\u0120files": 4040, "\u0120operation": 4041, "\u0120executive": 4042, "\u0120Main": 4043, "\u0120leader": 4044, "\u0120labor": 4045, "ocal": 4046, "Ad": 4047, "Our": 4048, "\u0120style": 4049, "\u0120Fore": 4050, "After": 4051, "\u0120east": 4052, "ils": 4053, "\u0120somet": 4054, "\u0120interview": 4055, "\u0120aspect": 4056, "\u0120goes": 4057, "\u0120federal": 4058, "\u0120Ham": 4059, "pective": 4060, "\u0120carbon": 4061, "\u0120vill": 4062, "\u0120funds": 4063, "\u0120Wood": 4064, "pped": 4065, "\u0120Mac": 4066, "\u0120reach": 4067, "\u0120decades": 4068, "\u0120Sol": 4069, "\u0120sequ": 4070, "\u0120solution": 4071, "atically": 4072, "\u0120finally": 4073, "Be": 4074, "ula": 4075, "\u0120growing": 4076, "\u0120Brown": 4077, "\u0120returned": 4078, "\u0120fit": 4079, "\u0120authors": 4080, "\u0120Your": 4081, "\u0120sust": 4082, "\u0120leadership": 4083, "\u0120Sun": 4084, "\u0120honor": 4085, "rig": 4086, "\u0120perhaps": 4087, "\u0120psych": 4088, "oving": 4089, "\u0120station": 4090, "\u0120Project": 4091, "iant": 4092, "ny": 4093, "From": 4094, "\u0120Cur": 4095, "\u0120planning": 4096, "\u0120room": 4097, "\u0120band": 4098, "orpor": 4099, "\u0120anyone": 4100, "\u0120Compl": 4101, "\u0120slow": 4102, "Com": 4103, "ros": 4104, "\u0120Museum": 4105, "\u0120clean": 4106, "actions": 4107, "TM": 4108, "\u0120Ben": 4109, "\u0120internal": 4110, "\u0120Up": 4111, "\u0120calc": 4112, "\u0120Africa": 4113, "\u0120digital": 4114, "\u0120limit": 4115, "RO": 4116, "BC": 4117, "\u0120core": 4118, "\u0120discovered": 4119, "\u0120diagn": 4120, "\u0120capac": 4121, "\u0120drive": 4122, "\u0120FIG": 4123, "ague": 4124, "\u0120buy": 4125, "\u0120educational": 4126, "road": 4127, "\u0120Nav": 4128, "\u0120Sub": 4129, "These": 4130, "\u0120choice": 4131, "\u0120Out": 4132, "\u0120stage": 4133, "'d": 4134, "\u0120blog": 4135, "\u0120continues": 4136, "\u0120processes": 4137, "ault": 4138, "\u0120fat": 4139, "BO": 4140, "\u0120shared": 4141, "\u0120Work": 4142, "SA": 4143, "RA": 4144, "place": 4145, "known": 4146, "\u0120stru": 4147, "\u0120Peter": 4148, "\u0120cop": 4149, "\u0120environmental": 4150, "\u0120Bra": 4151, "\u0120relev": 4152, "\u0120courses": 4153, "\u0120spread": 4154, "\u0120allowing": 4155, "\u0120length": 4156, "\u0120engineering": 4157, "\u0120ones": 4158, "\u0120<": 4159, "\u0120Life": 4160, "\u0120journal": 4161, "amer": 4162, "\u0120Army": 4163, "\u0120vessel": 4164, "\u0120unto": 4165, "\u0120requires": 4166, "\u0120Own": 4167, "\u0120charg": 4168, "\u0120occup": 4169, "rey": 4170, "\u0120effort": 4171, "\u0120Bill": 4172, "\u0120although": 4173, "verse": 4174, "\u0120owners": 4175, "last": 4176, "\u0120sun": 4177, "umber": 4178, "\u0120ye": 4179, "raw": 4180, "ENT": 4181, "ey": 4182, "mosp": 4183, "fficient": 4184, "itors": 4185, "rence": 4186, "\u00c3\u00a2": 4187, "\u0120useful": 4188, "\u0120Pet": 4189, "\u0120players": 4190, "\u0120chair": 4191, "\u0120scientists": 4192, "\u0120survey": 4193, "\u0120minor": 4194, "\u0120noted": 4195, "ologies": 4196, "\u0120ethnic": 4197, "\u0120ancest": 4198, "\u0120watch": 4199, "\u0120moment": 4200, "arter": 4201, "\u0120happy": 4202, "olec": 4203, "\u0120Sar": 4204, "\u0120Grand": 4205, "\u0120Australia": 4206, "\u0120analy": 4207, "\u0120benefit": 4208, "\u0120Chicago": 4209, "rief": 4210, "\u0120creating": 4211, "\u0120),": 4212, "\u0120operations": 4213, "\u0120consult": 4214, "\u0120appears": 4215, "\u0120characters": 4216, "\u0120chemical": 4217, "\u0120ir": 4218, "porary": 4219, "\u0120aim": 4220, "mas": 4221, "\u0120satisf": 4222, "\u0120citizens": 4223, "\u0120minutes": 4224, "\u0120Read": 4225, "\u0120highest": 4226, "lies": 4227, "\u0120running": 4228, "\u0120sea": 4229, "amber": 4230, "tic": 4231, "\u0120pan": 4232, "\u0120interesting": 4233, "\u0120foreign": 4234, "oes": 4235, "inct": 4236, "ented": 4237, "life": 4238, "imal": 4239, "rative": 4240, "\u0120Op": 4241, "\u0120sites": 4242, "\u0120UN": 4243, "kins": 4244, "\u0120Rock": 4245, "They": 4246, "\u0120vision": 4247, "\u0120Memorial": 4248, "\u0120Mer": 4249, "\u0120rise": 4250, "\u0120coast": 4251, "west": 4252, "\u0120oil": 4253, "\u0120battle": 4254, "\u0120reb": 4255, "\u0120rules": 4256, "\u0120planet": 4257, "IL": 4258, "\u0120wonderful": 4259, "\u0120detect": 4260, "iday": 4261, "\u0120*": 4262, "\u0120max": 4263, "\u0120owned": 4264, "ranch": 4265, "gl": 4266, "\u0120adapt": 4267, "\u0120interests": 4268, "\u0120config": 4269, "\u0120sell": 4270, "\u0120poor": 4271, "asure": 4272, "\u0120Alex": 4273, "iable": 4274, "\u0120radio": 4275, "ibly": 4276, "ructure": 4277, "\u0120Since": 4278, "part": 4279, "ially": 4280, "\u0120contains": 4281, "care": 4282, "\u0120Let": 4283, "\u0120interested": 4284, "\u0120rare": 4285, "\u0120Bible": 4286, "\u0120workers": 4287, "\u0120starting": 4288, "\u0120approximately": 4289, "\u0120situation": 4290, "\u0120relationships": 4291, "\u0120compris": 4292, "\u0120Gold": 4293, "ube": 4294, "\u0120plants": 4295, "igan": 4296, "\u0120Fund": 4297, "arden": 4298, "\u0120extend": 4299, "\u0120pen": 4300, "\u0120Columb": 4301, "\u0120title": 4302, "\u0120Scott": 4303, "CH": 4304, "\u0120placed": 4305, "arian": 4306, "\u0120faculty": 4307, "UR": 4308, "ero": 4309, "\u0120charge": 4310, "aling": 4311, "\u0120quickly": 4312, "ste": 4313, "la": 4314, "orage": 4315, "\u0120doub": 4316, "\u0120advant": 4317, "can": 4318, "\u0120transl": 4319, "\u0120discussion": 4320, "clus": 4321, "grand": 4322, "rehens": 4323, "\u0120spect": 4324, "\u0120Care": 4325, "\u0120Administ": 4326, "\u0120steps": 4327, "Res": 4328, "\u0120raised": 4329, "\u0120mechanism": 4330, "edia": 4331, "\u0120isn": 4332, "\u0120electric": 4333, "\u0120NY": 4334, "itt": 4335, "ken": 4336, "\u0120college": 4337, "ounds": 4338, "\u0120caused": 4339, "reci": 4340, "\u0120See": 4341, "\u0120sales": 4342, "\u0120exerc": 4343, "ylvan": 4344, "\u0120map": 4345, "\u0120Review": 4346, "ciples": 4347, "\u0120female": 4348, "\u0120Stat": 4349, "\u0120wall": 4350, "rees": 4351, "\u0120native": 4352, "\u0120output": 4353, "ams": 4354, "\u0120send": 4355, "\u0120resist": 4356, "\u0120killed": 4357, "\u0120layer": 4358, "\u0120adjust": 4359, "\u0120surpr": 4360, "inese": 4361, "\u0120connection": 4362, "\u0120German": 4363, "\u0120context": 4364, "eared": 4365, "\u0120Class": 4366, "\u0120bill": 4367, "\u0120Central": 4368, "\u0120har": 4369, "pid": 4370, "\u0120Nor": 4371, "sembly": 4372, "ircraft": 4373, "\u0120stars": 4374, "cipl": 4375, "\u0120positive": 4376, "\u0120approved": 4377, "cape": 4378, "ping": 4379, "\u0120Bre": 4380, "\u0120volunte": 4381, "MS": 4382, "\u0120Met": 4383, "\u0120USA": 4384, "\u00c3\u0143": 4385, "\u0120devices": 4386, "\u0120legal": 4387, "\u0120maintain": 4388, "Faces": 4389, "\u0120fields": 4390, "\u0120advert": 4391, "\u0120veter": 4392, "\u0120ast": 4393, "\u0120clos": 4394, "ament": 4395, "\u0120techniques": 4396, "\u0120lik": 4397, "Con": 4398, "\u0120Also": 4399, "\u0120rates": 4400, "\u0120manner": 4401, "\u0120bott": 4402, "\u0120contain": 4403, "\u0120dark": 4404, "iency": 4405, "\u0120sle": 4406, "\u0120argu": 4407, "aters": 4408, "\u0120AncientFaces": 4409, "\u0120speed": 4410, "\u0120produced": 4411, "\u0120university": 4412, "\u0120Western": 4413, "\u0120version": 4414, "\u0120Germany": 4415, "\u0120legisl": 4416, "Is": 4417, "ped": 4418, "istan": 4419, "\u0120powerful": 4420, "\u0120sometimes": 4421, "\u0120forces": 4422, "\u0120academic": 4423, "enge": 4424, "\u0120traffic": 4425, "\u0120Social": 4426, "azine": 4427, "abilities": 4428, "\u0120clinical": 4429, ".|": 4430, "\u0120server": 4431, "\u0120calls": 4432, "While": 4433, "\u0120otherwise": 4434, "\u0120locations": 4435, "\u0120compared": 4436, "\u0120prem": 4437, "\u0120Mag": 4438, "active": 4439, "ellings": 4440, "\u0120truth": 4441, "\u0120pick": 4442, "\u0120Rob": 4443, "\u0120officials": 4444, "\u0120Sum": 4445, "\u0120repe": 4446, "PS": 4447, "\u0120Report": 4448, "\u0120gain": 4449, "\u0120rich": 4450, "iled": 4451, "\u0120overall": 4452, "\u0120oppos": 4453, "Se": 4454, "\u0120phase": 4455, "Americ": 4456, "met": 4457, "\u0120bird": 4458, "\u0120kept": 4459, "ellig": 4460, "\u0120Johnson": 4461, "\u0120Clin": 4462, "\u0120middle": 4463, "ylvania": 4464, "ita": 4465, "rates": 4466, "\u0120hospital": 4467, "\u0120imag": 4468, "mar": 4469, "\u0120multi": 4470, "\u0120freedom": 4471, "\u0120closed": 4472, "ogle": 4473, "ifically": 4474, "\u0120games": 4475, "\u0120showed": 4476, "\u0120dynam": 4477, "cont": 4478, "\u0120cold": 4479, "\u0120corn": 4480, "\u0120dang": 4481, "\u0120attract": 4482, "\u0120recip": 4483, "\u0120gal": 4484, "\u0120During": 4485, "\u0120Bapt": 4486, "ocol": 4487, "\u0120nuclear": 4488, "\u0120sources": 4489, "\u0120temperature": 4490, "uty": 4491, "\u0120Fire": 4492, "\u0120Inst": 4493, "\u0120picture": 4494, "\u0120FR": 4495, "\u0120voice": 4496, "iny": 4497, "\u0120changing": 4498, "\u0120attended": 4499, "\u0120functions": 4500, "inger": 4501, "\u0120Under": 4502, "\u0120Kn": 4503, "\u0120enjoyed": 4504, "\u0120regarding": 4505, "bur": 4506, "\u0120load": 4507, "tion": 4508, "\u0120CO": 4509, "\u0120opportunities": 4510, "\u0120portion": 4511, "\u0120Professor": 4512, "\u0120Atl": 4513, "\u0120difference": 4514, "ricult": 4515, "\u0120HIV": 4516, "\u0120hyd": 4517, "\u0120embod": 4518, "\u0120univers": 4519, "eg": 4520, "\u0120Government": 4521, "\u0120hop": 4522, "gency": 4523, "cious": 4524, "ishes": 4525, "\u0120protection": 4526, "\u0120Fre": 4527, "\u0120chief": 4528, "\u0120determined": 4529, "\u0120constant": 4530, "\u0120Fort": 4531, "resh": 4532, "\u0120element": 4533, "\u0120Well": 4534, "\u0120Gr": 4535, "\u0120Elect": 4536, "\u0120Old": 4537, "\u0120Federal": 4538, "\u0120Although": 4539, "\u0120ox": 4540, "ena": 4541, "\u0120paid": 4542, "\u0120surg": 4543, "ographic": 4544, "\u0120promot": 4545, "\u0120motor": 4546, "eed": 4547, "\u0120screen": 4548, "ployment": 4549, "\u0120France": 4550, "\u0120learned": 4551, "\u0120Good": 4552, "works": 4553, "ooking": 4554, "\u0120sisters": 4555, "\u0120shop": 4556, "\u0120dedicated": 4557, "\u0120stock": 4558, "\u0120\u00e2": 4559, "\u0120corporate": 4560, "och": 4561, "\u0120chance": 4562, "ferences": 4563, "Mr": 4564, "\u0120assum": 4565, "\u0120song": 4566, "\u0120persons": 4567, "\u0120firm": 4568, "\u0120pray": 4569, "\u0120Mal": 4570, "\u0120adults": 4571, "\u0120cond": 4572, "\u0120articles": 4573, "\u0120McC": 4574, "\u0120Av": 4575, "\u0120electronic": 4576, "\u0120Their": 4577, "\u0120nut": 4578, "\u0120Jeff": 4579, "unci": 4580, "\u0120machine": 4581, "\u0120removed": 4582, "):": 4583, "\u0120cra": 4584, "ception": 4585, "\u0120substant": 4586, "ij": 4587, "going": 4588, "\u0120clearly": 4589, "\u0120Bet": 4590, "\u0120evalu": 4591, "\u0120piece": 4592, "\u0120Ira": 4593, "\u0120rule": 4594, "\u0120Mad": 4595, "\u0120Technology": 4596, "\u0120People": 4597, "odes": 4598, "\u0120district": 4599, "IM": 4600, "osen": 4601, "\u0120Ell": 4602, "\u0120>": 4603, "\u0120roll": 4604, "\u0120Georg": 4605, "\u0120swe": 4606, "\u0120relevant": 4607, "\u0120mut": 4608, "\u0120guid": 4609, "\u0120scen": 4610, "\u0120anti": 4611, "\u0120Gene": 4612, "\u0120graduate": 4613, "More": 4614, "\u0120Jul": 4615, "\u0120cultural": 4616, "\u0120previously": 4617, "\u0120Lee": 4618, "CA": 4619, "\u0120Martin": 4620, "\u0120offering": 4621, "ady": 4622, "Dr": 4623, "\u0120Over": 4624, "\u0120atmosp": 4625, "\u0120Way": 4626, "sell": 4627, "\u0120nan": 4628, "\u0120gay": 4629, "\u0120happened": 4630, "\u0120wrong": 4631, "\u0120commission": 4632, "\u0120happen": 4633, "\u0120Democr": 4634, "\u0120spring": 4635, "\u0120Que": 4636, "\u0120morning": 4637, "\u0120capacity": 4638, "\u0120Civil": 4639, "IA": 4640, "John": 4641, "\u0120Mexico": 4642, "-,": 4643, "\u0120serious": 4644, "ria": 4645, "ademy": 4646, "\u0120coverage": 4647, "\u0120Chinese": 4648, "\u0120speech": 4649, "rieved": 4650, "\u0120circum": 4651, "erry": 4652, "\u0120strength": 4653, "\u0120die": 4654, "atin": 4655, "phas": 4656, "\u0120fif": 4657, "\u0120fram": 4658, "\u0120client": 4659, "\u0120follows": 4660, "spe": 4661, "\u0120kids": 4662, "sylvania": 4663, "osh": 4664, "mond": 4665, "lo": 4666, "\u0120Long": 4667, "set": 4668, "itness": 4669, "\u0120appreci": 4670, "\u0120famous": 4671, "\u0120Id": 4672, "\u0120Micro": 4673, "\u0120Ty": 4674, "\u0120distribut": 4675, "\u0120failure": 4676, "\u0120veh": 4677, "\u0120af": 4678, "\u0120contributions": 4679, "\u0120committee": 4680, "gn": 4681, "\u0120fuel": 4682, "\u0120cities": 4683, "\u0120consequ": 4684, "omy": 4685, "\u0120Space": 4686, "\u0120institution": 4687, "\u0120pron": 4688, "udd": 4689, "\u0120tiss": 4690, "\u0120Ir": 4691, "\u0120objects": 4692, "rupt": 4693, "level": 4694, "\u0120myself": 4695, "DF": 4696, "\u0120breast": 4697, "\u0120expert": 4698, "\u0120Creek": 4699, "\u0120Wal": 4700, "\u0120Pan": 4701, "\u0120convers": 4702, "\u0120Method": 4703, "\u0120Mars": 4704, "fit": 4705, "\u0120pros": 4706, "artments": 4707, "\u0120Phys": 4708, "\u0120Because": 4709, "\u0120animals": 4710, "\u0120Vis": 4711, "\u0120wid": 4712, "\u0120decided": 4713, "ucky": 4714, "\u0120Sand": 4715, "\u0120stress": 4716, "\u0120options": 4717, "\u0120Super": 4718, "\u0120glass": 4719, "oston": 4720, "\u0120recognition": 4721, "Last": 4722, "\u0120proceed": 4723, "hips": 4724, "\u0120findings": 4725, "acific": 4726, "inois": 4727, "\u0120Win": 4728, "\u0120supported": 4729, "\u0120carried": 4730, "\u0120deliver": 4731, "\u0120signal": 4732, "\u0120cru": 4733, "\u0120sin": 4734, "\u0120figure": 4735, "\u0120influence": 4736, ".'": 4737, "oration": 4738, "\u0120awarded": 4739, "\u0120accompl": 4740, "\u0120construct": 4741, "ka": 4742, "lig": 4743, "iling": 4744, "\u0120recognized": 4745, "IR": 4746, "\u0120eventually": 4747, "cher": 4748, "\u0120ec": 4749, "\u0120Di": 4750, "\u0120Owner": 4751, "rehensive": 4752, "\u0120reasons": 4753, "\u0120rock": 4754, "ruit": 4755, "\u0120mur": 4756, "\u0120Tom": 4757, "cend": 4758, "\u0120dram": 4759, "\u0120pow": 4760, "\u0120Even": 4761, "\u0120pet": 4762, "amental": 4763, "\u0120dim": 4764, "\u0120stra": 4765, "abet": 4766, "\u0120stream": 4767, "\u0120Corpor": 4768, "ashion": 4769, "\u0120Windows": 4770, "\u0120channel": 4771, "\u0120AND": 4772, "poses": 4773, "\u0120fell": 4774, "ker": 4775, "anned": 4776, "ainant": 4777, "\u0120architect": 4778, "\u0120Rights": 4779, "icate": 4780, "\u0120finding": 4781, "\u0120agency": 4782, "\u0120conference": 4783, "\u0120square": 4784, "\u0120income": 4785, "\u0120rat": 4786, "\u0120experienced": 4787, "\u0120Pennsylvania": 4788, "\u0120Rad": 4789, "itter": 4790, "\u0120played": 4791, "\u0120opin": 4792, "\u0120turned": 4793, "\u0120Iraq": 4794, "\u0120monitor": 4795, "\u0120price": 4796, "ulative": 4797, "ht": 4798, "\u0120incorpor": 4799, "\u0120standards": 4800, "\u0120male": 4801, "\u0120Baptist": 4802, "\u0120Def": 4803, "\u0120Color": 4804, "\u0120aircraft": 4805, "\u0120economy": 4806, "\u0120virt": 4807, "\u0120serving": 4808, "\u0120bus": 4809, "\u0120avoid": 4810, "\u0120km": 4811, "ls": 4812, "\u0120tho": 4813, "\u0120Arts": 4814, "\u0120Supp": 4815, "\u0120daughters": 4816, "\u0120importance": 4817, "amin": 4818, "\u0120trou": 4819, "\u0120nationality": 4820, "\u0120sn": 4821, "\u0120bed": 4822, "\u0120param": 4823, "UT": 4824, "\u0120apply": 4825, "\u0120appeal": 4826, "\u0120sac": 4827, "\u0120forest": 4828, "otic": 4829, "\u0120combined": 4830, "iah": 4831, "\u0120cool": 4832, "\u0120maintained": 4833, "\u0120Leg": 4834, "Cont": 4835, "mail": 4836, "\u0120strate": 4837, "urt": 4838, "ancing": 4839, "pass": 4840, "\u0120strategy": 4841, "\u0120fine": 4842, "\u0120Jac": 4843, "\u0120huge": 4844, "\u0120customer": 4845, "akers": 4846, "uries": 4847, "astern": 4848, "\u0120solutions": 4849, "\u0120dog": 4850, "\u0120introduced": 4851, "itage": 4852, "\u0120background": 4853, "\u0120trees": 4854, "equ": 4855, "\u0120towards": 4856, "\u0120commitment": 4857, "\u0120belief": 4858, "\u0120phil": 4859, "\u0120Conference": 4860, "\u0120goals": 4861, "\u0120Islam": 4862, "\u0120items": 4863, "\u0120Music": 4864, "no": 4865, "\u0120Minn": 4866, "\u0120budget": 4867, "ya": 4868, "\u0120setting": 4869, "\u0120ign": 4870, "ointed": 4871, "stract": 4872, "\u0120causes": 4873, "\u0120Medicine": 4874, "iat": 4875, "\u0120mobile": 4876, "\u0120conflic": 4877, "\u0120harm": 4878, "\u0120facilities": 4879, "ias": 4880, "\u0120neighbor": 4881, "LA": 4882, "\u0120Ire": 4883, "\u0120agreement": 4884, "\u0120unf": 4885, "asion": 4886, "\u0120Times": 4887, "inating": 4888, "\u0120Haw": 4889, "iments": 4890, "\u0120Illinois": 4891, "\u0120scholars": 4892, "\u0120burn": 4893, "\u0120Land": 4894, "\u0120advanced": 4895, "\u0120ancient": 4896, "\u0120senior": 4897, "Don": 4898, "\u0120destroy": 4899, "\u0120scale": 4900, "related": 4901, "ctors": 4902, "\u0120util": 4903, "\u0120tests": 4904, "\u0120links": 4905, "\u0120testing": 4906, "ifying": 4907, "\u0120extended": 4908, "\u0120library": 4909, "\u0120excellent": 4910, "\u0120Mel": 4911, "orrow": 4912, "\u0120pret": 4913, "ouri": 4914, "ext": 4915, "\u0120units": 4916, "\u0120Polic": 4917, "\u0120compar": 4918, "des": 4919, "\u0120Cap": 4920, "CE": 4921, "owa": 4922, "that": 4923, "\u0120sets": 4924, "\u0120businesses": 4925, "\u0120creation": 4926, "Acc": 4927, "\u0120Tenn": 4928, "\u0120thank": 4929, "osoph": 4930, "\u0120Any": 4931, "\u0120responsibility": 4932, "\u0120According": 4933, "\u0120distribution": 4934, "\u0120sides": 4935, "\u0120remained": 4936, "\u0120Design": 4937, "\u0120willing": 4938, "\u0120Jim": 4939, "\u0120obv": 4940, "\u0120Histor": 4941, "\u0120CD": 4942, "\u0120institutions": 4943, "\u0120regions": 4944, "\u0120gun": 4945, "\u0120decisions": 4946, "\u0120released": 4947, "UN": 4948, "\u0120NAS": 4949, "\u0120storage": 4950, "\u0120connected": 4951, "\u0120Offic": 4952, "\u0120tro": 4953, "\u0120Academy": 4954, "\u0120round": 4955, "uled": 4956, "\u0120opened": 4957, "\u0120Prov": 4958, "\u0120conclud": 4959, "\u0120preceded": 4960, "\u0120pul": 4961, "\u0120Marg": 4962, "\u0120Secretary": 4963, "\u0120Big": 4964, "Now": 4965, "\u0120Daniel": 4966, "\u0120exactly": 4967, "\u0120formation": 4968, "\u0120Kent": 4969, "\u0120TV": 4970, "\u0120Water": 4971, "\u0120extensive": 4972, "\u0120--.": 4973, "\u0120nom": 4974, "\u0120purposes": 4975, "\u0120views": 4976, "bre": 4977, "ansion": 4978, "\u0120identity": 4979, "pat": 4980, "\u0120Women": 4981, "\u0120transport": 4982, "\u0120immediately": 4983, "\u0120Jo": 4984, "\u0120Star": 4985, "\u0120strugg": 4986, "uilding": 4987, "\u0120processing": 4988, "\u0120shape": 4989, "odies": 4990, "\u0120comfort": 4991, "ev": 4992, "\u0120Sil": 4993, "\u0120Every": 4994, "rastructure": 4995, "rating": 4996, "\u0120poly": 4997, "eless": 4998, "\u0120administration": 4999, "\u0120myst": 5000, "\u0120weap": 5001, "\u0120valid": 5002, "\u0120winter": 5003, "\u0120replace": 5004, "\u0120Sciences": 5005, "\u0120proposal": 5006, "ios": 5007, "greg": 5008, "\u0120severe": 5009, "ogen": 5010, "\u0120transform": 5011, "alled": 5012, "\u0120rapid": 5013, "\u0120Stand": 5014, "mology": 5015, "\u0120challenges": 5016, "\u0120receiving": 5017, "\u0120Inf": 5018, "ras": 5019, "\u0120coord": 5020, "\u0120notes": 5021, "ittle": 5022, "olute": 5023, "soft": 5024, "\u0120intended": 5025, "ensity": 5026, "\u0120river": 5027, "iveness": 5028, "\u0120Two": 5029, "\u0120credit": 5030, "\u0120storm": 5031, "\u0120category": 5032, "rations": 5033, "apel": 5034, "\u0120unless": 5035, "\u0120registered": 5036, "\u0120gets": 5037, "\u0120double": 5038, "\u0120Children": 5039, "\u0120script": 5040, "iar": 5041, "\u0120household": 5042, "\u0120Tre": 5043, "bi": 5044, "\u0120yourself": 5045, "enses": 5046, "\u0120assessment": 5047, "\u0120Tor": 5048, "\u0120Chair": 5049, "\u0120becoming": 5050, "\u0124\u00ac": 5051, "\u0120experiences": 5052, "\u0120truly": 5053, "\u0120weather": 5054, "\u0120Michigan": 5055, "\u0120agree": 5056, "\u0120soul": 5057, "\u0120Fred": 5058, "board": 5059, "\u0120criteria": 5060, "\u0120Form": 5061, "body": 5062, "\u0120Lead": 5063, "\u0120rand": 5064, "\u0120prepar": 5065, "\u0120conv": 5066, "duate": 5067, "\u0120selection": 5068, "\u0120Special": 5069, "\u0120separate": 5070, "ocation": 5071, "\u0120investment": 5072, "\u0120Boston": 5073, "\u0120Wall": 5074, "\u0120explore": 5075, "aret": 5076, "\u0120documents": 5077, "\u0120languages": 5078, "\u0120Thus": 5079, "estival": 5080, "\u0120crew": 5081, "ua": 5082, "\u0120defend": 5083, "\u0120Engineering": 5084, "\u0120technical": 5085, "\u0120eyes": 5086, "\u0120Section": 5087, "\u0120emot": 5088, "roud": 5089, "unk": 5090, "\u0120jobs": 5091, "\u0120Jones": 5092, "oto": 5093, "\u0120concent": 5094, "\u0120aw": 5095, "\u0120situ": 5096, "\u0120Ol": 5097, "tenance": 5098, "\u0120lie": 5099, "\u0120convention": 5100, "\u0120Oper": 5101, "\u0120Vict": 5102, "\u0120Division": 5103, "\u0120mathemat": 5104, "\u0120Dou": 5105, "azing": 5106, "\u0120advance": 5107, "CT": 5108, "\u0120touch": 5109, "\u0120Er": 5110, "\u0120filed": 5111, "\u0120hundreds": 5112, "\u0120opening": 5113, "edy": 5114, "za": 5115, "\u0120clients": 5116, "\u0120census": 5117, "\u0120tim": 5118, "Some": 5119, "\u0120latest": 5120, "\u0120bottom": 5121, "rison": 5122, "\u0120helping": 5123, "hy": 5124, "PR": 5125, "\u0120facility": 5126, "\u0120Att": 5127, "\u0120forth": 5128, "\u0120random": 5129, "\u0120foundation": 5130, "\u0120Free": 5131, "\u0120readers": 5132, "upp": 5133, "which": 5134, "\u0120abuse": 5135, "ola": 5136, "\u0120comprehensive": 5137, "\u0120literature": 5138, "\u0120Christmas": 5139, "\u0120taught": 5140, "\u0120Why": 5141, "\u0120decre": 5142, "\u0120Roman": 5143, "\u0120Fe": 5144, "\u0120ax": 5145, "\u0120combination": 5146, "\u0120Pacific": 5147, "\u0120campus": 5148, "\u0120rail": 5149, "\u0120expression": 5150, "Here": 5151, "\u0120solid": 5152, "\u0120balance": 5153, "OW": 5154, "\u0120conservation": 5155, "\u0120counter": 5156, "\u0120spons": 5157, "\u0120liber": 5158, "\u0120sample": 5159, "\u0120Google": 5160, "\u0120metal": 5161, "adian": 5162, "nergy": 5163, "\u0120observed": 5164, "\u0120believed": 5165, "\u0120holiday": 5166, "\u0120helped": 5167, "\u0120appeared": 5168, "\u0120Respond": 5169, "\u0120Los": 5170, "erg": 5171, "\u0120observ": 5172, "\u0120Middle": 5173, "\u0120molec": 5174, "bed": 5175, "\u0120emphas": 5176, "\u0120manufacture": 5177, "\u0120playing": 5178, "\u0120Den": 5179, "\u0120sort": 5180, "\u0120Organ": 5181, "gest": 5182, "\u0120increases": 5183, "\u0120edition": 5184, "ione": 5185, "\u0120historical": 5186, "water": 5187, "\u0120differences": 5188, "\u0120generated": 5189, "\u0120CA": 5190, "ipal": 5191, "\u0120Its": 5192, "\u0120estimated": 5193, "\u0120guide": 5194, "\u0120claims": 5195, "\u0120pric": 5196, "\u0120Hon": 5197, "\u0120genetic": 5198, "\u0120editor": 5199, "\u00c2\u00ae": 5200, "gypt": 5201, "olved": 5202, "\u0120teacher": 5203, "\u0120stated": 5204, "Post": 5205, "\u0120execut": 5206, "onic": 5207, "ogue": 5208, "\u0120victim": 5209, "\u0120cloud": 5210, "\u0120obtained": 5211, "\u0120Ok": 5212, "\u0120insurance": 5213, "\u0120greatest": 5214, "\u0120turb": 5215, "\u0120Labor": 5216, "\u0120employer": 5217, "\u0120hit": 5218, "\u0120Kansas": 5219, "\u0120Records": 5220, "ressed": 5221, "\u0120underst": 5222, "\u0120strategies": 5223, "\u0120components": 5224, "\u0120artist": 5225, "\u0120hyp": 5226, "\u0120ethnicity": 5227, "\u0120purchase": 5228, "\u0120passion": 5229, "\u0120prop": 5230, "gar": 5231, "\u0120blue": 5232, "\u0120smaller": 5233, "\u0120Environment": 5234, "\u0120Retrieved": 5235, "ffect": 5236, "________": 5237, "\u0120Young": 5238, "\u0120equal": 5239, "anging": 5240, "\u0120Dar": 5241, "\u0120accepted": 5242, "\u0120serves": 5243, "\u0120pretty": 5244, "\u0120Tim": 5245, "\u0120Please": 5246, "\u0120employed": 5247, "\u0120therapy": 5248, "\u0120thou": 5249, "\u0120hour": 5250, "\u0120focused": 5251, "\u0120improved": 5252, "\u0120dro": 5253, "\u0120notice": 5254, "\u0120Southern": 5255, "mary": 5256, "arant": 5257, "\u0120amend": 5258, "\u0120Sus": 5259, "mp": 5260, "\u0120northern": 5261, "\u0120optim": 5262, "\u0120structures": 5263, "do": 5264, "\u0120retired": 5265, "\u0120Williams": 5266, "\u0120arg": 5267, "ien": 5268, "icit": 5269, "\u0120Econom": 5270, "aska": 5271, "TS": 5272, "\u0120input": 5273, "\u0120volume": 5274, "\u0120reduced": 5275, "\u0120ice": 5276, "orney": 5277, "orders": 5278, "\u0120primarily": 5279, "\u0120Jackson": 5280, "\u0120Muslim": 5281, "\u0120flight": 5282, "\u00c3\u00a1": 5283, "\u0120minimum": 5284, "know": 5285, "\u0120match": 5286, "\u0120fundamental": 5287, "yer": 5288, "\u0120bul": 5289, "\u0120affected": 5290, "\u0120Gal": 5291, "\u0120mort": 5292, "\u0120Georgia": 5293, "\u0120felt": 5294, "anda": 5295, "\u0120massive": 5296, "ura": 5297, "ivery": 5298, "\u0120fish": 5299, "\u0120cry": 5300, "\u0120signs": 5301, "\u0120clicking": 5302, "\u0120twenty": 5303, "ano": 5304, "\u0120elim": 5305, "\u0120nine": 5306, "\u0120galax": 5307, "EE": 5308, "Ed": 5309, "\u0120Beach": 5310, "\u0120actual": 5311, "ini": 5312, "\u0120police": 5313, "\u0120fol": 5314, "\u0120graph": 5315, "\u0120subsequ": 5316, "ulf": 5317, "ding": 5318, "\u0120Ma": 5319, "\u0120Complainant": 5320, "\u0120issued": 5321, "etts": 5322, "\u0120Lear": 5323, "\u0120emp": 5324, "\u0120syn": 5325, "\u0120Face": 5326, "ront": 5327, "\u0120discl": 5328, "down": 5329, "\u0120Policy": 5330, "CS": 5331, "\u0120meant": 5332, "\u0120Sl": 5333, "\u0120edge": 5334, "Gen": 5335, "ports": 5336, "\u0120Studies": 5337, "\u0120reality": 5338, "\u0120alternative": 5339, "\u0120measures": 5340, "\u0120Andrew": 5341, "\u0120eye": 5342, "\u0120grew": 5343, "\u0120tend": 5344, "anish": 5345, "OP": 5346, "\u0120southern": 5347, "\u0120policies": 5348, "bol": 5349, "DS": 5350, "\u0120MA": 5351, "alle": 5352, "\u0120actions": 5353, "opyright": 5354, "\u0120mentioned": 5355, "\u0120favorite": 5356, "\u0120religion": 5357, "icians": 5358, "col": 5359, "\u0120Francisco": 5360, "\u0120challenge": 5361, "\u0120disapp": 5362, "\u0120kid": 5363, "BS": 5364, "\u0120fluid": 5365, "\u0120authority": 5366, "\u0120save": 5367, "\u0120violence": 5368, "\u0120officer": 5369, "\u0120dream": 5370, "\u0120Charl": 5371, "\u0120contem": 5372, "\u0120cat": 5373, "\u0120immig": 5374, "\u0120recorded": 5375, "\u0120download": 5376, "\u0120covered": 5377, "\u0120Bob": 5378, "\u0120concerns": 5379, "eline": 5380, "\u0120leads": 5381, "\u0120Iowa": 5382, "war": 5383, "\u0120Step": 5384, "va": 5385, "\u0120Det": 5386, "\u0120depos": 5387, "rans": 5388, "\u0120Hy": 5389, "\u0120Spring": 5390, "oles": 5391, "\u0120lin": 5392, "\u0120trib": 5393, "\u0120disp": 5394, "uke": 5395, "father": 5396, "overty": 5397, "eck": 5398, "\u0120DNA": 5399, "inations": 5400, "wo": 5401, "\u0120forum": 5402, "\u0120ready": 5403, "ora": 5404, "\u0120conver": 5405, "\u0120ur": 5406, "\u0120drugs": 5407, "\u0120gift": 5408, "\u0120seeking": 5409, "\u0120containing": 5410, "rator": 5411, "ifts": 5412, "\u0120Arab": 5413, "\u0120seek": 5414, "\u0120partner": 5415, "\u0120wealth": 5416, "rich": 5417, "rive": 5418, "uable": 5419, "ario": 5420, "\u0120Scot": 5421, "RI": 5422, "OC": 5423, "\u0120Executive": 5424, "enth": 5425, "orter": 5426, "\u0120sustain": 5427, "estic": 5428, "\u0120Edward": 5429, "\u00e2\u0122\u013f.": 5430, "\u0120spending": 5431, "\u0120detailed": 5432, "\u0120Aut": 5433, "\u0120Egypt": 5434, "\u0120prison": 5435, "\u0120Second": 5436, "\u0120Top": 5437, "achus": 5438, "\u0120reform": 5439, "from": 5440, "\u0120Trust": 5441, "\u0120]": 5442, "acing": 5443, "\u0120Cy": 5444, "\u0120thanks": 5445, "rows": 5446, "tymology": 5447, "\u0120buildings": 5448, "Sc": 5449, "\u0120industrial": 5450, "iana": 5451, "\u0120procedures": 5452, "\u0120regional": 5453, "\u0120frequency": 5454, "uther": 5455, "\u0120resulting": 5456, "\u0120cris": 5457, "ipped": 5458, "\u0120evaluation": 5459, "\u0120committed": 5460, "\u0120sympt": 5461, "\u0120brief": 5462, "\u0120Sk": 5463, "\u0120suggests": 5464, "\u0120ran": 5465, "\u0120Edit": 5466, "\u0120god": 5467, "\u0120mail": 5468, "\u0120electrical": 5469, "arp": 5470, "\u0120circumst": 5471, "\u0120manager": 5472, "\u0120Force": 5473, "\u0120elig": 5474, "\u0120doctor": 5475, "ih": 5476, "\u0120Kore": 5477, "\u0120belong": 5478, "\u0120specifically": 5479, "\u0120professionals": 5480, "\u0120somew": 5481, "\u0120?": 5482, "\u0120Respondent": 5483, "\u0120perman": 5484, "\u0120manufacturing": 5485, "\u0120founded": 5486, "\u0120army": 5487, "\u0120border": 5488, "\u0120train": 5489, "\u0120cere": 5490, "\u0120format": 5491, "\u0120voting": 5492, "\u0120alt": 5493, "\u0120heat": 5494, "\u0120raise": 5495, "\u0120wish": 5496, "atever": 5497, "ouston": 5498, "\u0120sections": 5499, "\u0120poll": 5500, "\u0120practices": 5501, "\u0120Publ": 5502, "\u0120predict": 5503, "pret": 5504, "\u0120Avenue": 5505, "\u0120fort": 5506, "\u0120Kenn": 5507, "\u0120employment": 5508, "\u0120mig": 5509, "\u0120decade": 5510, "\u0120degrees": 5511, "urban": 5512, "\u0120aspects": 5513, "ounder": 5514, "\u0120leaves": 5515, "\u0120sale": 5516, "\u0120Chief": 5517, "\u0120discover": 5518, "\u0120infrastructure": 5519, "\u0120gone": 5520, "inent": 5521, "\u0120Dom": 5522, "rag": 5523, "\u0120remark": 5524, "\u0120Ari": 5525, "\u0120Fair": 5526, "inity": 5527, "\u0120Mur": 5528, "\u0120Security": 5529, "American": 5530, "\u0120thy": 5531, "\u0120involve": 5532, "\u0120aged": 5533, "\u0120():": 5534, "teen": 5535, "\u0120Lew": 5536, "\u0120Power": 5537, "\u0120funeral": 5538, "\u0120,,": 5539, "achusetts": 5540, "\u0120missing": 5541, "\u0120advice": 5542, "TH": 5543, "inson": 5544, "\u0120exposure": 5545, "enture": 5546, "\u0120presentation": 5547, "\u0120animal": 5548, "\u0120corresponding": 5549, "emark": 5550, "\u0120Today": 5551, "xual": 5552, "icted": 5553, "\u0120Alb": 5554, "\u0120advoc": 5555, "\u0120upper": 5556, "\u0120Wild": 5557, "\u0120retire": 5558, "According": 5559, "\u0120Cancer": 5560, "\u0120brand": 5561, "\u0120Cast": 5562, "\u0120automatically": 5563, "\u0120prepared": 5564, "abled": 5565, "\u0120begins": 5566, "\u0120enem": 5567, "\u0120Hear": 5568, "\u0120street": 5569, "\u0120Test": 5570, "atre": 5571, "\u0120explain": 5572, "\u0120slight": 5573, "\u0120nations": 5574, "\u0120supply": 5575, "\u0120pm": 5576, "\u0120Ver": 5577, "\u0120participants": 5578, "athan": 5579, "\u0120paint": 5580, "\u0120relatively": 5581, "\u0120telephone": 5582, "abil": 5583, "\u0120Gar": 5584, "\u0120arm": 5585, "\u0120Ireland": 5586, "\u0120trial": 5587, "\u0120discrim": 5588, "\u0120Tem": 5589, "coming": 5590, "\u0120Sarah": 5591, "\u0120justice": 5592, "\u0120Brook": 5593, "\u0120restaur": 5594, "\u0120stone": 5595, "\u0120Eth": 5596, "\u0120assistance": 5597, "\u0120\u00ce": 5598, "\u0120housing": 5599, "\u0120tried": 5600, "\u0120sam": 5601, "\u0120RE": 5602, "aped": 5603, "\u0120spot": 5604, "ags": 5605, "\u0120filled": 5606, "achel": 5607, "\u0120Lind": 5608, "\u0120dial": 5609, "Le": 5610, "\u0120sched": 5611, "\u0120factor": 5612, "\u0120ID": 5613, "\u0120advantage": 5614, "\u0120Colorado": 5615, "\u0120Angeles": 5616, "\u0120reached": 5617, "but": 5618, "\u0120surgery": 5619, "heast": 5620, "\u0120kill": 5621, "\u0120dollars": 5622, "\u0120Ray": 5623, "\u0120Energy": 5624, "\u0120forg": 5625, "ivered": 5626, "\u0120intellig": 5627, "\u0120accord": 5628, "\u0120apparent": 5629, "\u0120skin": 5630, "\u0120teachers": 5631, "\u0120Tur": 5632, "iating": 5633, "\u0120settle": 5634, "ureau": 5635, "stein": 5636, "\u0120Boy": 5637, "\u0120Missouri": 5638, "\u0120Author": 5639, "\u0120supports": 5640, "ician": 5641, "erves": 5642, "\u0120thr": 5643, "\u0120secret": 5644, "Des": 5645, "\u0120chosen": 5646, "\u0120Rom": 5647, "\u0120exercise": 5648, "\u0120fashion": 5649, "icks": 5650, "\u0120Columbia": 5651, "lastname": 5652, "\u0120quantum": 5653, "\u0120examples": 5654, "ishop": 5655, "ala": 5656, "May": 5657, "\u0120distance": 5658, "emb": 5659, "\u0120classes": 5660, "unciation": 5661, "\u0120sufficient": 5662, "omic": 5663, "\u0120Asia": 5664, "\u0120speculative": 5665, "\u0120IT": 5666, "\u0120Bas": 5667, "\u0120proof": 5668, "\u0120strategic": 5669, "\u0120\u00c3": 5670, "\u0120Whe": 5671, "ibilities": 5672, "About": 5673, "\u0120Ut": 5674, "\u0120updated": 5675, "\u0120writer": 5676, "rum": 5677, "\u0120bless": 5678, "\u0120welcome": 5679, ".||": 5680, "oster": 5681, "\u0120launch": 5682, "erate": 5683, "lyn": 5684, "\u0120registration": 5685, "born": 5686, "ifications": 5687, "tra": 5688, "\u0120sports": 5689, "See": 5690, "\u0120absolute": 5691, "free": 5692, "\u0120universe": 5693, "\u0120Search": 5694, "stra": 5695, "\u0120Adv": 5696, "\u00e2\u0124\u00ac": 5697, "\u0120looked": 5698, "list": 5699, "\u0120continuing": 5700, "iversary": 5701, "aven": 5702, "rem": 5703, "parent": 5704, "roph": 5705, "obe": 5706, "\u0120terror": 5707, "press": 5708, "\u0120Holy": 5709, "\u0120Time": 5710, "\u0120Real": 5711, "\u0120uns": 5712, "\u0120graduated": 5713, "\u0120extremely": 5714, "\u0120flood": 5715, "\u0120photograph": 5716, "\u0120papers": 5717, "\u0120supporting": 5718, "\u0120CEO": 5719, "\u0120III": 5720, "\u0120Miller": 5721, "\u0120license": 5722, "\u0120buried": 5723, "AB": 5724, "\u0120extent": 5725, "\u0120End": 5726, "\u0120significantly": 5727, "uing": 5728, "\u0120spok": 5729, "\u0120Massachusetts": 5730, "\u0120interface": 5731, "\u0120negative": 5732, "ATION": 5733, "bury": 5734, "\u0120instance": 5735, "tha": 5736, "\u0120talking": 5737, "\u0120wasn": 5738, "\u0120proud": 5739, "Other": 5740, "\u0120schem": 5741, "\u0120hunt": 5742, "ourney": 5743, "irty": 5744, "\u0120Hot": 5745, "\u0120nephe": 5746, "\u0120maintenance": 5747, "azz": 5748, "\u0120Spanish": 5749, "\u0120straight": 5750, "\u0120Jane": 5751, "\u0120Aud": 5752, "\u0120tissue": 5753, "isition": 5754, "\u0120Lo": 5755, "\u0120NASA": 5756, "\u0120catal": 5757, "eters": 5758, "App": 5759, "\u0120Sher": 5760, "\u0120agencies": 5761, "\u0120principles": 5762, "\u0120perspective": 5763, "\u0120emergency": 5764, "\u0120aid": 5765, "\u0120mere": 5766, "\u0120leaving": 5767, "Not": 5768, "itle": 5769, "\u0120witness": 5770, "\u0120chapter": 5771, "\u0120Both": 5772, "\u0120atmosphere": 5773, "\u0120option": 5774, "\u0120driving": 5775, "\u0120error": 5776, "LC": 5777, "\u0120surrounding": 5778, "ections": 5779, "\u0120despite": 5780, "\u0120showing": 5781, "\u0120discovery": 5782, "\u0120blocks": 5783, "\u0120Royal": 5784, "eries": 5785, "oral": 5786, "\u0120existence": 5787, "inking": 5788, "\u0120occurred": 5789, "urches": 5790, "\u0120ble": 5791, "\u0120task": 5792, "\u0120narrow": 5793, "\u0120lake": 5794, "\u0120Administration": 5795, "\u0120flex": 5796, "\u0120feeling": 5797, "\u0120Global": 5798, "\u0120horse": 5799, "----": 5800, "\u0120du": 5801, "\u0120worldwide": 5802, "\u0120sector": 5803, "\u0120Est": 5804, "\u0120Ins": 5805, "\u0120Bush": 5806, "ERS": 5807, ")|": 5808, "\u0120artists": 5809, "Im": 5810, "\u0120rom": 5811, "Am": 5812, "\u0120granted": 5813, "\u0120vast": 5814, "ework": 5815, "\u0120$,.": 5816, "inner": 5817, "ivors": 5818, "agues": 5819, "stone": 5820, "\u0120Jews": 5821, "\u0120rob": 5822, "\u0120discussed": 5823, "\u0120hero": 5824, "aylor": 5825, "\u0120visual": 5826, "\u0120healthy": 5827, "ifies": 5828, "amm": 5829, "\u0120TO": 5830, "\u0120Gall": 5831, "\u0120heavy": 5832, "\u0120Indiana": 5833, "Ind": 5834, "\u0120Father": 5835, "\u0120originally": 5836, "\u0120Gro": 5837, ".-": 5838, "\u0120diss": 5839, "\u0120mostly": 5840, "\u0120Conf": 5841, "\u0120Facebook": 5842, "\u0120certainly": 5843, "\u0120entered": 5844, "\u0120regulations": 5845, "isation": 5846, "\u0120Str": 5847, "arn": 5848, "Pl": 5849, "\u0120Aff": 5850, "luding": 5851, "\u0120cycle": 5852, "\u0120Davis": 5853, "\u0120reader": 5854, "\u0120delivered": 5855, "\u0120Cross": 5856, "resents": 5857, "\u0120typically": 5858, "\u0120Lim": 5859, "\u0120grants": 5860, "\u0120partnership": 5861, "ried": 5862, "\u0120surn": 5863, "\u0120treated": 5864, "\u0120meetings": 5865, "\u0120laun": 5866, "\u0120expansion": 5867, "aste": 5868, "ulating": 5869, "rome": 5870, "\u0120awards": 5871, "\u0120fresh": 5872, "oria": 5873, "\u0120drop": 5874, "\u0120officers": 5875, "\u0120doubt": 5876, "tical": 5877, "igure": 5878, "\u0120grade": 5879, "\u0120runs": 5880, "\u0120efficient": 5881, "\u0120wherein": 5882, "\u0120:-": 5883, "aughter": 5884, "\u0120Further": 5885, "\u0120desire": 5886, "\u0120banks": 5887, "racy": 5888, "uster": 5889, "iti": 5890, "\u0120AD": 5891, "under": 5892, "\u0120Network": 5893, "bra": 5894, "\u0120Who": 5895, "\u0120rank": 5896, "\u0120(,": 5897, "osa": 5898, "\u0120divid": 5899, "|||": 5900, "\u0120trip": 5901, "\u0120Van": 5902, "\u0120mist": 5903, "?\"": 5904, "\u0120flowers": 5905, "heim": 5906, "ingly": 5907, "\u0120fixed": 5908, "\u0120looks": 5909, "\u0120door": 5910, "\u0120signed": 5911, "\u0120Code": 5912, "ensions": 5913, "\u0120maximum": 5914, "\u0120Son": 5915, "\u0120posted": 5916, "mother": 5917, "ella": 5918, "\u0120Jersey": 5919, "\u0120younger": 5920, "ILL": 5921, "Will": 5922, "\u0120Bu": 5923, "Bl": 5924, "\u0120poverty": 5925, "\u0120Saf": 5926, "igen": 5927, "\u0120forced": 5928, "rabble": 5929, "\u0120index": 5930, "OD": 5931, "\u0120renew": 5932, "\u0120AS": 5933, "\u0120helps": 5934, "\u0120joy": 5935, "\u0120circumstances": 5936, "\u0120shel": 5937, "\u0120independently": 5938, "\u0120Media": 5939, "\u0120Senate": 5940, "\u0120illness": 5941, "rance": 5942, "net": 5943, "\u0120definition": 5944, "\u0120List": 5945, "\u0120Rose": 5946, "\u0120Only": 5947, "\u0120Jacob": 5948, "ilit": 5949, "\u0120nd": 5950, "word": 5951, "ommod": 5952, "\u0120MS": 5953, "ymph": 5954, "awn": 5955, "ml": 5956, "section": 5957, "\u0120enhance": 5958, "\u0120phen": 5959, "\u0120neither": 5960, "\u0120girls": 5961, "\u0120elected": 5962, "\u0120\u00c2\u00a3": 5963, "\u0120spiritual": 5964, "\u0120clim": 5965, "cel": 5966, "\u0120craft": 5967, "\u0120accurate": 5968, "\u0120newsp": 5969, "\u0120amazing": 5970, "\u0120evening": 5971, "\u0120Canadian": 5972, "\u0120Barb": 5973, "\u0120millions": 5974, "arry": 5975, "\u0120partners": 5976, "\u00c3\u00bc": 5977, "ORD": 5978, "oom": 5979, "pet": 5980, "\u0120distinct": 5981, "\u0120gather": 5982, "\u0120soci": 5983, "\u0120Republican": 5984, "imental": 5985, "\u0120TH": 5986, "\u0120vital": 5987, "\u0120delivery": 5988, "abetes": 5989, "\u0120Mot": 5990, "\u0120thoughts": 5991, "\u0120Santa": 5992, "\u0120MD": 5993, "\u0120happens": 5994, "comm": 5995, "alian": 5996, "\u0120Ha": 5997, "\u0120risks": 5998, "EW": 5999, "\u0120.,": 6000, "esota": 6001, "\u0120Luc": 6002, "Rec": 6003, "MA": 6004, "\u0120quarter": 6005, "\u0120resolution": 6006, "\u0120prove": 6007, "\u0120Mountain": 6008, "\u0120description": 6009, "uses": 6010, "\u0120frame": 6011, "top": 6012, "\u0120entry": 6013, "\u0120ocean": 6014, "\u0120symptoms": 6015, "\u0120teach": 6016, "\u0120pun": 6017, "\u0120sole": 6018, "\u0120nie": 6019, "\u0120transmission": 6020, "iced": 6021, "Or": 6022, "\u0120none": 6023, "\u0120Corporation": 6024, "\u0120club": 6025, "\u0120About": 6026, "\u0120remote": 6027, "\u0120driven": 6028, "\u0120Coast": 6029, "\u0120calling": 6030, "rane": 6031, "\u0120spelling": 6032, "aud": 6033, "prise": 6034, "\u0120ped": 6035, "oir": 6036, "bro": 6037, "\u0120concern": 6038, "\u0120indicate": 6039, "\u0120Iran": 6040, "AA": 6041, "\u0120bright": 6042, "RS": 6043, "\u0120ended": 6044, "\u0120Systems": 6045, "\u0120Chem": 6046, "\u0120Japanese": 6047, "essee": 6048, "\u0120referred": 6049, "\u0120installed": 6050, "\u0120Country": 6051, "\u0120Rem": 6052, "ipping": 6053, "\u0120Joe": 6054, "\u0120synt": 6055, "\u0120habit": 6056, "\u0120describes": 6057, "\u0120ends": 6058, "\u0120publication": 6059, "\u0120Forest": 6060, "oves": 6061, "cribed": 6062, "profit": 6063, "\u0120represents": 6064, "writ": 6065, "\u0120agents": 6066, "hesis": 6067, "\u0120reaction": 6068, "Click": 6069, "\u0120internet": 6070, "\u0120distingu": 6071, "\u0120payment": 6072, "\u0120shut": 6073, "pected": 6074, "\u0120guarant": 6075, "erman": 6076, "\u0120Houston": 6077, "\u0120solar": 6078, "\u0120Friend": 6079, "\u0120thick": 6080, "ificate": 6081, "\u0120Ken": 6082, "\u0120personnel": 6083, "\u0120Open": 6084, "levision": 6085, "\u0120PC": 6086, "Since": 6087, "Sur": 6088, "ga": 6089, "\u0120wear": 6090, "\u0120acknow": 6091, "\u0120lock": 6092, "nam": 6093, "\u0120walls": 6094, "\u0120exchange": 6095, "ager": 6096, "anges": 6097, "rition": 6098, "\u0120motion": 6099, "\u0120humans": 6100, "nda": 6101, "\u0120Ap": 6102, "\u0120organized": 6103, "\u0120Stan": 6104, "iability": 6105, "gor": 6106, "lers": 6107, "dis": 6108, "\u0120chamber": 6109, "\u0120holds": 6110, "\u0120Such": 6111, "\u0120embodiment": 6112, "\u0120Die": 6113, "\u0120concerning": 6114, "\u0120Oak": 6115, "\u0120pictures": 6116, "inder": 6117, "\u0120tow": 6118, "\u0120Navy": 6119, "\u0120loving": 6120, "\u0120achieved": 6121, "\u0120Master": 6122, "\u0120Fac": 6123, "\u0120experts": 6124, "\u0120Page": 6125, "\u0120western": 6126, "\u0120Comput": 6127, "\u0120Once": 6128, "hat": 6129, "\u0120pieces": 6130, "agon": 6131, "\u00e2\u0122\u0142": 6132, "\u0120advis": 6133, "\u0120Little": 6134, "\u0120segment": 6135, "\u0120Indust": 6136, "\u0120conserv": 6137, "FIG": 6138, "Sp": 6139, "\u0120describe": 6140, "\u0120Dor": 6141, "\u0120networks": 6142, "\u0120Data": 6143, "\u0120delay": 6144, "inet": 6145, "fol": 6146, "\u0120exceed": 6147, "comes": 6148, "RC": 6149, "\u0120efficiency": 6150, "\u0120revealed": 6151, "\u0120hydro": 6152, "\u0120contribute": 6153, "BN": 6154, "\u0120onto": 6155, "\u0120eld": 6156, "\u0120acid": 6157, "\u0120Party": 6158, "ortunately": 6159, "\u0120tumor": 6160, "tery": 6161, "umin": 6162, "\u0120hearing": 6163, "\u0120spl": 6164, "\u0120spellings": 6165, "\u0120bow": 6166, "\u0120categories": 6167, "\u0120obtain": 6168, "ditional": 6169, "\u0120unem": 6170, "\u0120enforce": 6171, "\u0120generations": 6172, "\u0120mi": 6173, "\u0120remaining": 6174, "\u0120investigation": 6175, "\u0120Head": 6176, "ban": 6177, "\u0120diverse": 6178, "\u0120wants": 6179, "\u0120parties": 6180, "\u0120register": 6181, "elines": 6182, "\u0120rain": 6183, "\u0120Bridge": 6184, "\u0120Psych": 6185, "idden": 6186, "oln": 6187, "\u0120Microsoft": 6188, "\u0120appointed": 6189, "\u0120technologies": 6190, "\u0120residence": 6191, "\u0120ment": 6192, "\u0120contrast": 6193, "\u0120entirely": 6194, "\u0120Farm": 6195, "\u0120PA": 6196, "illa": 6197, "\u0120corner": 6198, "\u0120populations": 6199, "\u0120circuit": 6200, "yan": 6201, "\u0120conven": 6202, "\u0120simpl": 6203, "\u0120announce": 6204, "Please": 6205, "\u0120Russian": 6206, "\u0120lease": 6207, "kin": 6208, "gal": 6209, "\u0120generate": 6210, "\u0120Minnesota": 6211, "\u0120Carl": 6212, "agraph": 6213, "\u0120directed": 6214, "\u0120eat": 6215, "ibl": 6216, "\u0120Sing": 6217, "ellect": 6218, "\u0120weak": 6219, "\u0120entit": 6220, "\u0120Jun": 6221, "\u0120purchased": 6222, "itan": 6223, "ghan": 6224, "\u0120joint": 6225, "ooth": 6226, "cles": 6227, "onsin": 6228, "\u0120healthcare": 6229, "\u0120passing": 6230, "rants": 6231, "\u0120norm": 6232, "\u0120vary": 6233, "\u0120spend": 6234, "\u0120Centre": 6235, "igation": 6236, "\u0120firstname": 6237, "sub": 6238, "\u0120amb": 6239, "\u0120cook": 6240, "\u0120Ly": 6241, "\u0120plus": 6242, "outs": 6243, "\u0120Spirit": 6244, "\u0120astron": 6245, "Qu": 6246, "stream": 6247, "ugh": 6248, "isconsin": 6249, "Add": 6250, "\u0120procedure": 6251, "oty": 6252, "\u0120Jon": 6253, "\u0120Books": 6254, "\u0120Invest": 6255, "odge": 6256, "inding": 6257, "clusion": 6258, "long": 6259, "ato": 6260, "\u0120Corn": 6261, "\u0120imaging": 6262, "\u0120Census": 6263, "\u0120accounts": 6264, "GE": 6265, "pert": 6266, "\u0120evil": 6267, "\u0120crim": 6268, "xts": 6269, "\u0120fle": 6270, "alse": 6271, "\u0120Therefore": 6272, "\u0120division": 6273, "\u0120beauty": 6274, "\u0120settled": 6275, "\u0120Paris": 6276, "\u0120Ash": 6277, "\u0120fly": 6278, "\u0120occurs": 6279, "\u0120divor": 6280, "adel": 6281, "Col": 6282, "\u0120requirement": 6283, "\u0120magazine": 6284, "\u0120heaven": 6285, "\u0120Wilson": 6286, "\u0120representative": 6287, "\u0120copies": 6288, "**": 6289, "\u0120les": 6290, "uan": 6291, "Read": 6292, "\u0120valuable": 6293, "ican": 6294, "TER": 6295, "ologist": 6296, "\u0120elev": 6297, "\u0120winner": 6298, "\u0120thousand": 6299, "\u0120adopted": 6300, "\u0120cars": 6301, "\u0120latter": 6302, "\u0120Northern": 6303, "During": 6304, "\u0120Those": 6305, "\u0120colon": 6306, "FR": 6307, "\u0120Lewis": 6308, "\u0120bodies": 6309, "\u0120mode": 6310, "itely": 6311, "\u0120sounds": 6312, "\u0120protein": 6313, "\u0120opinion": 6314, "how": 6315, "asters": 6316, "dule": 6317, "\u0120stre": 6318, "\u0120Clark": 6319, "grandchildren": 6320, "athy": 6321, "\u0120understood": 6322, "enter": 6323, "ails": 6324, "\u0120Margaret": 6325, "\u0120Ter": 6326, "\u0120collaboration": 6327, "\u0120discipl": 6328, "Although": 6329, "\u0120Dun": 6330, "ograp": 6331, "\u0120birds": 6332, "othe": 6333, "\u0120photo": 6334, "\u0120measurement": 6335, "\u0120failed": 6336, "\u0120oblig": 6337, "idge": 6338, "\u0120wire": 6339, "\u0120cash": 6340, "\u0120accommod": 6341, "\u0120magnetic": 6342, "ipe": 6343, "iano": 6344, "\u0120print": 6345, "aby": 6346, "\u0120indeed": 6347, "\u0120attacks": 6348, "\u0120Men": 6349, "\u0120compens": 6350, "usal": 6351, "\u0120knows": 6352, "\u0120Chapel": 6353, "\u0120Equ": 6354, "etime": 6355, "\u0120gene": 6356, "\u0120politics": 6357, "\u0120crisis": 6358, "\u00c4\u0123": 6359, "\u0120resistance": 6360, "arat": 6361, "BA": 6362, "\u0120Enter": 6363, "\u0120secure": 6364, "\u0120Online": 6365, "ceased": 6366, "\u0120Blue": 6367, "\u0120Russia": 6368, "tes": 6369, "\u0120wave": 6370, "\u0120soldiers": 6371, "IF": 6372, "\u0120instrument": 6373, "\u00c3\u00b3": 6374, "\u00e2\u0122\u013f,": 6375, "\u0120isol": 6376, "\u0120Tri": 6377, "\u0120Ariz": 6378, "\u0120Brad": 6379, "othing": 6380, "\u0120association": 6381, "\u0120sharing": 6382, "\u0120agricult": 6383, "\u0120Samuel": 6384, "\u0120specified": 6385, "\u0120san": 6386, "\u0120symbol": 6387, "\u0120assistant": 6388, "\u0120markets": 6389, "\u0120player": 6390, "ocracy": 6391, "incoln": 6392, "\u0120descend": 6393, "\u0120competition": 6394, "\u0120characteristics": 6395, "\u0120nice": 6396, "\u0120trademark": 6397, "\u0120union": 6398, "iate": 6399, "Sub": 6400, "\u0120CH": 6401, "\u0120promote": 6402, "Mar": 6403, "\u0120fishing": 6404, "urrent": 6405, "ava": 6406, "\u0120facts": 6407, "\u0120territ": 6408, "\u0120agreed": 6409, "\u0120opposite": 6410, "However": 6411, "\u0120medicine": 6412, "\u0120nav": 6413, "\u0120charged": 6414, "\u0120Jean": 6415, "agram": 6416, "\u0120interpret": 6417, "celer": 6418, "\u0120Love": 6419, "\u0120Tennessee": 6420, "\u0120Field": 6421, "kes": 6422, "ela": 6423, "\u0120FRBO": 6424, "aming": 6425, "\u0120Rh": 6426, "\u0120mountain": 6427, "osophy": 6428, "\u0120exclus": 6429, "\u0120Luther": 6430, "\u0120newly": 6431, "\u0120accordance": 6432, "\u0120Ep": 6433, "\u0120candidates": 6434, "zen": 6435, "\u0120limits": 6436, "\u0120configuration": 6437, "\u0120sleep": 6438, "\u0120rose": 6439, "\u0120closely": 6440, "\u0120manage": 6441, "\u0120Walk": 6442, "\u0120beach": 6443, "\u0120pil": 6444, "\u0120fulf": 6445, "\u0120properly": 6446, "\u0120colleagues": 6447, "iac": 6448, "\u0120trend": 6449, "\u0120engaged": 6450, "\u0120fab": 6451, "\u0120easier": 6452, "\u0120marked": 6453, "\u0120alternate": 6454, "\u0120finished": 6455, "\u0120mm": 6456, "\u0120Taylor": 6457, "\u0120Prote": 6458, "\u0120candidate": 6459, "\u0120coin": 6460, "\u0120err": 6461, "ulner": 6462, "\u0120Mid": 6463, "\u0120holding": 6464, "pping": 6465, "dden": 6466, "\u0120Best": 6467, "\u0120Wisconsin": 6468, "osc": 6469, "\u0120relatives": 6470, "bour": 6471, "\u0120AP": 6472, "point": 6473, "\u0120journey": 6474, "\u0120View": 6475, "\u0120item": 6476, "ded": 6477, "\u0120Camb": 6478, "\u0120memories": 6479, "\u0120shot": 6480, "\u0120thee": 6481, "\u0120Applic": 6482, "\u0120affili": 6483, "aren": 6484, "atern": 6485, "irmed": 6486, "uted": 6487, "\u0120Methodist": 6488, "alysis": 6489, "\u0120Orig": 6490, "\u0120standing": 6491, "\u0120ban": 6492, "\u0120suc": 6493, "\u0120audio": 6494, "\u0120distributed": 6495, "athe": 6496, "itis": 6497, "\u0120Play": 6498, "\u0120Area": 6499, "rient": 6500, "iform": 6501, "\u0120Through": 6502, "\u0120historic": 6503, "\u0120genes": 6504, "Most": 6505, "\u0120tells": 6506, "han": 6507, "\u0120fellow": 6508, "\u0120worksh": 6509, "Posted": 6510, "\u0120equival": 6511, "\u0120revolution": 6512, "\u0120Bow": 6513, "\u0120(-)": 6514, "hedule": 6515, "aron": 6516, "\u0120\u00e2\u0122\u0135.": 6517, "\u0120adm": 6518, "ulum": 6519, "\u0120recovery": 6520, "apped": 6521, "een": 6522, "oven": 6523, "\u0120eligible": 6524, "\u0120football": 6525, "\u0120bought": 6526, "\u0120moral": 6527, "gs": 6528, "atherine": 6529, "\u0120capable": 6530, "\u0120reduction": 6531, "\u0120reserved": 6532, "\u0120controlled": 6533, "\u0120derived": 6534, "gorith": 6535, "\u0120rural": 6536, "\u0120crime": 6537, "\u0120Ox": 6538, "isms": 6539, "such": 6540, "Note": 6541, "\u0120finds": 6542, "\u0120island": 6543, "\u0120poet": 6544, "\u0120Kentucky": 6545, "\u0120linked": 6546, "sex": 6547, "\u0120Bal": 6548, "\u0120conflict": 6549, "Many": 6550, "\u0120assembly": 6551, "\u0120effectively": 6552, "uls": 6553, "\u0120snow": 6554, "\u0120principal": 6555, "pson": 6556, "\u0120inh": 6557, "\u0120lies": 6558, "\u0120subjects": 6559, "\u0120pregn": 6560, "orough": 6561, "\u0120\u00e2\u0122\u0135,": 6562, "\u0120Control": 6563, "\u0120neur": 6564, "gov": 6565, "\u0120NC": 6566, "\u0120\u00c2\u00b7": 6567, "\u0120Italy": 6568, "\u0120earned": 6569, "\u0120breat": 6570, "\u0120Ron": 6571, "\u0120physics": 6572, "\u0120shift": 6573, "\u0120patent": 6574, "ears": 6575, "then": 6576, "ache": 6577, "IDS": 6578, "\u0120positions": 6579, "\u0120Geneal": 6580, "\u0120waters": 6581, "chen": 6582, "\u0120tun": 6583, "\u0120fasc": 6584, "\u0120childhood": 6585, "\u0120AR": 6586, "\u0120liqu": 6587, "\u0120iron": 6588, "eding": 6589, "\u0120suitable": 6590, "\u0120anniversary": 6591, "ye": 6592, "\u0120injury": 6593, "\u0120medium": 6594, "zy": 6595, "irt": 6596, "\u0120concerned": 6597, "\u0120enable": 6598, "\u0120Study": 6599, "ossible": 6600, "rm": 6601, "\u0120whatever": 6602, "\u0120Sat": 6603, "\u0120Lin": 6604, "\u0120Coll": 6605, ",,": 6606, "roke": 6607, "\u0120Lt": 6608, "regon": 6609, "\u0120widely": 6610, "\u0120bact": 6611, "\u0120technique": 6612, "\u0120Mic": 6613, "\u0120Four": 6614, "\u0120Call": 6615, "\u0120Sea": 6616, "\u0120memorial": 6617, "\u0120Point": 6618, "\u0120Food": 6619, "\u0120Ark": 6620, "\u0120Rand": 6621, "\u0120sudden": 6622, "\u0120Far": 6623, "\u0120Greek": 6624, "iley": 6625, "ror": 6626, "\u0120launched": 6627, "\u0120prices": 6628, "while": 6629, "\u0120pool": 6630, "\u0120statements": 6631, "\u0120largely": 6632, "kend": 6633, "ownt": 6634, "\u0120Britain": 6635, "\u0120succeed": 6636, "\u0120seeing": 6637, "\u0120info": 6638, "\u0120Marketing": 6639, "\u0120emissions": 6640, "itud": 6641, "\u0120frequently": 6642, "\u0120fees": 6643, "\u0120sick": 6644, "hi": 6645, "\u0120keeping": 6646, "\u0120pra": 6647, "\u0120innovative": 6648, "hand": 6649, "\u0120stret": 6650, "\u0120entertain": 6651, "cers": 6652, "\u0120conventional": 6653, "\u0120Gre": 6654, "fin": 6655, "epend": 6656, "\u0120acquisition": 6657, "\u0120preferred": 6658, "\u0120debate": 6659, "rage": 6660, "CO": 6661, "SP": 6662, "\u0120churches": 6663, "\u0120greatly": 6664, "\u0120arrived": 6665, "\u0120respectively": 6666, "\u0120consistent": 6667, "\u0120counsel": 6668, "\u00c3\u00b6": 6669, "TA": 6670, "reation": 6671, "worth": 6672, "\u0120herself": 6673, "\u0120missed": 6674, "\u0120Grant": 6675, "encing": 6676, "\u0120recommended": 6677, "\u0120Maryland": 6678, "\u0120plate": 6679, "\u0120Mike": 6680, "\u0120Agency": 6681, "\u0120dental": 6682, "\u0120ce": 6683, "hent": 6684, "\u0120stuff": 6685, "\u0120obvious": 6686, "hus": 6687, "\u0120maybe": 6688, "otes": 6689, "etary": 6690, "\u0120Where": 6691, "ounded": 6692, "\u0120painting": 6693, "\u0120matters": 6694, "\u0120grown": 6695, "\u0120stim": 6696, "mann": 6697, "iology": 6698, "\u0120village": 6699, "\u0120neuro": 6700, "fl": 6701, "\u0120Squ": 6702, "\u0120Afghan": 6703, "\u0120retirement": 6704, "\u0120theore": 6705, "\u0120Hor": 6706, "\u0120Bell": 6707, "aph": 6708, "\u0120vehicle": 6709, "pes": 6710, "\u0120invent": 6711, "\u0120listen": 6712, "holders": 6713, "\u0120mile": 6714, "\u0120Trail": 6715, "\u0120golf": 6716, "\u0120tom": 6717, "\u0120exists": 6718, "\u0120dangerous": 6719, "\u0120negot": 6720, "\u0120floor": 6721, "\u0120funded": 6722, "UM": 6723, "\u0120Ast": 6724, "\u0120Kel": 6725, "\u0120audience": 6726, "bian": 6727, "Jan": 6728, "\u0120camer": 6729, "\u0120Albert": 6730, "\u0120possess": 6731, "olis": 6732, "nie": 6733, "\u0120Stephen": 6734, "unicip": 6735, "\u0120implementation": 6736, "\u0120encourage": 6737, "\u0120weapons": 6738, "\u0120Bern": 6739, "\u0120provision": 6740, "\u0120signals": 6741, "\u0120Apple": 6742, "\u0120Resources": 6743, "\u0120Rog": 6744, "\u0120explained": 6745, "thur": 6746, "\u0120switch": 6747, "\u0120counties": 6748, "\u0120dynamic": 6749, "\u0120guidance": 6750, "\u0120duty": 6751, "\u0120advertising": 6752, "craft": 6753, "Me": 6754, "bell": 6755, "Ste": 6756, "\u0120awareness": 6757, "fast": 6758, "iration": 6759, "\u0120formal": 6760, "\u0120exciting": 6761, "rity": 6762, "\u0120flat": 6763, "\u0120Latin": 6764, "\u0120incred": 6765, "\u0120Last": 6766, "\u0120unknown": 6767, "apes": 6768, "Mrs": 6769, "\u0120controls": 6770, "\u0120Max": 6771, "\u0120urg": 6772, "ogical": 6773, "\u0120topics": 6774, "\u0120aren": 6775, "\u0120council": 6776, "\u0120voters": 6777, "\u0120landscape": 6778, "\u0120recommendations": 6779, "\u0120dates": 6780, "\u0120Burial": 6781, "\u0120thin": 6782, "\u0120mel": 6783, "aine": 6784, "Do": 6785, "\u0120visitors": 6786, "\u0120Justice": 6787, "\u0120Pop": 6788, "\u0120chronic": 6789, "lah": 6790, "\u0120Lincoln": 6791, "\u0120\u00c2\u00a9": 6792, "\u0120troops": 6793, "\u0120starts": 6794, "\u0120websites": 6795, "\u0120Bureau": 6796, "\u0120indu": 6797, "'.": 6798, "\u0120consists": 6799, "\u0120Chapter": 6800, "\u0120goods": 6801, "\u0120\u00e2\u0122\u013b": 6802, "\u0120Sup": 6803, "\u0120lots": 6804, "olve": 6805, "anguage": 6806, "\u0120Cult": 6807, "\u0120gate": 6808, "\u0120ongoing": 6809, "\u0120tube": 6810, "\u0120Liber": 6811, "\u0120destroyed": 6812, "\u0120Card": 6813, "\u0120Circ": 6814, "\u0120Anderson": 6815, "\u0120involves": 6816, "\u0120confidence": 6817, "\u0120sand": 6818, "\u0120suffering": 6819, "\u0120Australian": 6820, "\u0120defe": 6821, "].": 6822, "\u0120successfully": 6823, "\u0120incl": 6824, "\u0120fourth": 6825, "Ge": 6826, "aser": 6827, "\u0120represented": 6828, "\u0120height": 6829, "\u0120arrangements": 6830, "arters": 6831, "\u0120Box": 6832, "\u0120crow": 6833, "\u0120appearance": 6834, "ults": 6835, "\u0120entitled": 6836, "\u0120ages": 6837, "acent": 6838, "EP": 6839, "ollowing": 6840, "\u0120radiation": 6841, "\u0120lists": 6842, "gend": 6843, "ologists": 6844, "\u0120steel": 6845, "\u0120pure": 6846, "\u0120consequences": 6847, "\u0120IP": 6848, "ds": 6849, "\u0120substrate": 6850, "\u0120presents": 6851, "\u0120creative": 6852, "\u0120managed": 6853, "\u0120permanent": 6854, "\u0120ing": 6855, "erk": 6856, "phia": 6857, "\u0120possibly": 6858, "lymp": 6859, "\u0120guard": 6860, "ifer": 6861, "\u0120shoot": 6862, "\u0120Lab": 6863, "\u0120Kar": 6864, "inally": 6865, "rection": 6866, "\u0120pal": 6867, "\u0120entity": 6868, "asy": 6869, "\u0120pull": 6870, "merce": 6871, "\u0120Assist": 6872, "Us": 6873, "\u0120Full": 6874, "\u0120familiar": 6875, "\u0120retail": 6876, "\u0120Manager": 6877, "\u0120push": 6878, "utch": 6879, "ipt": 6880, "\u0120immediate": 6881, "\u0120component": 6882, "\u0120furn": 6883, "\u0120Iss": 6884, "ceived": 6885, "\u0120column": 6886, "First": 6887, "\u0120alle": 6888, "HS": 6889, "\u0120extension": 6890, "look": 6891, "\u0120integrated": 6892, "\u0120unable": 6893, "\u0120typical": 6894, "\u0120argument": 6895, "\u0120operated": 6896, "\u0120Const": 6897, "othy": 6898, "\u0120flag": 6899, "\u0120monitoring": 6900, "\u0120stores": 6901, "\u0120urban": 6902, "aning": 6903, "ighter": 6904, "\u0120neighborhood": 6905, "bel": 6906, "\u0120Es": 6907, "\u0120yield": 6908, "\u0120slightly": 6909, "class": 6910, "ether": 6911, "\u0120motiv": 6912, "ani": 6913, "\u0120ben": 6914, "\u0120dispos": 6915, "\u0120revenue": 6916, "\u0120roads": 6917, "\u0120outstanding": 6918, "chers": 6919, "\u0120ath": 6920, "\u0120offices": 6921, "\u0120Eastern": 6922, "\u0120votes": 6923, "urric": 6924, "\u0120fill": 6925, "\u0120Oregon": 6926, "\u0120Capt": 6927, "\u0120vert": 6928, "\u0120biggest": 6929, "Why": 6930, "\u0120coupl": 6931, "\u0120SP": 6932, "ati": 6933, "\u0120Dig": 6934, "\u0120intellect": 6935, "\u0120afford": 6936, "\u0120Jenn": 6937, "\u0120Scient": 6938, "\u0120Back": 6939, "ilton": 6940, "\u0120Allen": 6941, "\u0120studied": 6942, "iscal": 6943, "\u0120inner": 6944, "friend": 6945, "\u0120Station": 6946, "\u0120programming": 6947, "\u0120critic": 6948, "ignment": 6949, "\u0120jump": 6950, "\u0120Click": 6951, "\u0120DC": 6952, "\u0120suggested": 6953, "\u0120Access": 6954, "\u0120Festival": 6955, "\u0120arrest": 6956, "illy": 6957, "\u0120operate": 6958, "\u0120array": 6959, "edu": 6960, "\u0120facilit": 6961, "shire": 6962, "adelphia": 6963, "box": 6964, "\u0120Connect": 6965, "\u0120zone": 6966, "\u0120topic": 6967, "SS": 6968, "\u0120electro": 6969, "\u0120uncertain": 6970, "lines": 6971, "\u0120dry": 6972, "Int": 6973, "fe": 6974, "\u0120Crit": 6975, "rete": 6976, "\u0120vulner": 6977, "\u0120discrimination": 6978, "new": 6979, "\u0120practical": 6980, "\u0120stands": 6981, "\u0120geneal": 6982, "\u0120Staff": 6983, "\u0120seemed": 6984, "\u0120mal": 6985, "\u0120diam": 6986, "\u0120earn": 6987, "\u0120false": 6988, "\u0120Dev": 6989, "\u0120turns": 6990, "\u0120AT": 6991, "\u0120mand": 6992, "\u0120electron": 6993, "\u0120Budd": 6994, "\u0120smart": 6995, "antly": 6996, "opher": 6997, "His": 6998, "\u0120survival": 6999, "\u0120algorith": 7000, "istical": 7001, "hall": 7002, "\u0120update": 7003, "\u0120consumers": 7004, "\u0120membership": 7005, "ursing": 7006, "\u0120nephews": 7007, "\u0120sad": 7008, "\u0120approval": 7009, "Pe": 7010, "\u0120participate": 7011, "rics": 7012, "ippi": 7013, "\u0120etymology": 7014, "rin": 7015, "\u0120Use": 7016, "\u0120Mah": 7017, "\u0120rein": 7018, "\u0120communications": 7019, "thew": 7020, "\u0120assigned": 7021, "\u0120chairman": 7022, "sect": 7023, "\u0120covers": 7024, "ca": 7025, "\u0120marg": 7026, "\u0120stored": 7027, "\u0120OR": 7028, "\u0120figures": 7029, "\u0120linear": 7030, "\u0120Him": 7031, "\u0120Nature": 7032, "\u0120Irish": 7033, "Oct": 7034, "\u0120legislation": 7035, "\u0120gar": 7036, "after": 7037, "osm": 7038, "\u0120authorities": 7039, "\u0120repeated": 7040, "anna": 7041, "wing": 7042, "\u0120Environmental": 7043, "\u0120reject": 7044, "\u0120Annual": 7045, "\u0120rd": 7046, "En": 7047, "\u0120restrict": 7048, "\u0120Sem": 7049, "\u0120Pa": 7050, "race": 7051, "\u0120stability": 7052, "sem": 7053, "\u0120SC": 7054, "\u0120Log": 7055, "ba": 7056, "\u0120Twitter": 7057, "\u0120Springs": 7058, "\u0120Date": 7059, "',": 7060, "\u0120collected": 7061, "\u0120contained": 7062, "inners": 7063, "ATE": 7064, "\u0120broken": 7065, "\u0120biograph": 7066, "\u0120acts": 7067, "\u0120approaches": 7068, "\u0120Hunt": 7069, "graduate": 7070, "\u0120television": 7071, "\u0120unlike": 7072, "\u0120phenomen": 7073, "\u0120Steve": 7074, "\u0120label": 7075, "coh": 7076, "gers": 7077, "\u0120Common": 7078, "unning": 7079, "rix": 7080, "elled": 7081, "\u0120Series": 7082, "\u0120sav": 7083, "\u0120Pen": 7084, "\u0120Natural": 7085, "\u0120Order": 7086, "\u0120devoted": 7087, "\u0120Italian": 7088, "\u0120Ba": 7089, "\u0120Kim": 7090, "\u0120murder": 7091, "ici": 7092, "\u0120acquired": 7093, "ads": 7094, "\u0120supposed": 7095, "\u0120cous": 7096, "\u0120agent": 7097, "\u0120contemporary": 7098, "\u0120hair": 7099, "\u0120cab": 7100, "\u0120Constitution": 7101, "\u0120patterns": 7102, "angel": 7103, "Of": 7104, "\u0120batter": 7105, "icity": 7106, "\u0120Rout": 7107, "\u0120Olymp": 7108, "\u0120pair": 7109, "\u0120improving": 7110, "\u0120appoint": 7111, "\u0120Alexander": 7112, "ta": 7113, "\u0120scene": 7114, "AND": 7115, "\u0120orders": 7116, "burgh": 7117, "anes": 7118, "\u0120kinds": 7119, "\u0120sequence": 7120, "uous": 7121, "\u0120Spain": 7122, "\u0120Pot": 7123, "\u0120explan": 7124, "\u0120Yet": 7125, "\u0120Ext": 7126, "\u0120repair": 7127, "EA": 7128, "flow": 7129, "\u0120route": 7130, "\u0120diversity": 7131, "\u0120Bon": 7132, "\u0120judgment": 7133, "\u0120twice": 7134, "\u0120attribut": 7135, "\u0120Name": 7136, "\u0120diseases": 7137, "\u0120Change": 7138, ".]": 7139, "\u0120installation": 7140, "\u0120pione": 7141, "icial": 7142, "oned": 7143, "\u0120PR": 7144, "\u0120mix": 7145, "\u0120gro": 7146, "\u0120Bh": 7147, "\u0120Pers": 7148, "\u0120possibility": 7149, "\u0120era": 7150, "\u0120searc": 7151, "\u0120improvement": 7152, "ascular": 7153, "\u0120biology": 7154, "uts": 7155, "front": 7156, "\u0120Tree": 7157, "\u0120Falls": 7158, "\u0120Sav": 7159, "osure": 7160, "\u0120accident": 7161, "ublished": 7162, "\u0120lect": 7163, "\u0120attached": 7164, "lock": 7165, "\u0120potentially": 7166, "rat": 7167, "\u0120Light": 7168, "iors": 7169, "throp": 7170, "prene": 7171, "\u0120Allah": 7172, "quest": 7173, "\u0120kingdom": 7174, "eties": 7175, "\u0120nieces": 7176, "Let": 7177, "\u0120catch": 7178, "\u0120Guide": 7179, "\u0120reprodu": 7180, "\u0120Arizona": 7181, "grade": 7182, "\u0120rough": 7183, "\u0120sacr": 7184, "\u0120teen": 7185, "otal": 7186, "\u0120Pass": 7187, "\u0120Person": 7188, "\u0120protected": 7189, "\u0120Neb": 7190, "owned": 7191, "\u0120Non": 7192, "\u0120tub": 7193, "Over": 7194, "\u0120indicates": 7195, "reprene": 7196, "\u0120Fed": 7197, "\u0120ultimately": 7198, "\u0120Anne": 7199, "\u0120planned": 7200, "vard": 7201, "uma": 7202, "\u0120Mess": 7203, "\u0120gall": 7204, "\u0120Turn": 7205, "\u0120Sir": 7206, "\u0120precise": 7207, "\u0120cm": 7208, "ospel": 7209, "iser": 7210, "\u0120occasion": 7211, "ennis": 7212, "\u0120brings": 7213, "\u0120barri": 7214, "\u0120returns": 7215, "\u0120Know": 7216, "\u0120roots": 7217, "issippi": 7218, "agement": 7219, "\u0120lose": 7220, "\u0120Veter": 7221, "\u0120wait": 7222, "\u0120consumer": 7223, "\u0120answers": 7224, "\u0120recognize": 7225, "BM": 7226, "\u0120introduction": 7227, "\u0120desired": 7228, "\u0120excess": 7229, "\u0120increasingly": 7230, "\u0120Youth": 7231, "\u0120Hard": 7232, "\u0120fee": 7233, "\u0120forever": 7234, "\u0120sheet": 7235, "NS": 7236, "ensed": 7237, "\u0120principle": 7238, "\u0120wine": 7239, "\u0120oldest": 7240, "acher": 7241, "\u0120Anth": 7242, "\u0120bringing": 7243, "\u0120Rus": 7244, "\u0120FOR": 7245, "\u0120Vill": 7246, "\u0120\u00c2\u00a7": 7247, "\u0120(\"": 7248, "\u0120plays": 7249, "\u0120transition": 7250, "\u0120Down": 7251, "adow": 7252, "\u0120vice": 7253, "\u0120functional": 7254, "\u0120Vice": 7255, "da": 7256, "\u0120plot": 7257, "\u0120trig": 7258, "\u0120fighting": 7259, "lets": 7260, "\u0120ballot": 7261, "uzz": 7262, "\u0120mental": 7263, "lahoma": 7264, "gments": 7265, "\u0120constit": 7266, "aks": 7267, "rus": 7268, "BT": 7269, "abama": 7270, "\u0120officiating": 7271, "Go": 7272, "was": 7273, "\u0120scheduled": 7274, "\u0120id": 7275, "\u0120Article": 7276, "sm": 7277, "\u0120boys": 7278, "eller": 7279, "\u0120Drive": 7280, "\u0120Lu": 7281, "\u0120Fil": 7282, "apping": 7283, "\u0120disput": 7284, "\u0120Team": 7285, "\u0120behalf": 7286, "\u0120realize": 7287, "\u0120reducing": 7288, "hetic": 7289, "PC": 7290, "including": 7291, "\u0120couldn": 7292, "aints": 7293, "\u0120undert": 7294, "\u0120acceler": 7295, "\u0120Princ": 7296, "\u0120constitution": 7297, "\u0120paragraph": 7298, "\u0120substantial": 7299, "zil": 7300, "\u0120Hay": 7301, "\u0120parking": 7302, "\u0120explains": 7303, "\u0120invited": 7304, "\u0120arts": 7305, "lections": 7306, "\u0120Ocean": 7307, "itative": 7308, "\u0120accessible": 7309, "\u0120compliance": 7310, "\u0120sought": 7311, "rine": 7312, "\u0120Historical": 7313, "\u0120mo": 7314, "\u0120messages": 7315, "ocated": 7316, "\u0120Marri": 7317, "\u0120adding": 7318, "\u0120commonly": 7319, "rell": 7320, "\u0120Building": 7321, "\u0120Lawrence": 7322, "\u0120believes": 7323, "\u0120Ent": 7324, "plant": 7325, "\u0120Three": 7326, "person": 7327, "\u0120musical": 7328, "\u0120ring": 7329, "\u0120engage": 7330, "\u0120universal": 7331, "''": 7332, "isdom": 7333, "\u0120surf": 7334, "\u0120estimate": 7335, "rovers": 7336, "\u0120examine": 7337, "\u0120Age": 7338, "bal": 7339, "http": 7340, "\u0120nob": 7341, "\u0120Township": 7342, "\u0120Emer": 7343, "\u0120Schol": 7344, "\u0120towns": 7345, "\u0120ISBN": 7346, "\u0120ON": 7347, "\u0120ahead": 7348, "\u0120fant": 7349, "osexual": 7350, "ups": 7351, "\u0120spoke": 7352, "\u0120Diego": 7353, "\u0120mouth": 7354, "\u0120Cell": 7355, "mes": 7356, "\u0120string": 7357, "IST": 7358, "\u0120kit": 7359, "\u0120merch": 7360, "\u0120tables": 7361, "cycl": 7362, "Every": 7363, "\u0120Minister": 7364, "\u0120Philadelphia": 7365, "\u0120streets": 7366, "umes": 7367, "igious": 7368, "riculum": 7369, "\u0120worship": 7370, "pay": 7371, "arts": 7372, "\u0120Writ": 7373, "\u0120Chris": 7374, "enger": 7375, "aver": 7376, "\u0120plural": 7377, "\u0120sky": 7378, "\u0120Cle": 7379, "\u0120Queen": 7380, "\u0120decide": 7381, "ila": 7382, "\u0120Hand": 7383, "pton": 7384, "\u0120constructed": 7385, "foot": 7386, "\u0120Heart": 7387, "\u0120strongly": 7388, "\u0120conj": 7389, "\u0120hem": 7390, "UL": 7391, "plete": 7392, "\u0120prohib": 7393, "\u0120Viet": 7394, "\u0120therm": 7395, "\u0120Ave": 7396, "elve": 7397, "zer": 7398, "\u0120temperatures": 7399, "\u0120machines": 7400, "\u0120qualified": 7401, "Copyright": 7402, "\u0120Awards": 7403, "\u0120tumors": 7404, "\u0120Case": 7405, "\u0120Broad": 7406, "\u0120Another": 7407, "\u0120divided": 7408, "\u0120replaced": 7409, "\u0120react": 7410, "\u0120indicated": 7411, "eman": 7412, "she": 7413, "\u0120Like": 7414, "\u0120Training": 7415, "\u0120sweet": 7416, "Can": 7417, "\u0120Christians": 7418, "\u0120museum": 7419, "\u0120writes": 7420, "usalem": 7421, "\u0120refers": 7422, "ALL": 7423, "\u0120rul": 7424, "\u0120haven": 7425, "xx": 7426, "QL": 7427, "\u0120clock": 7428, "\u0120equivalent": 7429, "\u0120fruit": 7430, "\u0120Palest": 7431, "\u0120alb": 7432, "Mem": 7433, "icide": 7434, "eper": 7435, "\u0120reasonable": 7436, "\u0120manif": 7437, "\u0120requests": 7438, "\u0120provisions": 7439, "PL": 7440, "\u0120accomplish": 7441, "\u0120variations": 7442, "\u0120Prize": 7443, "\u0120domestic": 7444, "real": 7445, "\u0120scope": 7446, "\u0120Supreme": 7447, "\u0120implemented": 7448, "\u0120estimates": 7449, "\u0120schedule": 7450, "\u0120biological": 7451, "\u0120---": 7452, "ART": 7453, "\u0120clar": 7454, "Aug": 7455, "\u0120Mississippi": 7456, "isk": 7457, "\u0120Rest": 7458, "\u0120Os": 7459, "acc": 7460, "asp": 7461, "\u0120printed": 7462, "\u0120Lyn": 7463, "orses": 7464, "\u0120chain": 7465, "\u0120buff": 7466, "\u0120Adam": 7467, "\u0120Norm": 7468, "alo": 7469, "\u0120Sign": 7470, "jection": 7471, "pd": 7472, "\u0120lens": 7473, "\u0120panel": 7474, "\u0120League": 7475, "\u0120carrier": 7476, "\u0120Child": 7477, "\u0120phr": 7478, "Another": 7479, "\u0120maintaining": 7480, "\u0120mechanisms": 7481, "\u0120enroll": 7482, "\u0120\u00c2\u00bb": 7483, "rog": 7484, "\u0120comprising": 7485, "\u0120improvements": 7486, "bing": 7487, "isa": 7488, "\u0120Exper": 7489, "\u0120prox": 7490, "\u0120Thanks": 7491, "\u0120remove": 7492, "\u0120handle": 7493, "\u0120Hawai": 7494, "\u0120Nations": 7495, "\u0120celebration": 7496, "imens": 7497, "\u0120diabetes": 7498, "pm": 7499, "\u0120confident": 7500, "\u0120tor": 7501, "\u0120Cra": 7502, "Car": 7503, "\u0120Whit": 7504, "SE": 7505, "\u0120respective": 7506, "\u0120Guard": 7507, "\u0120Barbara": 7508, "\u0120writers": 7509, "\u0120absence": 7510, "\u0120Low": 7511, "\u0120Proper": 7512, "EST": 7513, "\u0120Anna": 7514, "\u0120ships": 7515, "\u0120centuries": 7516, "\u0120eastern": 7517, "\u0120Kingdom": 7518, "\u0120chemistry": 7519, "\u0120Saint": 7520, "\u0120nearby": 7521, "\u0120Atlantic": 7522, "\u0120Officer": 7523, "\u0120alive": 7524, "organ": 7525, "ampions": 7526, "\u0120blow": 7527, "\u0120Ram": 7528, "\u0120warming": 7529, "\u0120experimental": 7530, "erts": 7531, "\u0120(%": 7532, "asant": 7533, "\u0120texts": 7534, "\u0120esc": 7535, "\u0120connections": 7536, "\u0120directors": 7537, "host": 7538, "\u0120Po": 7539, "\u0120rid": 7540, "miss": 7541, "uties": 7542, "\u0120governments": 7543, "avor": 7544, "\u0120voted": 7545, "\u0120concert": 7546, "\u0120victims": 7547, "\u0120drawn": 7548, "\u0120movie": 7549, "\u0120hardware": 7550, "\u0120session": 7551, "\u0120associate": 7552, "\u0120Oklahoma": 7553, "erald": 7554, "\u0120Mission": 7555, "\u0120mechanical": 7556, "\u0120Nob": 7557, "rank": 7558, "esterday": 7559, "oking": 7560, "\u0120taxes": 7561, "\u0120Pak": 7562, "raction": 7563, "\u0120mine": 7564, "Today": 7565, "\u0120creates": 7566, "\u0120tiny": 7567, "Surv": 7568, "\u0120enforcement": 7569, "\u0120regul": 7570, "\u0120Highway": 7571, "\u0120milk": 7572, "\u0120parameters": 7573, "\u0120Susan": 7574, "\u0120unemployment": 7575, "\u0120subsequent": 7576, "\u0120Scotland": 7577, "ctic": 7578, "\")": 7579, "\u0120Anton": 7580, "\u0120inspired": 7581, "\u0120Mult": 7582, "\u0120Harry": 7583, "ners": 7584, "ums": 7585, "\u0120permission": 7586, "\u0120contribution": 7587, "\u0120soil": 7588, "\u0120cited": 7589, "Pre": 7590, "\u0120faster": 7591, "\u0120attorney": 7592, "\u0120seed": 7593, "irms": 7594, "\u0120Perform": 7595, "\u0120Utah": 7596, "\u0120selling": 7597, "\u0120grass": 7598, "\u0120unus": 7599, "wan": 7600, "\u0120inches": 7601, "\u0120addresses": 7602, "def": 7603, "orters": 7604, "\u0120\u00c2\u00b0": 7605, "\u0120Som": 7606, "\u0120certificate": 7607, "cons": 7608, "\u0120claimed": 7609, "\u0120Alabama": 7610, "esis": 7611, "Ne": 7612, "ygen": 7613, "\u0120tick": 7614, "./": 7615, "rary": 7616, "\u0120cheese": 7617, "\u0120searchable": 7618, "\u0120visible": 7619, "Tra": 7620, "\u0120depart": 7621, "using": 7622, "\u0120NOT": 7623, "\u0120involving": 7624, "\u0120exception": 7625, "\u0120situations": 7626, "\u0120centers": 7627, "\u0120Support": 7628, "\u0120merely": 7629, "\u0120Leon": 7630, "==": 7631, "\u0120modified": 7632, "\u0120electricity": 7633, "\u0120rig": 7634, "\u0120reporting": 7635, "\u0120tail": 7636, "\u0120hath": 7637, "\u0120Death": 7638, "\u0120Pit": 7639, "\u0120Past": 7640, "ressive": 7641, "\u0120capture": 7642, "\u0120Emp": 7643, "\u0120saved": 7644, "\u0120Rail": 7645, "\u0120Maine": 7646, "\u0120Week": 7647, "inction": 7648, "Her": 7649, "\u0120framework": 7650, "\u0120veterans": 7651, "\u0120sight": 7652, "owntown": 7653, "aturally": 7654, "\u0120Ros": 7655, "\u0120Hom": 7656, "\u0120providers": 7657, "\u0120external": 7658, "\u0120visited": 7659, "\u0120Jerusalem": 7660, "\u0120hole": 7661, "\u0120Bru": 7662, "\u0120aband": 7663, "\u0120infection": 7664, "\u0120applicant": 7665, "uction": 7666, "\u0120root": 7667, "ulpt": 7668, "\u0120Inn": 7669, "\u0120fold": 7670, "iro": 7671, "elson": 7672, "\u0120Learning": 7673, "\u0120apart": 7674, "don": 7675, "\u0120particles": 7676, "\u0120pit": 7677, "\u0120stood": 7678, "bar": 7679, "\u0120resulted": 7680, "\u0120Expl": 7681, "El": 7682, "\u0120composition": 7683, "\u0120photographs": 7684, "\u0120VA": 7685, "\u0120consideration": 7686, "\u0120vent": 7687, "\u0120insight": 7688, "\u0120theme": 7689, "\u0120relation": 7690, "Also": 7691, "\u0120rapidly": 7692, "\u0120suit": 7693, "\u0120broadcast": 7694, "\u0120forget": 7695, "\u0120Wat": 7696, "\u0120Hart": 7697, "Man": 7698, "\u0120permit": 7699, "just": 7700, "\u0120volunteer": 7701, "\u0120branch": 7702, "\u0120supplies": 7703, "\u0120mathematics": 7704, "\u0120edit": 7705, "\u0120Pay": 7706, "\u0120Local": 7707, "!\"": 7708, "\u0120expanded": 7709, "\u0120Panel": 7710, "\u0120confirmed": 7711, "hire": 7712, "\u0120Sr": 7713, "\u0120designated": 7714, "\u0120Custom": 7715, "\u0120ancestors": 7716, "\u0120assets": 7717, "\u0120honest": 7718, "\u0120Members": 7719, "\u0120authent": 7720, "\u0120Market": 7721, "\u0120IC": 7722, "\u0120simulation": 7723, "town": 7724, "\u0120representing": 7725, "\u0120Using": 7726, "\u0120Revolution": 7727, "\u0120Student": 7728, "\u0120Senior": 7729, "\u0120ideal": 7730, "\u0120participation": 7731, "inator": 7732, "\u0120AC": 7733, "\u0120horiz": 7734, "\u0120expressed": 7735, "\u0120secondary": 7736, "\u0120weekend": 7737, "\u0120loop": 7738, "\u0120expertise": 7739, "\u0120Archives": 7740, "cover": 7741, "\u0120outer": 7742, "\u0120Instead": 7743, "\u0120Peace": 7744, "\u0120ven": 7745, "cific": 7746, "\u0120impossible": 7747, "\u0120define": 7748, "\u0120sevent": 7749, "raham": 7750, "covery": 7751, "\u0120founder": 7752, "\u0120relating": 7753, "\u0120Police": 7754, "vy": 7755, "\u0120PDF": 7756, "\u0120zero": 7757, "\u0120adjacent": 7758, "\u0120liquid": 7759, "\u0120roles": 7760, "\u0120grandfather": 7761, "\u0120proposals": 7762, "\u0120cogn": 7763, "ardens": 7764, "\u0120Nancy": 7765, "\u0120ille": 7766, "\u0120objectives": 7767, "you": 7768, "\u0120absor": 7769, "\u0120Ltd": 7770, "\u0120exec": 7771, "\u0120Works": 7772, "\u0120Ah": 7773, "\u0120veget": 7774, "\u0120sport": 7775, "aked": 7776, "\u0120highlight": 7777, "\u0120waiting": 7778, "Sec": 7779, "\u0120Get": 7780, "\u0120bomb": 7781, "\u0120instruct": 7782, "berts": 7783, "never": 7784, "utation": 7785, "\u0120Climate": 7786, "\u0120pronunciation": 7787, "aratus": 7788, "\u0120teams": 7789, "iated": 7790, "\u0120trends": 7791, "ESS": 7792, "\u0120flo": 7793, "\u0120Kat": 7794, "\u0120errors": 7795, "\u0120Wy": 7796, "\u0120Creat": 7797, "Dav": 7798, "called": 7799, "cohol": 7800, "\u0120laid": 7801, "\u0120controvers": 7802, "\u0120Howard": 7803, "ibraries": 7804, "\u0120interactive": 7805, "\u0120vessels": 7806, "iot": 7807, "\u0120fraud": 7808, "\u0120Cro": 7809, "\u0120demonstrate": 7810, "\u0120Students": 7811, "aft": 7812, "\u0120criminal": 7813, "EF": 7814, "||||": 7815, "umer": 7816, "\u0120somewhat": 7817, "orne": 7818, "William": 7819, "olly": 7820, "\u0120Asian": 7821, "sen": 7822, "\u0120cemetery": 7823, "\u0120boards": 7824, "fall": 7825, "\u0120Rod": 7826, "vity": 7827, "\u0120ca": 7828, "\u0120restaurant": 7829, "\u0120Arm": 7830, "\u0120tested": 7831, "Mod": 7832, "icious": 7833, "\u0120prominent": 7834, "pany": 7835, "\u0120formerly": 7836, "\u0120grandmother": 7837, "\u0120Cost": 7838, "\u0120trials": 7839, "\u0120Tax": 7840, "roid": 7841, "eterm": 7842, "ait": 7843, "\u0120Safety": 7844, "\u0120applicable": 7845, "\u0120analyz": 7846, "\u0120divorce": 7847, "acts": 7848, "\u0120marks": 7849, "night": 7850, "\u0120instruction": 7851, "\u0120AL": 7852, "\u0120Independ": 7853, "\u0120putting": 7854, "\u0120experiment": 7855, "\u0120Advis": 7856, "words": 7857, "\u0120donations": 7858, "ternoon": 7859, "oval": 7860, "\u0120identification": 7861, "\u0120Ford": 7862, "onym": 7863, "\u0120outcomes": 7864, "ditionally": 7865, "\u0120minim": 7866, "\u0120thirty": 7867, "\u0120athlet": 7868, "\u0120biographies": 7869, "\u0120diagnosis": 7870, "\u0120Greg": 7871, "\u0120Afghanistan": 7872, "Then": 7873, "\u0120survive": 7874, "\u0120rising": 7875, "\u0120studying": 7876, "\u0120gender": 7877, "\u0120priority": 7878, "\u0120composed": 7879, "\u0120shock": 7880, "\u0120Governor": 7881, "\u0120Table": 7882, "\u0120wouldn": 7883, "jamin": 7884, "\u0120Set": 7885, "\u0120LORD": 7886, "\u0120ru": 7887, "\u0120attempts": 7888, "\u0120hunting": 7889, "\u0120Regional": 7890, "\u0120Friends": 7891, "\u0120bran": 7892, "\u0120Server": 7893, ".:": 7894, "AF": 7895, "page": 7896, "ested": 7897, "\u0120thereof": 7898, "\u0120architecture": 7899, "\u0120withd": 7900, "\u0120Mathemat": 7901, "\u0120abstract": 7902, "\u0120Swed": 7903, "\u0120struggle": 7904, "car": 7905, "\u0120susp": 7906, "\u0120passage": 7907, "\u0120antib": 7908, "\u0120Ball": 7909, "\u0120prophe": 7910, "\u0120Word": 7911, "\u0120periods": 7912, "\u0120Standard": 7913, "Per": 7914, "\u0120contributed": 7915, "\u0120Franklin": 7916, "dy": 7917, "\u0120preparation": 7918, "\u0120adequ": 7919, "\u0120worse": 7920, "\u0120watching": 7921, "\u0120provider": 7922, "\u0120enthus": 7923, "\u0120powers": 7924, "\u0120quiet": 7925, "\u0120wet": 7926, "\u0120Ms": 7927, "\u0120capabilities": 7928, "\u0120remind": 7929, "\u00c2\u00b7": 7930, "uten": 7931, "anger": 7932, "\u0120fiction": 7933, "MC": 7934, "\u0120Eric": 7935, "ogether": 7936, "\u0120speaking": 7937, "\u0120Moore": 7938, "Just": 7939, "\u0120Conc": 7940, "\u0120Heritage": 7941, "\u0120boat": 7942, "pers": 7943, "\u0120establishment": 7944, "mod": 7945, "\u0120reviews": 7946, "vation": 7947, "\u0120choices": 7948, "\u0120Harris": 7949, "chestra": 7950, "\u0120Cat": 7951, "omas": 7952, "\u0120displ": 7953, "\u0120synd": 7954, "iner": 7955, "ridges": 7956, "\u0120garden": 7957, "\u0120statistics": 7958, "\u0120addressed": 7959, "\u0120Mu": 7960, "\u0120depth": 7961, "\u0120galaxies": 7962, "\u0120bes": 7963, "EG": 7964, "\u0120wed": 7965, "\u0120dance": 7966, "\u0120Theatre": 7967, "\u0120mystery": 7968, "\u0120Brand": 7969, "\u0120featured": 7970, "\u0120audit": 7971, "\u0120Show": 7972, "\u0120confirm": 7973, "UC": 7974, "aug": 7975, "\u0120compensation": 7976, "\u0120prompt": 7977, "will": 7978, "\u0120density": 7979, "dale": 7980, "\u0120Account": 7981, "ingham": 7982, "making": 7983, "\u0120coal": 7984, "uality": 7985, "\u0120paralle": 7986, "away": 7987, "essions": 7988, "icut": 7989, "through": 7990, "\u0120Index": 7991, "\u0120deaths": 7992, "\u0120Oxford": 7993, "agan": 7994, "\u0120Brazil": 7995, "\u0120wheel": 7996, "\u0120Qur": 7997, "\u0120Mit": 7998, "\u0120amounts": 7999, "\u0120hip": 8000, "\u0120laboratory": 8001, "ket": 8002, "operation": 8003, "\u0120complicated": 8004, "\u0120Cert": 8005, "\u0120Tru": 8006, "\u0120jur": 8007, "\u0120acknowled": 8008, "\u0120inher": 8009, "\u0120eating": 8010, "Christ": 8011, "\u0120disch": 8012, "\u0120movements": 8013, "criptions": 8014, "\u0120finish": 8015, "\u0120Brother": 8016, "\u0120fiscal": 8017, "\u0120Harvard": 8018, "\u0120Patrick": 8019, "\u0120walking": 8020, "\u0120protocol": 8021, "gent": 8022, "\u0120settings": 8023, "\u0120Pakistan": 8024, "\u0120legit": 8025, "\u0120odd": 8026, "ading": 8027, "\u0120celebrated": 8028, "ouses": 8029, "\u0120ton": 8030, "\u0120kil": 8031, "\u0120channels": 8032, "\u0120gifts": 8033, "\u0120guess": 8034, "\u0120facing": 8035, "\u0120Phot": 8036, "\u0120lifetime": 8037, "\u0120Note": 8038, "uscript": 8039, "\u0120planets": 8040, "\u0120boundaries": 8041, "\u0120pump": 8042, "\u0120UC": 8043, "aith": 8044, "\u0120newspaper": 8045, "elle": 8046, "aware": 8047, "\u0120organic": 8048, "\u0120van": 8049, "\u0120intellectual": 8050, "\u0120Hop": 8051, "\u0120Gil": 8052, "\u0120Isa": 8053, "\u0120rooms": 8054, "\u0120employers": 8055, "\u0120dollar": 8056, "herent": 8057, "orous": 8058, "BI": 8059, "\u0120Financial": 8060, "\u0120bear": 8061, "\u0120Democratic": 8062, "\u0120continuous": 8063, "erly": 8064, "\u0120hearts": 8065, "\u0120acute": 8066, "\u0120proteins": 8067, "\u0120seat": 8068, "\u0120Opt": 8069, "Stud": 8070, "inter": 8071, "\u0120McG": 8072, "\u0120visiting": 8073, "\u0120cas": 8074, "\u0120suffered": 8075, "ichol": 8076, "\u0120Zeal": 8077, "bound": 8078, "\u0120Ren": 8079, "Any": 8080, "TC": 8081, "\u0120smooth": 8082, "\u0120Ur": 8083, "\u0120managers": 8084, "ishers": 8085, "iest": 8086, "\u0120conclusion": 8087, "Te": 8088, "\u0120transaction": 8089, "\u0120Univers": 8090, "\u0120aer": 8091, "\u0120row": 8092, "\u0120Dam": 8093, "\u0120Gree": 8094, "books": 8095, "\u0120crop": 8096, "\u0120Member": 8097, "\u0120Bul": 8098, "het": 8099, "\u0120unex": 8100, "\u0120ancestor": 8101, "mony": 8102, "\u0120cutting": 8103, "cul": 8104, "\u0120titles": 8105, "\u0120Tal": 8106, "\u0120examination": 8107, "\u0120gained": 8108, "\u0120Among": 8109, "Book": 8110, "\u0120declared": 8111, "ultane": 8112, "\u0120@": 8113, "\u0120mac": 8114, "\u00c2\u00a9": 8115, "\u0120stead": 8116, "\u0120warrant": 8117, "\u0120expensive": 8118, "\u0120measured": 8119, "\u0120reveal": 8120, "\u0120fix": 8121, "\u0120logic": 8122, "itar": 8123, "\u0120Ho": 8124, "\u0120performing": 8125, "\u0120Cambridge": 8126, "\u0120Marie": 8127, "yles": 8128, "\u0120guest": 8129, "\u0120Current": 8130, "\u0120Place": 8131, "\u0120metab": 8132, "\u0120doctors": 8133, "owed": 8134, "awa": 8135, "\u0120Clinton": 8136, "Two": 8137, "\u0120mountains": 8138, "Art": 8139, "Dep": 8140, "\u0120destruction": 8141, "\u0120Pur": 8142, "\u0120Kh": 8143, "\u0120grace": 8144, "\u0120operator": 8145, "\u0120sciences": 8146, "\u0120residential": 8147, "\u0120shell": 8148, "\u0120score": 8149, "\u0120Corp": 8150, "\u0120reward": 8151, "\u0120vs": 8152, "\u0120stations": 8153, "\u0120outcome": 8154, "\u0120searching": 8155, "\u0120congreg": 8156, "\u0120Rome": 8157, "\u0120Type": 8158, "\u0120pleased": 8159, "\u0120surname": 8160, "ushed": 8161, "\u0120Arthur": 8162, "iki": 8163, "unicipal": 8164, "\u0120ratio": 8165, "\u0120updates": 8166, "\u0120draft": 8167, ".).": 8168, "grad": 8169, "\u0120Sep": 8170, "\u0120portra": 8171, "door": 8172, "HA": 8173, "Feb": 8174, "fts": 8175, "\u0120proport": 8176, "\u0120Number": 8177, "\u0120spoken": 8178, "\u0120bonds": 8179, "asts": 8180, "\u0120Hills": 8181, "ercury": 8182, "\u0120democracy": 8183, "\u0120reviewed": 8184, "\u0120Ven": 8185, "\u0120ride": 8186, "\u0120representation": 8187, "\u0120absolutely": 8188, "ECT": 8189, "\u0120surve": 8190, "\u0120samples": 8191, "\u0120MO": 8192, "\u0120exposed": 8193, "\u0120centre": 8194, "eping": 8195, "\u0120hall": 8196, "\u0120concepts": 8197, "\u0120fabric": 8198, "\u0120McK": 8199, "\u0120trading": 8200, "\u0120completion": 8201, "\u0120:,": 8202, "\u0120Du": 8203, "\u0120dinner": 8204, "\u0120homeless": 8205, "\u0120versions": 8206, "\u0120proven": 8207, "this": 8208, "\u0120closer": 8209, "pie": 8210, "ko": 8211, "\u0120cuts": 8212, "\u0120honored": 8213, "Where": 8214, "\u0120`": 8215, "\u0120anticip": 8216, "\u0120victory": 8217, "\u0120songs": 8218, "\u0120departments": 8219, "olds": 8220, "\u0120Cam": 8221, "\u0120raising": 8222, "\u0120taste": 8223, "\u0120Model": 8224, "\u0120replacement": 8225, "\u0120rememb": 8226, "\u0120intelligence": 8227, "\u0120equally": 8228, "\u0120vertical": 8229, "ching": 8230, "\u0120fan": 8231, "\u0120inhib": 8232, "\u0120Living": 8233, "annel": 8234, "\u0120Zealand": 8235, "mont": 8236, "athered": 8237, "Co": 8238, "\u0120documentation": 8239, "\u0120thereby": 8240, "\u0120Pract": 8241, "\u0120Dean": 8242, "\u0120Resp": 8243, "\u0120instructions": 8244, "\u0120Ont": 8245, "secut": 8246, "\u0120radical": 8247, "ferent": 8248, "\u0120prevention": 8249, "endar": 8250, "inf": 8251, "\u0120regularly": 8252, "\u0120nutrition": 8253, "\u0120requested": 8254, "\u0120classic": 8255, "vol": 8256, "\u0120emphasis": 8257, "\u0120covering": 8258, "iral": 8259, "\u0120conscious": 8260, "\u0120competitive": 8261, "\u0120Disc": 8262, "\u0120settlement": 8263, "elfare": 8264, "\u0120volunteers": 8265, "],": 8266, "\u0120shares": 8267, "\u0120operational": 8268, "\u0120copyright": 8269, "heimer": 8270, "Comm": 8271, "\u0120crucial": 8272, "liam": 8273, "mouth": 8274, "\u0120mit": 8275, "mm": 8276, "istent": 8277, "\u0120Genealogy": 8278, "di": 8279, "arly": 8280, "annah": 8281, "\u0120PhD": 8282, "\u0120collections": 8283, "\u0120Directors": 8284, "\u0120Lic": 8285, "\u0120Major": 8286, "\u0120apparatus": 8287, "\u0120conservative": 8288, "Part": 8289, "\u0120silicon": 8290, "\u0120defense": 8291, "\u0120Conservation": 8292, "\u0120wisdom": 8293, "\u0120Walter": 8294, "\u0120Hig": 8295, "\u0120decline": 8296, "\u0120fans": 8297, "\u0120definitely": 8298, "\u0120talks": 8299, "Ro": 8300, "Wor": 8301, "ordan": 8302, "\u0120Product": 8303, "\u0120initiative": 8304, "\u0120Chairman": 8305, "\u0120Upd": 8306, "Homes": 8307, "\u0120Radio": 8308, "\u0120Kir": 8309, "\u0120alter": 8310, "\u0120stack": 8311, "cribe": 8312, "\u0120turning": 8313, "\u0120promise": 8314, "\u0120Tour": 8315, "quir": 8316, "eton": 8317, "\u0120pharm": 8318, "\u0120Matthew": 8319, "\u0120helpful": 8320, "\u0120sitting": 8321, "\u0120afternoon": 8322, "\u0120Soft": 8323, "\u0120beer": 8324, "ima": 8325, "\u0120Heb": 8326, "uits": 8327, "\u0120Convention": 8328, "\u0120window": 8329, "\u0120gent": 8330, "eland": 8331, "\u0120Route": 8332, "\u0120Yes": 8333, "\u0120plane": 8334, "\u0120films": 8335, "lights": 8336, "\u0120Estate": 8337, "CD": 8338, "ournals": 8339, "\u0120accuracy": 8340, "azon": 8341, "\u0120payments": 8342, "\u0120Price": 8343, "\u0120package": 8344, "\u0120trouble": 8345, "\u0120FL": 8346, "\u0120curriculum": 8347, "\u0120veteran": 8348, "\u0120mainly": 8349, "ffee": 8350, "\u0120legend": 8351, "\u0120skill": 8352, "\u0120Title": 8353, "\u0120defect": 8354, "\u0120caught": 8355, "\u0120signature": 8356, "\u0120Korea": 8357, "\u0120Affairs": 8358, "\u0120batt": 8359, "\u0120Process": 8360, "\u0120Cop": 8361, "\u0120lung": 8362, "\u0120publications": 8363, "\u0120thorough": 8364, "apolis": 8365, "oding": 8366, "\u0120essentially": 8367, "lie": 8368, "ployed": 8369, "\u0120Jefferson": 8370, "\u0120encouraged": 8371, "\u0120Laboratory": 8372, "\u0120beat": 8373, "\u0120Action": 8374, "\u0120Brian": 8375, "\u0120representatives": 8376, "\u0120_": 8377, "\u0120plastic": 8378, "requ": 8379, "\u0120interactions": 8380, "operative": 8381, "\u0120dust": 8382, "owship": 8383, "\u0120Garden": 8384, "\u0120observations": 8385, "\u0120disorders": 8386, "\u0120comparison": 8387, "\u0120reliable": 8388, "heric": 8389, "\u0120Li": 8390, "\u0120wars": 8391, "\u0120Les": 8392, "\u0120silver": 8393, "\u0120branches": 8394, "boro": 8395, "\u0120swim": 8396, "orph": 8397, "\u0120ft": 8398, "\u0120scan": 8399, "\u0120emotional": 8400, "\u0120NO": 8401, "\u0120depending": 8402, "ao": 8403, "\u0120Stock": 8404, "\u0120discussions": 8405, "\u0120elections": 8406, "\u0120explo": 8407, "weight": 8408, "\u0120parks": 8409, "\u0120resid": 8410, "\u0120ending": 8411, "\u0120innovation": 8412, "fortunately": 8413, "\u0120split": 8414, "\u0120Dak": 8415, "\u0120normally": 8416, "\u0120oxygen": 8417, "\u0120anywhere": 8418, "\u0120Wayne": 8419, "\u0120boost": 8420, "\u0120combat": 8421, "acon": 8422, "\u0120guy": 8423, "\u0120exhibition": 8424, "\u0120missp": 8425, "\u0120stick": 8426, "\u0120surprising": 8427, "Sm": 8428, "asive": 8429, "\u0120stages": 8430, "achelor": 8431, "Reg": 8432, "\u0120ordered": 8433, "GA": 8434, "osystem": 8435, "\u0120delight": 8436, "\u0120Assembly": 8437, "\u0120SS": 8438, "\u0120posts": 8439, "\u0120Medic": 8440, "\u0120CT": 8441, "\u0120chose": 8442, "html": 8443, "\u0120asking": 8444, "\u0120Treat": 8445, "\u0120colors": 8446, "\u0120adventure": 8447, "itzer": 8448, "oly": 8449, "\u0120beloved": 8450, "\u0120detection": 8451, "\u0120orient": 8452, "\u0120Gulf": 8453, "position": 8454, "\u0120Contin": 8455, "\u0120recon": 8456, "\u0120Adams": 8457, "ailability": 8458, "\u0120contracts": 8459, "\u0120computers": 8460, "emia": 8461, "\u0120Polit": 8462, "\u0120superior": 8463, "\u0120ordinary": 8464, "\u0120strengthen": 8465, "\u0120reserve": 8466, "ef": 8467, "glas": 8468, "\u0120Bry": 8469, "\u0120transmit": 8470, "\u0120fewer": 8471, "\u0120Prin": 8472, "\u0120pounds": 8473, "June": 8474, "\u0120Maria": 8475, "iox": 8476, "\u00e2\u0122\u0142\u00e2\u0122\u0142": 8477, "rust": 8478, "\u0120LLC": 8479, "\u0120duties": 8480, "\u0120Forum": 8481, "\u0120tox": 8482, "elesc": 8483, "Sept": 8484, "oga": 8485, "liament": 8486, "iture": 8487, "\u0120privile": 8488, "\u0120challenging": 8489, "\u0120Marine": 8490, "\u0120Austin": 8491, "\u0120Liter": 8492, "anch": 8493, "\u0120arms": 8494, "\u0120CON": 8495, "\u0120empt": 8496, "\u0120rational": 8497, "allas": 8498, "TON": 8499, "\u0120causing": 8500, "\u0120pin": 8501, "\u0120cart": 8502, "\u0120Roberts": 8503, "isd": 8504, "\u0120substance": 8505, "\u0120references": 8506, "bors": 8507, "\u0120IM": 8508, "vision": 8509, "\u0120naturally": 8510, "ador": 8511, "oen": 8512, "\u0120BC": 8513, "\u0120Analysis": 8514, "Pat": 8515, "\u0120Key": 8516, "\u0120angle": 8517, "otte": 8518, "\u0120designs": 8519, "iatric": 8520, "\u0120IV": 8521, "\u0120yellow": 8522, "lected": 8523, "\u0120totally": 8524, "\u0120Rules": 8525, "\u0120arrangement": 8526, "RL": 8527, "\u0120Regist": 8528, "\u0120backup": 8529, "\u0120entreprene": 8530, "\u0120axis": 8531, "Under": 8532, "\u0120Quest": 8533, "\u0120celebrate": 8534, "\u0120heritage": 8535, "\u0120seconds": 8536, "AY": 8537, "who": 8538, "\u0120stake": 8539, "\u0120Dick": 8540, "iking": 8541, "eness": 8542, "resident": 8543, "\u0120stable": 8544, "\u0120prize": 8545, "\u0120imper": 8546, "\u0120usual": 8547, "Date": 8548, "\u0120default": 8549, "\u0120simultane": 8550, "mits": 8551, "\u0120abund": 8552, "\u0120Survey": 8553, "quarters": 8554, "\u0120math": 8555, "ulin": 8556, "ali": 8557, "\u0120annually": 8558, "\u0120suffer": 8559, "\u0120extraord": 8560, "\u0120Morgan": 8561, "aternal": 8562, "\u0120heads": 8563, "\u0120variable": 8564, "\u0120Thompson": 8565, "?\u00e2\u0122\u013f": 8566, "Serv": 8567, "\u0120Ruth": 8568, "\u0120Russell": 8569, "\u0120dropped": 8570, "ishment": 8571, "iger": 8572, "\u0120experiments": 8573, "\u0120Benjamin": 8574, "\u0120Pear": 8575, "igenous": 8576, "cyclop": 8577, "\u0120intention": 8578, "\u0120Balt": 8579, "\u0120transferred": 8580, "\u0120cable": 8581, "\u0120plurality": 8582, "\u0120DO": 8583, "\u0120achievement": 8584, "\u0120interior": 8585, "Because": 8586, "\u0120faces": 8587, "\u0120Lady": 8588, "\u0120Ross": 8589, "\u0120intent": 8590, "\u0120yesterday": 8591, "normal": 8592, "ricted": 8593, "\u0120stopped": 8594, "\u0120illustrated": 8595, "\u0120apartment": 8596, "\u0120remarkable": 8597, "\u0120Hope": 8598, "\u0120cards": 8599, "VD": 8600, "\u0120Castle": 8601, "\u0120Pow": 8602, "\u0120dramatic": 8603, "Your": 8604, "urities": 8605, "odd": 8606, "\u0120impacts": 8607, "ropical": 8608, "\u0120involvement": 8609, "ochem": 8610, ".),": 8611, "OUR": 8612, "\u0120separation": 8613, "\u0120trained": 8614, "\u0120viewed": 8615, "ounter": 8616, "\u0120fairly": 8617, "\u0120Language": 8618, "\u0120decor": 8619, "\u0120thread": 8620, "\u0120investors": 8621, "\u0120sculpt": 8622, "\u0120muscle": 8623, "\u0120driver": 8624, "\u0120Mort": 8625, "\u0120classical": 8626, "\u0120castle": 8627, "vi": 8628, "\u0120Sac": 8629, "\u0120administrative": 8630, "\u0120Islamic": 8631, "\u0120profit": 8632, "\u0120apartments": 8633, "esity": 8634, "gressive": 8635, "\u0120routine": 8636, "\u0120myth": 8637, "erted": 8638, "oting": 8639, "anged": 8640, "HO": 8641, "\u0120Defense": 8642, "\u0120moves": 8643, "\u0120Connecticut": 8644, "asks": 8645, "unter": 8646, "\u0120Ak": 8647, "\u0120manual": 8648, "\u0120Shel": 8649, "\u0120Beh": 8650, "\u0120acting": 8651, "\u0120resc": 8652, "\u0120informed": 8653, "ello": 8654, "ometimes": 8655, "\u0120NS": 8656, "\u0120dogs": 8657, "ials": 8658, "scale": 8659, "\u0120Ridge": 8660, "\u0120Arkansas": 8661, "apse": 8662, "Vis": 8663, "po": 8664, "ricts": 8665, "\u0120giant": 8666, "\u0120objective": 8667, "rec": 8668, "\u0120Fall": 8669, "\u0120fifth": 8670, "\u0120mixed": 8671, "\u0120MP": 8672, "\u0120Sov": 8673, "\u0120horses": 8674, "\u0120carefully": 8675, "\u0120receives": 8676, "\u0120Represent": 8677, "icing": 8678, "Ass": 8679, "\u0120explos": 8680, "\u0120profile": 8681, "\u0120disaster": 8682, "\u0120Early": 8683, "\u0120recipient": 8684, "\u0120worst": 8685, "\u0120tight": 8686, "\u0120layers": 8687, "\u0120Prot": 8688, "\u0120township": 8689, "\u0120unusual": 8690, "una": 8691, "\u0120disorder": 8692, "\u0120enemy": 8693, "\u0120adds": 8694, "\u0120Martha": 8695, "\u0120wildlife": 8696, "\u0120Cas": 8697, "\u0120Bab": 8698, "vate": 8699, "\u0120Battle": 8700, "\u00e2\u0122\u013a": 8701, "\u0120considering": 8702, "\u0120scheme": 8703, "\u0120deeply": 8704, "\u0120camera": 8705, "\u0120toler": 8706, "\u0120Fox": 8707, "uh": 8708, "\u0120meets": 8709, "parents": 8710, "\u0120Meeting": 8711, "burn": 8712, "erior": 8713, "\u0120ultimate": 8714, "\u0120produces": 8715, "\u0120Temple": 8716, "\u0120concluded": 8717, "\u0120strict": 8718, "obs": 8719, "\u0120relief": 8720, "\u0120beings": 8721, "\u0120accomplished": 8722, "hist": 8723, "\u0120equation": 8724, "\u0120authorized": 8725, "\u0120Mother": 8726, "\u0120Volume": 8727, "\u0120producing": 8728, "\u0120disputed": 8729, "stal": 8730, "\u0120citizen": 8731, "\u0120volt": 8732, "\u0120initiatives": 8733, "osph": 8734, "\u0120vo": 8735, "\u0120Vietnam": 8736, "\u0120universities": 8737, "\u0120Holly": 8738, "\u0120constantly": 8739, "\u0120pride": 8740, "\u0120demonstrated": 8741, "\u0120opposition": 8742, "\u0120Freder": 8743, "\u0120twelve": 8744, "VER": 8745, "\u0120relax": 8746, "\u0120Dise": 8747, "\u0120Stone": 8748, "emed": 8749, "\u0120carrying": 8750, "\u0120hypot": 8751, "\u0120Thank": 8752, "\u0120Si": 8753, "\u0120OS": 8754, "urricane": 8755, "kind": 8756, "\u0120misspellings": 8757, "ortheast": 8758, "rape": 8759, "\u0120feedback": 8760, "\u0120Travel": 8761, "aired": 8762, "\u0120meth": 8763, "\u0120mice": 8764, "\u0120Cr": 8765, "otten": 8766, "\u0120domin": 8767, "ova": 8768, "\u0120Before": 8769, "\u0120relate": 8770, "\u0120accounting": 8771, "\u0120drink": 8772, "folio": 8773, "\u0120transportation": 8774, "Well": 8775, "\u0120couples": 8776, "\u0120Cook": 8777, "\u0120spaces": 8778, "Funeral": 8779, "chell": 8780, "\u0120Economic": 8781, "\u0120ceremony": 8782, "\u0120comprises": 8783, "amil": 8784, "ELL": 8785, "\u0120Has": 8786, "Sim": 8787, "ni": 8788, "intend": 8789, "\u0120distinguished": 8790, "\u0120forming": 8791, "\u0120extract": 8792, "\u0120equality": 8793, "\u0120Silver": 8794, "trans": 8795, "\u0120neut": 8796, "aza": 8797, "\u0120Imm": 8798, "\u0120integration": 8799, "\u0120Transport": 8800, "western": 8801, "Mark": 8802, "Even": 8803, "ictionary": 8804, "\u0120trails": 8805, "lete": 8806, "\u0120Nichol": 8807, "ocument": 8808, "\u0120effectiveness": 8809, "\u0120yes": 8810, "claim": 8811, "iche": 8812, "\u0120selecting": 8813, "\u0120consumption": 8814, "EX": 8815, "\u0120Again": 8816, "\u0120hidden": 8817, "\u0120Editor": 8818, "ami": 8819, "\u0120realized": 8820, "\u0120Anthony": 8821, "\u0120restore": 8822, "Who": 8823, "etics": 8824, "itals": 8825, "\u0120Empire": 8826, "\u0120tons": 8827, "\u0120explanation": 8828, "rong": 8829, "David": 8830, "\u0120Ga": 8831, "ighth": 8832, "\u0120ED": 8833, "onto": 8834, "gage": 8835, "\u0120module": 8836, "oyd": 8837, "missions": 8838, "\u0120haz": 8839, "\u0120trem": 8840, "imore": 8841, "\u0120bapt": 8842, "\u0120uniform": 8843, "\u0120Deb": 8844, "aration": 8845, "\u0120minister": 8846, "\u0120responses": 8847, "\u0120reputation": 8848, "\u0120Roc": 8849, "\u0120prepare": 8850, "\u0120Physics": 8851, "\u0120friendly": 8852, "\u0120correl": 8853, "\u0120Beth": 8854, "\u0120elsewhere": 8855, "\u0120EU": 8856, "\u0120engineers": 8857, "\u0120destination": 8858, "ocket": 8859, "\u0120Ref": 8860, "\u0120corporation": 8861, "Pr": 8862, "aintiff": 8863, "\u0120rear": 8864, "\u0120fraction": 8865, "\u0120Stew": 8866, "olph": 8867, "ifice": 8868, "\u0120mold": 8869, "\u0120Abraham": 8870, "vironments": 8871, "\u0120opposed": 8872, "\u0120Lutheran": 8873, "Char": 8874, "olid": 8875, "\u0120Ky": 8876, "\u0120supplement": 8877, "\u0120modeling": 8878, "\u0120monthly": 8879, "\u0120waste": 8880, "indu": 8881, "\u0120classified": 8882, "\u0120courts": 8883, "AV": 8884, "\u0120sustainable": 8885, "oples": 8886, "July": 8887, "\u0120Phill": 8888, "\u0120integrity": 8889, "\u0120Girl": 8890, "\u0120Alaska": 8891, "\u0120Sym": 8892, "\u0120dealing": 8893, "\u0120initially": 8894, "April": 8895, "\u0120highway": 8896, "\u0120Nev": 8897, "ez": 8898, "ARD": 8899, "\u0120sees": 8900, "arsh": 8901, "\u0120grounds": 8902, "-)": 8903, "\u0120LG": 8904, "\u0120temporary": 8905, "\u0120Grove": 8906, "\u0120Fell": 8907, "\u0120Schools": 8908, "\u0120Hotel": 8909, "\u0120recording": 8910, "odox": 8911, "\u0120sharp": 8912, "\u0120statistical": 8913, "\u0120reserves": 8914, "\u0120blind": 8915, "\u0120Trib": 8916, "\u0120desk": 8917, "\u0120accompan": 8918, "cca": 8919, "\u0120Ec": 8920, "\u0120apparently": 8921, "\u0120manip": 8922, "izations": 8923, "agle": 8924, "\u0120obst": 8925, "\u0120Kennedy": 8926, "\u0120vide": 8927, "\u00c3\u0143s": 8928, "\u0120Hamilton": 8929, "raska": 8930, "\u0120managing": 8931, "\u0120Computer": 8932, "\u0120bone": 8933, "ument": 8934, "\u0120pursue": 8935, "\u0120bike": 8936, "\u0120neurons": 8937, "\u0120Walker": 8938, "iii": 8939, "rowing": 8940, "\u0120Ontario": 8941, "\u0120dependent": 8942, "\u0120Next": 8943, "yard": 8944, "\u0120Homes": 8945, "Public": 8946, "\u0120Republicans": 8947, "\u0120pert": 8948, "\u0120missions": 8949, "\u0120filter": 8950, "\u0120Run": 8951, "lan": 8952, "\u0120!": 8953, "icy": 8954, "yers": 8955, "\u0120rub": 8956, "\u0120vehicles": 8957, "\u0120Alice": 8958, "liest": 8959, "\u0120implications": 8960, "\u0120fought": 8961, "March": 8962, "\u0120SH": 8963, "aterials": 8964, "\u0120kidney": 8965, "omer": 8966, "\u0120Though": 8967, "\u0120Nelson": 8968, "aho": 8969, "\u0120assumed": 8970, "\u0120assemb": 8971, "\u0120Vari": 8972, "\u0120Burn": 8973, "\u0120foods": 8974, "\u0120entries": 8975, "\u0120fib": 8976, "\u0120Helen": 8977, "range": 8978, "rooms": 8979, "sis": 8980, "\u0120AF": 8981, "\u0120Village": 8982, "\u0120Collection": 8983, "\u0120Contact": 8984, "first": 8985, "\u0120IL": 8986, "\u0120investigate": 8987, "\u0120subsid": 8988, "\u0120Matt": 8989, "\u0120Unit": 8990, ">>": 8991, "\u0120Gallery": 8992, "onia": 8993, "Mary": 8994, "\u0120lesbian": 8995, "inar": 8996, "\u0120Digital": 8997, ",.": 8998, "rators": 8999, "James": 9000, "gebra": 9001, "irds": 9002, "oard": 9003, "\u0120tall": 9004, "\u0120Bud": 9005, "\u0120noise": 9006, "berry": 9007, "Phone": 9008, "\u0120charges": 9009, "\u0120recept": 9010, "\u0120assign": 9011, "phan": 9012, "Back": 9013, ".\u00e2\u0122\u013b": 9014, "\u0120industries": 9015, "\u0120engines": 9016, "\u0120depression": 9017, "eld": 9018, "\u0120responsibilities": 9019, "\u0120sensitive": 9020, "\u0120examined": 9021, "\u0120Chamber": 9022, "\u0120comfortable": 9023, "ui": 9024, "\u0120fascinating": 9025, "\u0120Nic": 9026, "\u0120adapted": 9027, "\u0120Reserve": 9028, "\u0120origins": 9029, "\u0120Assess": 9030, "\u0120philosophy": 9031, "eh": 9032, "\u0120Magazine": 9033, "\u0120territory": 9034, "\u0120egg": 9035, "aded": 9036, "\u0120Catherine": 9037, "\u0120Rab": 9038, "\u0120surrounded": 9039, "\u0120incident": 9040, "\u0120gathered": 9041, "ductive": 9042, "\u0120soph": 9043, "\u0120proved": 9044, "\u0120happening": 9045, "Each": 9046, "\u0120Fact": 9047, "\u0120Biology": 9048, "People": 9049, "\u0120imagine": 9050, "\u0120Daily": 9051, "\u0120Corps": 9052, "\u0120Protection": 9053, "bec": 9054, "\u0120basket": 9055, "\u0120font": 9056, "\u0120studio": 9057, "\u0120finance": 9058, "NT": 9059, "\u0120parallel": 9060, "\u0120downtown": 9061, "\u0120Base": 9062, "\u0120COM": 9063, "\u0120Tol": 9064, "\u0120Roy": 9065, "\u0120Jordan": 9066, "\u0120knowing": 9067, "DR": 9068, "\u0120Have": 9069, "\u0120villages": 9070, "\u0120hotel": 9071, "\u0120emerging": 9072, "\u0120drawing": 9073, "\u0120Apr": 9074, "Rep": 9075, "\u0120accum": 9076, "Mc": 9077, "\u0120alcohol": 9078, "\u0120Mason": 9079, "\u0120Text": 9080, "\u0120Victoria": 9081, "\u0120guidelines": 9082, "\u0120Agricult": 9083, "\u0120Dakota": 9084, "itudes": 9085, "\u0120molecular": 9086, "iour": 9087, "uant": 9088, "iller": 9089, "lation": 9090, "\u0120bath": 9091, "\u0120spin": 9092, "\u0120assume": 9093, "\u0120conversation": 9094, "\u0120Cre": 9095, "\u0120probability": 9096, "nell": 9097, "\u0120pastor": 9098, "\u0120Warren": 9099, "\u0120diagnosed": 9100, "\u0120interpre": 9101, "isted": 9102, "ruption": 9103, "pha": 9104, "\u0120ourselves": 9105, "\u0120entrance": 9106, "\u0120Hamp": 9107, "\u0120feat": 9108, "\u0120Verm": 9109, "mediate": 9110, "\u0120intense": 9111, "\u0120necessarily": 9112, "\u0120GA": 9113, "byter": 9114, "\u0120phrase": 9115, "\u0120Madison": 9116, "\u0120losing": 9117, "\u0120Employ": 9118, "\u0120considerable": 9119, "\u0120rice": 9120, "\u0120Christopher": 9121, "\u0120summary": 9122, "\u0120Start": 9123, "\u0120petition": 9124, "\u0120alleged": 9125, "\u0120focuses": 9126, "\u0120epis": 9127, "print": 9128, "ordon": 9129, "fred": 9130, "\u0120Prince": 9131, "\u0120Ped": 9132, "\u0120brows": 9133, "\u0120crimes": 9134, "\u0120usage": 9135, "\u0120Seattle": 9136, "\u0120feelings": 9137, "ffective": 9138, "icked": 9139, "\u0120winning": 9140, "ocolate": 9141, "\u0120Cru": 9142, "airy": 9143, "\u0120Relations": 9144, "\u0120galaxy": 9145, "ori": 9146, "\u0120structural": 9147, "\u0120flexible": 9148, "earchers": 9149, "\u0120Cond": 9150, "\u0120recover": 9151, "\u0120Find": 9152, "rite": 9153, "\u0120Native": 9154, "\u0120enorm": 9155, "\u0120scholarship": 9156, "\u0120Bishop": 9157, "\u0120ranging": 9158, "whel": 9159, "isp": 9160, "\u0120theories": 9161, "rible": 9162, "\u0120vulnerable": 9163, "\u0120Communications": 9164, "\u0120solve": 9165, "eous": 9166, "\u0120deceased": 9167, "\u0120menu": 9168, "\u0120feels": 9169, "\u0120humanity": 9170, "\u0120mic": 9171, "\u0120Alz": 9172, "run": 9173, "leans": 9174, "\u0120identifying": 9175, "\u0120preserve": 9176, "outheast": 9177, "mat": 9178, "\u0120Take": 9179, "\u0120vend": 9180, "\u0120Bang": 9181, "\u0120Ott": 9182, "\u0120substantially": 9183, "ulator": 9184, "\u0120regardless": 9185, "earing": 9186, "\u0120incorporated": 9187, "CR": 9188, "\u0120rotor": 9189, "apters": 9190, "\u0120presidential": 9191, "Web": 9192, "rapeut": 9193, "\u0120Century": 9194, "\u0120Douglas": 9195, "ourse": 9196, "\u0120Summer": 9197, "FA": 9198, "\u0120interaction": 9199, "home": 9200, "inth": 9201, "lesh": 9202, "\u0120agenda": 9203, "\u0120sessions": 9204, "estyle": 9205, "\u0120Scrabble": 9206, "leveland": 9207, "\u00c4\u00ab": 9208, "\u0120enemies": 9209, "Gl": 9210, "\u00c3\u00a4": 9211, "\u0120Wales": 9212, "zym": 9213, "\u0120Small": 9214, "\u0120displayed": 9215, "\u0120Philipp": 9216, "\u0120Faculty": 9217, "\u0120courage": 9218, "ighters": 9219, "obby": 9220, "\u0120plain": 9221, "zo": 9222, "\u0120returning": 9223, "\u0120Born": 9224, "\u0120pleasure": 9225, "\u0120computing": 9226, "\u0120classroom": 9227, "vens": 9228, "luded": 9229, "Cal": 9230, "PM": 9231, "\u0120applying": 9232, "\u0120bag": 9233, "\u0120Josh": 9234, "irs": 9235, "\u0120Donald": 9236, "\u0120begun": 9237, "\u0120Soviet": 9238, "commun": 9239, "\u0120:).": 9240, "lamm": 9241, "\u0120bigger": 9242, "daughter": 9243, "itory": 9244, "\u0120waves": 9245, "\u0120Wright": 9246, "\u0120Sex": 9247, "\u0120Line": 9248, "\u0120Gary": 9249, "\u0120governor": 9250, "\u0120minds": 9251, "\u0120immun": 9252, "\u0120overl": 9253, "\u0120judge": 9254, "\u0120Dallas": 9255, "\u0120removal": 9256, "\u0120seriously": 9257, "\u0120orbit": 9258, "\u0120Nebraska": 9259, "orry": 9260, "\u0120Louisiana": 9261, "\u0120Capital": 9262, "tees": 9263, "\u0120ministry": 9264, "\u0120sizes": 9265, "\u0120Pitts": 9266, "\u0120loyal": 9267, "\u0120Cab": 9268, "\u0120Atlanta": 9269, "\u0120Exchange": 9270, "\u0120Grace": 9271, "\u0120sensor": 9272, "\u0120plenty": 9273, "mers": 9274, "\u0120lessons": 9275, "\u0120Plant": 9276, "\u0120Baker": 9277, "\u0120romantic": 9278, "\u0120beliefs": 9279, "\u0120Moh": 9280, "University": 9281, "oured": 9282, "\u0120Alliance": 9283, "rons": 9284, "\u0120Hal": 9285, "urd": 9286, "\u0120scores": 9287, "quire": 9288, "\u0120evaluate": 9289, "\u0120asp": 9290, "\u0120coastal": 9291, "\u0120jurisd": 9292, "\u0120falls": 9293, "\u0120dress": 9294, "\u0120Naz": 9295, "DP": 9296, "\u0120requiring": 9297, "\u0120Modern": 9298, "rett": 9299, "\u0120herein": 9300, "\u0120geomet": 9301, "\u0120.)": 9302, "\u0120dispute": 9303, "\u0120bacteria": 9304, "\u0120parish": 9305, "ITY": 9306, "\u0120satell": 9307, "\u0120greenhouse": 9308, "\u0120measurements": 9309, "chron": 9310, "Search": 9311, "DI": 9312, "ortion": 9313, "\u0120listing": 9314, "author": 9315, "\u0120loves": 9316, "\u0120enables": 9317, "\u0120coupled": 9318, "\u0120focusing": 9319, "omed": 9320, "\u0120environments": 9321, "Spe": 9322, "onal": 9323, "atively": 9324, "olt": 9325, "era": 9326, "redit": 9327, "\u0120mathematical": 9328, "uine": 9329, "\u0120diet": 9330, "oning": 9331, "\u0120li": 9332, "\u0120Marc": 9333, "\u0120telling": 9334, "\u0120till": 9335, "\u0120escape": 9336, "\u0120Vin": 9337, "\u0120disability": 9338, "\u0120CR": 9339, "\u0120Linda": 9340, "\u0120separated": 9341, "\u0120battery": 9342, "\u0120programme": 9343, "\u0120Democrats": 9344, "\u0120Cape": 9345, "\u0120undergraduate": 9346, "\u0120conjunction": 9347, "\u0120compass": 9348, "ulous": 9349, "\u0120researcher": 9350, "\u0120Laure": 9351, "\u0120surge": 9352, "\u0120syndrome": 9353, "\u0120foss": 9354, "\u0120baby": 9355, "\u0120traveling": 9356, "\u0120tablet": 9357, "\u0120gap": 9358, "December": 9359, "\u0120enhanced": 9360, "opic": 9361, "\u0120tab": 9362, "\u0120Sports": 9363, "\u0120promoting": 9364, "\u0120spectrum": 9365, "\u0120fisher": 9366, "\u0120prayer": 9367, "\u0120exempt": 9368, "\u0120underlying": 9369, "\u0120hopes": 9370, "\u0120Cub": 9371, "\u0120brown": 9372, "\u0120holy": 9373, "\u0120Band": 9374, "\u0120Orleans": 9375, "rous": 9376, "\u0120orientation": 9377, "\u0120traveled": 9378, "duction": 9379, "\u0120folks": 9380, "\u0120worker": 9381, "\u0120slowly": 9382, "uum": 9383, "\u0120tracks": 9384, "\u0120mir": 9385, "itro": 9386, "uy": 9387, "\u0120chart": 9388, "\u0120Appro": 9389, "\u0120appreciate": 9390, "\u0120Pier": 9391, "\u0120Palestin": 9392, "\u0120fiber": 9393, "ailed": 9394, "\u0120Parks": 9395, "thodox": 9396, "\u0120repro": 9397, "\u0120Neuro": 9398, "\u0120captured": 9399, "\u0120CS": 9400, "\u0120extraordinary": 9401, "\u0120Hug": 9402, "\u0120cognitive": 9403, "\u0120farmer": 9404, "\u0120attractive": 9405, "reement": 9406, "iami": 9407, "Once": 9408, "\u0120polar": 9409, "\u0120PRO": 9410, "\u0120convey": 9411, "\u0120chrom": 9412, "\u0120Unlike": 9413, "\u0120targeted": 9414, "\u0120Rub": 9415, "\u0120cultures": 9416, "\u0120permitted": 9417, "\u0120homosexual": 9418, "\u0120exploration": 9419, "itivity": 9420, "wa": 9421, "\u0120reconst": 9422, "rency": 9423, "Eng": 9424, "\u0120alarm": 9425, ",'": 9426, "\u0120birthday": 9427, "ersion": 9428, "vo": 9429, "asty": 9430, "\u0120Han": 9431, "\u0120cooking": 9432, "\u0120glory": 9433, "\u0120variables": 9434, "agen": 9435, "\u0120Room": 9436, "\u0120TX": 9437, "atab": 9438, "\u0120SM": 9439, "\u0120reserv": 9440, "\u0120Mach": 9441, "ogs": 9442, "\u0120prospect": 9443, "\u0120ecosystem": 9444, "cling": 9445, "\u0120Honor": 9446, "\u0120disk": 9447, "Survivors": 9448, "\u0120Bart": 9449, "\u0120identical": 9450, "enh": 9451, "\u0120sentence": 9452, "ocy": 9453, "\u0120.-": 9454, "aton": 9455, "\u0120overwhel": 9456, "\u0120advantages": 9457, "chester": 9458, "\u0120hyper": 9459, "\u0120exclusive": 9460, "\u0120conversion": 9461, "imony": 9462, "\u0120roof": 9463, "\u0120embry": 9464, "\u0120journals": 9465, "\u0120Joy": 9466, "\u0120liberal": 9467, "arged": 9468, "aka": 9469, "Rel": 9470, "\u0120farmers": 9471, "\u0120Golden": 9472, "\u0120Mexican": 9473, "\u0120album": 9474, "\u0120Organization": 9475, "\u0120incom": 9476, "\u0120Six": 9477, "\u0120instruments": 9478, "\u0120riding": 9479, "\u0120shopping": 9480, "\u0120CM": 9481, "\u0120crowd": 9482, "\u0120Prom": 9483, "\u0120surprise": 9484, "ja": 9485, "ocratic": 9486, "\u0120difficulty": 9487, "rep": 9488, "\u0120Dur": 9489, "cut": 9490, "\u0120speaker": 9491, "\u0120Lat": 9492, "\u0120buying": 9493, "great": 9494, "\u0120brill": 9495, "umni": 9496, "\u0120versus": 9497, "\u0120insect": 9498, "\u0120Lane": 9499, "\u0120Obs": 9500, "\u0120Ten": 9501, "olving": 9502, "\u0120independence": 9503, "\u0120automatic": 9504, "\u0120reveals": 9505, "THE": 9506, "asm": 9507, "semble": 9508, "uz": 9509, "\u0120LA": 9510, "\u0120median": 9511, "izz": 9512, "\u0120demands": 9513, "\u0120wat": 9514, "\u0120deleg": 9515, "ifier": 9516, "amps": 9517, "\u0120~": 9518, "orse": 9519, "\u0120Kelly": 9520, "oded": 9521, "\u0120arranged": 9522, "\u0120attending": 9523, "\u0120Presbyter": 9524, "\u0120guarantee": 9525, "\u0120narrative": 9526, "\u0120agricultural": 9527, "\u0120whereas": 9528, "eder": 9529, "\u0120flying": 9530, "hyth": 9531, "\u0120determination": 9532, "nest": 9533, "\u0120mob": 9534, "\u0120Jay": 9535, "\u0120refuge": 9536, "\u0120analys": 9537, "\u0120weekly": 9538, "\u0120profound": 9539, "\u0120equations": 9540, "Med": 9541, "\u0120anch": 9542, "\u0120Alzheimer": 9543, "\u0120AIDS": 9544, "Source": 9545, "Born": 9546, "omers": 9547, "ificial": 9548, "\u0120remembered": 9549, "haust": 9550, "\u0120uncom": 9551, "iy": 9552, "\u0120burial": 9553, "Che": 9554, "Hist": 9555, "\u0120minute": 9556, "BER": 9557, "\u0120turbine": 9558, "PD": 9559, "\u0120Ryan": 9560, "\u0120paintings": 9561, "\u0120pregnancy": 9562, "\u0120piano": 9563, "has": 9564, "ropri": 9565, "\u0120engineer": 9566, "\u0120Term": 9567, "\u0120overse": 9568, "\u0120searched": 9569, "\u0120Amend": 9570, "\u0120interpretation": 9571, "\u0120Edition": 9572, "olitan": 9573, "FL": 9574, "\u0120priest": 9575, "\u0120bread": 9576, "\u0120themes": 9577, "\u0120Moreover": 9578, "\u0120wishes": 9579, "\u0120paying": 9580, "ioxide": 9581, "\u0120expenses": 9582, "\u0120bot": 9583, "irable": 9584, "\u0120edited": 9585, "imensional": 9586, "Dec": 9587, "\u0120baseball": 9588, "wick": 9589, "\u0120cort": 9590, "\u0120jet": 9591, "\u0120tours": 9592, "\u0120Gib": 9593, "\u0120Authority": 9594, "\u0120expectations": 9595, "\u0120hell": 9596, "\u0120armed": 9597, "\u0120portfolio": 9598, "\u0120algorithm": 9599, "made": 9600, "Through": 9601, "gence": 9602, "\u0120excellence": 9603, "Figure": 9604, "\u0120Captain": 9605, "\u0120clot": 9606, "\u0120spacecraft": 9607, "aria": 9608, "\u0120ownership": 9609, "\u0120Lodge": 9610, "National": 9611, "\u0120perfectly": 9612, "ciplinary": 9613, "oust": 9614, "\u0120founding": 9615, "oked": 9616, "\u0120depends": 9617, "\u0120treatments": 9618, "inates": 9619, "\u0120Bed": 9620, "\u0120Prof": 9621, "\u0120arrival": 9622, "\u0120Arn": 9623, "::": 9624, "hard": 9625, "ji": 9626, "\u0120evolved": 9627, "\u0120,.": 9628, "umps": 9629, "Robert": 9630, "ateful": 9631, "\u0120affairs": 9632, "cho": 9633, "\u0120Fle": 9634, "\u0120peak": 9635, "\u0120Cole": 9636, "\u0120artery": 9637, "\u0120Rick": 9638, "brid": 9639, "\u0120cosm": 9640, "\u0120pointed": 9641, "\u0120Right": 9642, "\u0120Campbell": 9643, "\u0120significance": 9644, "\u0120Night": 9645, "??": 9646, "\u0120determining": 9647, "\u0120cellular": 9648, "world": 9649, "\u0120Furthermore": 9650, "\u0120neighbors": 9651, "esh": 9652, "\u0120flash": 9653, "\u0120marry": 9654, "anne": 9655, "\u0120illegal": 9656, "visor": 9657, "\u0120killing": 9658, "\u0120institutional": 9659, "AG": 9660, "\u0120Mt": 9661, "Get": 9662, "\u0120legitimate": 9663, "\u0120upl": 9664, "\u0120satisfied": 9665, "\u0120suddenly": 9666, "\u0120Professional": 9667, "\u0120workshop": 9668, "\u0120unexpected": 9669, "Contact": 9670, "\u0120sponsored": 9671, "chnology": 9672, "\u0120parameter": 9673, "rass": 9674, "\u0120basically": 9675, "\u0120province": 9676, "\u0120Victor": 9677, "ais": 9678, "rip": 9679, "\u0120argue": 9680, "\u0120photograp": 9681, "Inter": 9682, "raid": 9683, "\u0120injuries": 9684, "\u0120supplied": 9685, "\u0120generating": 9686, "\u0120transplant": 9687, "\u0120Muslims": 9688, "August": 9689, "\u0120directions": 9690, "phy": 9691, "\u0120habitat": 9692, "uct": 9693, "\u0120literally": 9694, "OK": 9695, "\u0120Sant": 9696, "being": 9697, "\u0120Kevin": 9698, "\u0120diagram": 9699, "\u0120(\u00e2\u0122\u0135": 9700, "\u0120performances": 9701, "Published": 9702, "\u0120Ele": 9703, "\u0120Hawaii": 9704, "Bar": 9705, "\u0120cam": 9706, "\u0120bare": 9707, "\u0120parad": 9708, "\u0120races": 9709, "Em": 9710, "\u0120Ow": 9711, "roit": 9712, "rise": 9713, "\u0120Hend": 9714, "venues": 9715, "\u0120talent": 9716, "\u0120Jonathan": 9717, "vant": 9718, "\u0120lady": 9719, "obb": 9720, "\u0120tremend": 9721, "\u0120Cleveland": 9722, "\u0120convenient": 9723, "\u0120ju": 9724, "\u0120widow": 9725, "\u0120suicide": 9726, "\u0120Check": 9727, "\u0120Finally": 9728, "\u0120manuscript": 9729, "\u0120Hebrew": 9730, "\u0120Morris": 9731, "\u0120specializes": 9732, "\u0120gentle": 9733, "usive": 9734, "\u0120:.": 9735, "power": 9736, "\u0120Veterans": 9737, "otion": 9738, "\u0120stones": 9739, "\u0120broke": 9740, "\u0120welfare": 9741, "Are": 9742, "\u0120incredible": 9743, "\u0120fro": 9744, "hop": 9745, "\u0120cul": 9746, "\u0120expanding": 9747, "\u0120Software": 9748, "type": 9749, "itations": 9750, "\u0120Mayor": 9751, "\u0120Does": 9752, "su": 9753, "ista": 9754, "\u0120visits": 9755, "\u0120licensed": 9756, "\u0120valley": 9757, "ampion": 9758, "\u0120tempor": 9759, "\u0120sending": 9760, "\u0120Planning": 9761, "\u0120breaking": 9762, "\u0120Ward": 9763, "cyclopedia": 9764, "\u0120Map": 9765, "\u0120communicate": 9766, "\u0120Amazon": 9767, "argo": 9768, "\u0120ampl": 9769, "\u0120Drug": 9770, "\u0120diameter": 9771, "\u0120participating": 9772, "\u0120span": 9773, "\u0120Indians": 9774, "gon": 9775, "\u0120Assistant": 9776, "izer": 9777, "\u0120Story": 9778, "\u0120receipt": 9779, "iov": 9780, "\u0120wal": 9781, "roc": 9782, "\u0120insights": 9783, "\u0120everywhere": 9784, "\u0120unp": 9785, "\u0120refere": 9786, "\u0120Surn": 9787, "\u0120infect": 9788, "\u0120Sud": 9789, "\u0120physician": 9790, "\u0120Paper": 9791, "\u0120mamm": 9792, "\u0120inhabit": 9793, "\u0120slave": 9794, "\u0120answered": 9795, "\u0120truck": 9796, "\u0120glad": 9797, "\u0120traditions": 9798, "\u0120Ca": 9799, "\u0120marine": 9800, "\u0120damaged": 9801, "ontal": 9802, "\u0120$,,": 9803, "\u0120overs": 9804, "\u0120comprom": 9805, "ften": 9806, "\u0120developments": 9807, "\u0120''": 9808, "\u0120busy": 9809, "\u0120Ban": 9810, "\u0120legacy": 9811, "\u0120Baltimore": 9812, "\u0120impressive": 9813, "\u0120psychology": 9814, "\u0120theoretical": 9815, "keley": 9816, "\u0120duration": 9817, "\u0120Marshall": 9818, "\u0120exped": 9819, "\u0120Portland": 9820, "\u0120Ident": 9821, "\u0120Limited": 9822, "\u0120contest": 9823, "aved": 9824, "\u0120ingred": 9825, "\u0120Larry": 9826, "\u0120matrix": 9827, "\u0120divide": 9828, "\u0120troub": 9829, "\u0120forecast": 9830, "\u0120Origin": 9831, "\u0120Buff": 9832, "\u0120converted": 9833, "Free": 9834, "\u0120literary": 9835, "ulus": 9836, "\u0120interact": 9837, "pling": 9838, "icking": 9839, "\u0120targets": 9840, "\u0120manufacturer": 9841, "\u0120Lam": 9842, "LD": 9843, "xi": 9844, "erving": 9845, "\u0120voltage": 9846, "reach": 9847, "\u0120suspect": 9848, "\u0120Hold": 9849, "\u0120smoke": 9850, "\u0120Bruce": 9851, "\u0120organizational": 9852, "\u0120plug": 9853, "\u0120compare": 9854, "\u0120Hampshire": 9855, "\u0120empty": 9856, "days": 9857, "\u0120Antonio": 9858, "\u0120wise": 9859, "\u0120Row": 9860, "\u0120Clinical": 9861, "\u0120Va": 9862, "\u0120frequent": 9863, "\u0120variation": 9864, "gree": 9865, "\u0120dad": 9866, "\u0120reaching": 9867, "century": 9868, "\u0120Ice": 9869, "Ac": 9870, "\u0120aims": 9871, "\u0120Sn": 9872, "\u0120sugar": 9873, "\u0120occas": 9874, "\u0120Parent": 9875, "INE": 9876, "\u0120subsequently": 9877, "\u0120Third": 9878, "rot": 9879, "\u0120intern": 9880, "\u0120complexity": 9881, "oil": 9882, "\u0120gear": 9883, "icken": 9884, "lington": 9885, "\u0120tact": 9886, "\u0120WW": 9887, "\u0120arbit": 9888, "inch": 9889, "\u0120fet": 9890, "\u0120Scholars": 9891, "\u0120warning": 9892, "\u0120Site": 9893, "\u0120percentage": 9894, "\u0120decrease": 9895, "\u0120farming": 9896, "\u0120reflects": 9897, "\u0120falling": 9898, "\u0120Wolf": 9899, "Yes": 9900, "\u0120poetry": 9901, "\u0120GM": 9902, "\u0120personally": 9903, "\u0120magic": 9904, "\u0120dioxide": 9905, "\u0120molecules": 9906, "HER": 9907, "\u0120CN": 9908, "\u0120Simon": 9909, "\u0120fert": 9910, "\u0120transformation": 9911, "\u0120Toronto": 9912, "\u0120orb": 9913, "\u0120Portug": 9914, "\u0120CP": 9915, "edge": 9916, "FC": 9917, "empl": 9918, "\u0120appointment": 9919, "\u0120libraries": 9920, "TV": 9921, "elcome": 9922, "\u0120stroke": 9923, "specific": 9924, "\u0120peer": 9925, "\u0120guests": 9926, "\u0120speakers": 9927, "\u0120Catal": 9928, "\u0120shore": 9929, "\u0120doct": 9930, "\u0120numer": 9931, "\u0120.\"": 9932, "dney": 9933, "\u0120Imp": 9934, "Dis": 9935, "\u0120Colon": 9936, "EY": 9937, "\u0120Presbyterian": 9938, "\u0120doors": 9939, "arth": 9940, "\u0120Philip": 9941, "\u0120advances": 9942, "View": 9943, "\u0120entering": 9944, "\u0120Later": 9945, "itting": 9946, "\u0120boxes": 9947, "\u0120Wildlife": 9948, "count": 9949, "olar": 9950, "\u0120retain": 9951, "\u0120Michel": 9952, "\u0120obesity": 9953, "\u0120recy": 9954, "\u0120infections": 9955, "\u0120denied": 9956, "nut": 9957, "\u0120heavily": 9958, "\u0120vibr": 9959, "\u0120breakfast": 9960, "\u0120disturb": 9961, "icular": 9962, "\u0120CL": 9963, "retion": 9964, "October": 9965, "\u0120lowest": 9966, "/.": 9967, "\u0120nonprofit": 9968, "\u0120charity": 9969, "\u0120exceptional": 9970, "acks": 9971, "\u0120districts": 9972, "\u0120fifty": 9973, "\u0120maps": 9974, "\u0120tasks": 9975, "\u0120unw": 9976, "\u0120railroad": 9977, "eenth": 9978, "case": 9979, "\u0120advertis": 9980, "ikes": 9981, "\u0120forests": 9982, "OG": 9983, "roduction": 9984, "weet": 9985, "\u0120Fisher": 9986, "\u0120Bol": 9987, "\u0120roughly": 9988, "\u0120Moses": 9989, "\u0120calendar": 9990, "\u0120Mun": 9991, "lude": 9992, "\u0120Occ": 9993, "\u0120horm": 9994, "\u0120unions": 9995, "\u0120Ult": 9996, "\u0120viewing": 9997, "afe": 9998, "\u0120arguments": 9999, "\u0120isolated": 10000, "ifferent": 10001, "\u0120ease": 10002, "Cons": 10003, "\u0120tract": 10004, "cycle": 10005, "Act": 10006, "\u0120credits": 10007, "\u0120hook": 10008, "\u0120reverse": 10009, "\u0120strange": 10010, "\u0120females": 10011, "\u0120predicted": 10012, "\u0120accompany": 10013, "atial": 10014, "\u0120dies": 10015, "MI": 10016, "theless": 10017, "\u0120solo": 10018, "\u0120entertainment": 10019, "anted": 10020, "olences": 10021, "\u0120cultiv": 10022, "\u0120dated": 10023, "\u0120plaintiff": 10024, "\u0120aside": 10025, "\u0120genuine": 10026, "\u0120Despite": 10027, "\u0120drivers": 10028, "his": 10029, "makers": 10030, "\u0120Tele": 10031, "OH": 10032, "\u0120interviews": 10033, "\u0120lieu": 10034, "\u0120meat": 10035, "\u0120Leadership": 10036, "\u0120availability": 10037, "\u0120opens": 10038, "\u0120:)": 10039, "\u0120Ministry": 10040, "ener": 10041, "\u0120Lie": 10042, "asma": 10043, "\u0120deals": 10044, "\u0120simultaneously": 10045, "\u0120\u00c3\u00a2": 10046, "\u0120listening": 10047, "\u0120households": 10048, "estone": 10049, "\u0120passes": 10050, "\u0120enterprise": 10051, "\u0120applies": 10052, "gi": 10053, "\u0120oral": 10054, "\u0120grid": 10055, "arks": 10056, "\u0120capability": 10057, "\u0120Motor": 10058, "\u0120Additionally": 10059, "\u0120Korean": 10060, "Latest": 10061, "\u0120transmitted": 10062, "\u0120salt": 10063, "\u0120careful": 10064, "\u0120ensuring": 10065, "onds": 10066, "\u0120possession": 10067, "\u0120borrow": 10068, "acter": 10069, "\u0120somewhere": 10070, "uminum": 10071, "\u0120EN": 10072, "\u0120bridges": 10073, "\u0120evolutionary": 10074, "ML": 10075, "\u0120pursuant": 10076, "ludes": 10077, ")||": 10078, "oca": 10079, "\u0120coach": 10080, "\u0120prosper": 10081, "\u0120Games": 10082, "\u0120Mitchell": 10083, "\u0120hat": 10084, "\u0120Tony": 10085, "\u0120cooperation": 10086, "\u0120earliest": 10087, "\u0120SU": 10088, "\u0120(.%": 10089, "\u0120tur": 10090, "\u0120seeks": 10091, "\u0120dent": 10092, "\u0120explicit": 10093, "pa": 10094, "\u0120dose": 10095, "\u0120engaging": 10096, "acular": 10097, "\u0120Kath": 10098, "arers": 10099, "\u0120Az": 10100, "\u0120extending": 10101, "\u0120Israeli": 10102, "\u0120Darwin": 10103, "\u0120pig": 10104, "\u0120blessed": 10105, "\u0120Miami": 10106, "\u0120handling": 10107, "\u0120collecting": 10108, "\u0120Make": 10109, "\u0120bon": 10110, "\u0120devast": 10111, "Lear": 10112, "\u0120enormous": 10113, "\u0120Wars": 10114, "\u0120archive": 10115, "\u0120commands": 10116, "Ob": 10117, "orship": 10118, "\u0120guys": 10119, "\u0120rely": 10120, "\u0120Excell": 10121, "\u0120gre": 10122, "\u0120establishing": 10123, "\u0120whenever": 10124, "\u0120Command": 10125, "xture": 10126, "acre": 10127, "\u0120($": 10128, "\u0120participated": 10129, "angle": 10130, "\u0120Mand": 10131, "\u0120faithful": 10132, "\u0120jun": 10133, "\u0120mature": 10134, "\u0120brands": 10135, "appy": 10136, "gie": 10137, "\u0120certified": 10138, "\u0120Hosp": 10139, "\u0120dismiss": 10140, "\u0120keeps": 10141, "General": 10142, "uer": 10143, "\u0120eliminate": 10144, "roe": 10145, "\u0120Magn": 10146, "\u0120operates": 10147, "aneous": 10148, "aping": 10149, "\u0120immigration": 10150, "mad": 10151, "\u0120Military": 10152, "\u0120Publishing": 10153, "\u0120secretary": 10154, "ANT": 10155, "abling": 10156, "\u0120rarely": 10157, "\u0120Still": 10158, "\u0120comply": 10159, "\u0120node": 10160, "\u0120Look": 10161, "pen": 10162, "about": 10163, "vit": 10164, "\u0120weapon": 10165, "\u0120Haz": 10166, "\u0120Ple": 10167, "\u0120honors": 10168, "vals": 10169, "\u0120Hem": 10170, "gression": 10171, "\u0120Commerce": 10172, "\u0120advent": 10173, "\u0120reactions": 10174, "\u0120campaigns": 10175, "FS": 10176, "omatic": 10177, "arried": 10178, "\u0120Jess": 10179, "\u0120Princeton": 10180, "\u0120lecture": 10181, "Donald": 10182, "opes": 10183, "\u0120Eve": 10184, "\u0120irre": 10185, "\u0120iP": 10186, "\u0120inspiration": 10187, "\u0120Insurance": 10188, "\u0120Pra": 10189, "\u0120savings": 10190, "\u0120danger": 10191, "\u0120coffee": 10192, "terior": 10193, "\u0120Na": 10194, "\u0120Square": 10195, "\u0120enabled": 10196, "\u0120stronger": 10197, "Mich": 10198, "ifted": 10199, "\u0120wing": 10200, "leen": 10201, "November": 10202, "wall": 10203, "\u0120virtual": 10204, "\u0120width": 10205, "\u0120tower": 10206, "\u0120Freedom": 10207, "\u0120engagement": 10208, "step": 10209, "\u0120infin": 10210, "\u0120databases": 10211, "\u0120dil": 10212, "IH": 10213, "\u0120holes": 10214, "\u0120dynamics": 10215, "CL": 10216, "September": 10217, "God": 10218, "\u0120hab": 10219, "\u0120Duke": 10220, "\u0120Theory": 10221, "\u0120Orange": 10222, "\u0120transactions": 10223, "\u0120lux": 10224, "Those": 10225, "\u0120perpet": 10226, "\u0120classification": 10227, "\u0120Gordon": 10228, "\u0120tack": 10229, "\u0120Bad": 10230, "\u0120protecting": 10231, "\u0120Columbus": 10232, "\u0120EX": 10233, "\u0120murd": 10234, "alph": 10235, "\u0120Hub": 10236, "\u0120attitude": 10237, "\u0120Never": 10238, "Ty": 10239, "\u0120Nick": 10240, "\u0120styles": 10241, "\u0120manufacturers": 10242, "\u0120Stewart": 10243, "\u0120memb": 10244, "\u0120refused": 10245, "psy": 10246, "\u0120obviously": 10247, "fil": 10248, "ographical": 10249, "\u0120TN": 10250, "div": 10251, "\u0120threatened": 10252, "\u0120Lib": 10253, "\u0120municipal": 10254, "raine": 10255, "\u0120regime": 10256, "\u0120lighting": 10257, "eda": 10258, "\u0120disabled": 10259, "\u0120roy": 10260, "\u0120Alan": 10261, "Ret": 10262, "anny": 10263, "\u0120attach": 10264, "urol": 10265, "\u0120developers": 10266, "\u0120Idaho": 10267, "\u0120Ka": 10268, "\u0120eternal": 10269, "umph": 10270, "\u0120opinions": 10271, "etta": 10272, "\u0120Angel": 10273, "\u0120grave": 10274, "\u0120immune": 10275, "\u0120hate": 10276, "\u0120winners": 10277, "CP": 10278, "\u0120boundary": 10279, "\u0120accompanied": 10280, "\u0120upcoming": 10281, "GS": 10282, "nn": 10283, "\u0120humor": 10284, "ovation": 10285, "\u0120counts": 10286, "reshold": 10287, "\u0120Legisl": 10288, "\u0120NE": 10289, "\u0120firms": 10290, "\u0120revers": 10291, "\u0120directory": 10292, "lend": 10293, "\u0120winds": 10294, "\u0120regarded": 10295, "\u0120pip": 10296, "\u0120Christianity": 10297, "\u0120Mathematics": 10298, "\u0120consent": 10299, "\u0120Advisory": 10300, "lee": 10301, "\u0120Hans": 10302, "\u0120acceptance": 10303, "________________": 10304, "zes": 10305, "icts": 10306, "\u0120Fish": 10307, "ussion": 10308, "\u0120barrier": 10309, "\u0120Following": 10310, "\u0120Marriage": 10311, "\u0120scientist": 10312, "\u0120erect": 10313, "\u0120banking": 10314, "\u0120supporters": 10315, "\u0120Islands": 10316, "\u0120Berlin": 10317, "\u0120united": 10318, "\u0120videos": 10319, "formed": 10320, "\u0120recipes": 10321, "\u0120minority": 10322, "onents": 10323, "\u0120Clay": 10324, "\u0120optical": 10325, "\u0120publishing": 10326, "\u0120connecting": 10327, "\u0120Record": 10328, "pring": 10329, "\u0120joining": 10330, "aws": 10331, "Ke": 10332, "ventions": 10333, "\u0120tough": 10334, "elescope": 10335, "\u0120investments": 10336, "\u0120Laura": 10337, "sch": 10338, "\u0120exhaust": 10339, "\u0120Opp": 10340, "site": 10341, "ITH": 10342, "posed": 10343, "\u0120Integ": 10344, "\u0120excited": 10345, "\u0120lights": 10346, "\u0120prest": 10347, "Har": 10348, "itarian": 10349, "\u0120manifest": 10350, "\u0120operators": 10351, "\u0120Alt": 10352, "\u0120TR": 10353, "ema": 10354, "\u0120Pack": 10355, "group": 10356, "\u0120Property": 10357, "\u0120Prim": 10358, "UD": 10359, "\u0120taxpay": 10360, "\u0120appreciated": 10361, "\u0120dict": 10362, "\u0120verse": 10363, "\u0120formula": 10364, "kee": 10365, "\u0120Las": 10366, "\u0120Perhaps": 10367, "\u0120tribes": 10368, "\u0120bene": 10369, "\u0120pilot": 10370, "\u0120charm": 10371, "\u0120aggressive": 10372, "via": 10373, "\u0120collective": 10374, "Rich": 10375, "\u0120documented": 10376, "\u0120kitchen": 10377, "ito": 10378, "\u0120desert": 10379, "\u0120Andre": 10380,
[...]
